#version: 0.2
Ġ d
Ġ e
Ġd e
Ġ l
o s
Ġ p
Ġ c
e n
e r
Ġ a
e s
a r
a s
o n
c i
Ġ s
o r
a n
a d
u e
a l
Ġl a
Ġ m
Ġe n
Ã ³
q ue
u n
r e
t i
i n
Ġ que
Ġ y
t e
Ġe l
t a
t r
Ġe s
Ã³ n
t o
Ġc on
Ã Ń
Ġ h
Ã ¡
i d
Ġ un
Ġ n
i s
o m
i c
Ġ E
ci Ã³n
Ġs e
Ġ f
Ġ v
Ġl os
r o
Ġ C
d o
ad o
Ġp ar
Ġde l
Ġ re
l e
a m
Ġs u
Ġ P
Ġ in
Ġ o
Ġ A
Ã ©
o l
t u
Ġh a
r es
Ġ L
i en
Ġ S
Ġp or
Ġc om
Ġl as
Ã ±
i m
r a
Ġa l
e c
Ġ M
i l
a ciÃ³n
Ġ g
Ġpar a
Ġ b
i o
t er
ÃŃ a
ci on
a b
Ġn o
Ġun a
t os
l a
t en
e m
Ġp ro
en te
q u
t ar
i a
c u
l o
. .
i g
i r
u s
e d
Ġ D
Ã¡ s
id ad
Ġ tr
Ġc u
ad a
ci a
Ġde s
Ã º
Ġp er
c h
t es
e l
i er
Ġ T
t or
p a
Ġ "
i z
Ġ R
ti v
c a
Ġl o
i ci
t an
ĠE l
u r
Ġa c
i b
Ġ to
Ġ G
t as
m a
ĠE s
d a
Ġe x
Ġ B
i v
cion es
Ġp r
u es
al es
o b
u l
Ġcom o
Ġm Ã¡s
Ġ (
Ġ I
c o
Ã¡ n
ic a
id o
ĠL a
Ġ 2
o d
t al
tr a
Ġ 1
ad os
Ġ F
g o
m p
a j
Ġ N
Ġ ti
Ġ j
an do
s e
tr o
er a
m o
p o
i os
Ġa n
Ġm u
Ġ V
i Ã³n
ta m
Ġs er
e z
Ġ res
Ġm e
c e
u d
Ġ J
er o
g u
Ġs i
Ġ te
r an
Ġ U
Ġ H
ic o
Ġes t
i f
Ġes ta
or m
ĠE n
Ġp re
ien to
b l
ad or
.. .
p e
Ġ r
p ar
b i
pa Ã±
Ġd is
Ġsu s
p or
Ġl e
u c
Ġes te
o ci
0 0
t re
id a
Ġa Ã±
p er
Ġcon s
Ġ im
en d
a v
Ã© n
Ġp res
Ġm a
u m
en cia
Ġa s
Ġ qu
n o
r i
an te
d i
Ġ O
d os
n a
Ġ Â
Ã© s
Ġ ten
Ġ Ċ
i on
c er
en ta
Ġp ue
ue v
c on
Ġp a
g a
ar a
b r
em os
t ado
ob re
Ġc a
ad as
Ġs in
g un
tr os
Ġa r
l os
Ġ tu
ĠC on
Ãº n
Ġs obre
r u
p on
en s
Ġm an
al iz
c l
ĠI n
d ad
Ġp as
p l
Ġc as
an a
Ġd i
Ġe mp
s on
g r
am os
z a
g ar
c es
ci as
or a
Ġin ter
Ġpar ti
l es
Ġp od
p os
ÃŃ s
v en
Ġen tre
l as
u er
Ġin f
Ġpue d
Ġper o
Ġc am
er s
i t
Ġm ed
Ġa d
or es
Ġ -
e g
Ġl le
b a
ti c
Ġh an
Ġti en
Ġn uev
is ta
is mo
am ente
ar io
Ġpr im
Ġper son
m ente
ĠA l
l an
Ġ2 0
Ġs on
Ġ Y
en to
Ġy a
b re
Ġ or
i e
re c
Ġn ues
al idad
Ġm ar
Ġf in
ti n
Ġs ol
ti ca
tiv o
i as
bi Ã©n
Ġc ar
Ġv er
Ġto do
en tes
ĠU n
ec h
p res
Ġc o
" ,
" .
ĠaÃ± os
b le
or ma
Ġs al
d uc
tr as
Ġcom p
l ar
en a
tu ra
Ġn os
c ar
Ġa p
ÃŃ n
an o
Ġo b
Ġp os
Ġc re
ĠL os
ti l
Ġc or
ÃŃ as
es ti
ab aj
m in
Ġmu ch
Ġest Ã¡
o y
Ġin s
Ġ t
r as
paÃ± a
Ġ 3
Ġa m
Ġtr abaj
ĠC om
Ġdes d
Ġme j
Ġdesd e
j e
e b
Ġ tam
a c
Ġ tan
ci o
p u
Ġa u
Ġa b
Ġde b
Ġo f
Ġmu y
Ġd os
cion al
ec es
o c
in a
i ta
m as
as ta
Ġha y
ic os
ĠR e
j o
Ġm i
ig u
Ġtam biÃ©n
Ġp ol
on a
ĠM ar
id os
u ro
en tar
p ues
Ġha b
Ġ us
en er
ue l
Ġ20 1
ĠS e
c om
Ġs oci
d as
o g
Ġes c
v er
g an
on es
ĠP or
Ġ '
j er
Ġn i
Ġm un
tiv a
Ġg ran
en ti
d es
ud ad
m os
Ġ ter
i tar
Ġre g
Ã± o
ĠÂ ¿
ien do
ci p
i udad
ĠA n
Ġp o
e o
ĠS an
ic aciÃ³n
Ġm o
Ġto dos
on d
Ġm en
p i
Ġpar te
Ġin d
j a
m i
Ġma y
ĠEs paÃ±a
Ġl u
ici o
l am
e a
Ġemp res
Ġh asta
s o
i ciÃ³n
ien te
ti co
ĠN o
ad r
Ġinf orm
ĠD E
em p
Ġc an
ĠD e
ion es
Ġcon tra
qu ier
v o
idad es
Ġac tu
Ġtr a
il l
is tas
m an
Ġtien e
Ġin v
er v
ti tu
Ãº l
ob ier
ab a
p ec
ador es
ci al
ed ad
qu i
ar Ã¡
d u
ar ios
ĠaÃ± o
u b
Ġpued e
Ġre f
Ġd a
Ġcu ando
Ġc ol
Ġser v
ic as
Ġmej or
Ġtr as
ĠA s
f ec
g en
Ġf ue
) ,
Ãºl ti
ch a
cu r
Ġha cer
Ġde ci
t Ã³
tor ia
z o
v e
Ġdi rec
Ãº bl
er os
obier no
c an
tu r
Ġn eces
Ġd if
Ġf u
Ġn a
d er
iv ers
t on
ti r
Ġg ra
O S
un to
is te
Ġc al
t ados
ter i
Ã± a
Ġp u
E R
ur ante
Ġ Ãºlti
g Ãºn
Ġcu al
Ġ 4
ci n
Ġf orma
Ġcon f
adr id
ond e
Ġc os
c n
u en
Ġp la
Ġc en
or d
Ġ w
Ġm is
Ġv is
tan te
Ġf un
Ã³ m
a y
Ġl ib
v is
ĠL as
paÃ± ol
ar ro
Ġpor que
c al
Ġc l
ib le
Ġd ÃŃa
ab le
Ġa cu
Ġel ec
tiv os
x im
Ġal gun
i es
d en
E S
Ġd ic
c ed
ÃŃ cu
e t
Ġd onde
Ġc iudad
Ã© r
an os
Ġp e
le c
Ġre aliz
am a
Ġv ez
Ġpol ÃŃ
Ġti em
Ġa h
Ġv e
il idad
) .
in o
ta ciÃ³n
ĠS i
Ġm es
Ġ 5
Ġc ada
ici os
y ec
Ġperson as
Ġcom un
em Ã¡s
Ġ W
c as
Ġes pe
Ġb ien
ÃŃ an
Ġse c
Ġa y
id as
ĠA r
Ġre ci
r Ã¡
ĠM adrid
Ġes tu
Ġas ÃŃ
Ġs ido
Ġc r
Ġlle v
Ġf orm
Ġha ce
â Ģ
al mente
an tes
Ġ Q
Ġim por
Ġh is
an s
ci l
Ġpro f
ic ado
ar on
Ġc er
Ġj u
Ġun o
i to
Ġg ener
Ġin cl
Ġ |
Ġc h
en do
Ġm od
g os
ar se
Ġs ig
Ġo p
i Ã³
te l
m iento
Ġv al
ĠC ar
en tos
u ciÃ³n
Ġp Ãºbl
is tr
ur os
a ciones
ti s
Ġmay or
Ġe m
Ġde n
Ġ id
u y
Ġse gu
n os
Ġpro p
Ġde re
Ġ ro
A S
Ġ u
ĠE uro
Ġpro duc
Ġtiem po
Ġes paÃ±ol
Ġp ues
c el
e p
arro l
il la
Ġs ab
Ġde f
ĠA d
A R
Ġ1 9
e le
Ġ Ã©
Ġv iv
Ġd urante
C I
e f
ĠD es
ĠL e
am iento
tic as
Ġe qui
E N
Ã± os
id ente
Ġest Ã¡n
al a
Ġw eb
mp l
Ġcas o
Ġen tr
Ġh ech
Ġf al
Ġh or
Ġ #
in cip
Ġm ismo
g ur
Ġnuev o
Ġpu bl
Ġo tros
O N
Ġm om
v i
tor es
ĠC as
m e
ĠG obierno
Ġn e
Ġmun do
ien tos
Ġen cu
ĠC a
Ġv ida
Ġ @
Ġp lan
un que
p ul
ĠP ar
ch o
Ġm in
Ġes tar
Ġpa ÃŃs
Ġpro yec
Ġ Ã
ĠV al
er n
ien tes
Ġv a
ĠP ara
Ãº s
Ġ K
Ġf uer
emp re
Ġcon ten
en o
r ib
tam iento
Ġp on
ar d
ĠP ro
pu Ã©s
Ġ 6
Ġpr incip
Ġtan to
Ġm ill
ic ar
Ġmen os
Ġqu ier
Ġtr es
Ġa f
ci os
Ġprof es
g res
im iento
Ġcu enta
Ġto da
Ġtrabaj o
Ġcon tr
Ġg ru
Ġlu gar
Ġcual quier
ar es
Ġdes arrol
Ġb as
Ġex pres
iz aciÃ³n
Ġde j
ĠB ar
Ġl es
A L
Ġtr ans
Ġc ab
Ġf r
Ġ ra
Ġb aj
in e
ec e
tic os
Ã³ lo
Ġprim era
tam ente
Ġes tos
Ġac tiv
Ġre c
Ġe uros
Ġinform aciÃ³n
r end
Ġan te
00 0
ti do
z ar
am il
Ġor gan
Ġa par
Ġprim er
Ġsu b
A N
i al
ces o
Ġe v
Ġres ul
ar ia
Ġ Z
Ġnues tro
Ġv o
ĠC h
te g
Ġsi tu
O R
Ġpro gr
un d
j os
Ġe j
Ġ [
ĠS u
Ġsi empre
m en
ch e
Ġ âĢ
Ġv ol
b ar
Ġdif er
an d
Ġh om
ta c
Ġmill ones
con tr
in g
tr uc
Ġmu jer
Ġmuch o
tan tes
Ġah ora
Ġencu en
m ar
t ad
Ġpas ado
ez a
Ġsol o
c en
Ġu til
Ġsu per
Ġm er
Ġo tro
Ġl lam
aj e
Ġno ti
Ġto das
em bre
is ten
Ġse gun
Ġpod er
Ġ tar
tam os
Ġ Ã¡
ĠÂ «
Ġres pon
Ġe ra
w it
Â »
ĠM a
Ġg an
Ġob je
t Ã¡
f er
Ġ z
u ra
qu ÃŃ
Ġnues tra
! !
Ġtr av
Ġmom ento
Ġh er
Ġpod r
Ġd ÃŃas
Ġhech o
Ġex per
Ġin ten
Ġp l
Ġpro ble
Ġ X
Ġ2 00
Ġsoci al
Ġe con
Ġc ele
ol og
c re
Ġ ta
r os
ec u
ĠC o
Ġcomp le
Ġ 7
Ġre d
l aciÃ³n
Ġre la
Ġcu l
Ġex pl
A D
Ġen contr
Ġb uen
Ġdes puÃ©s
pos iciÃ³n
Ġun os
Ġs igu
Ã© cn
er ÃŃa
Ġse m
tan do
om in
ig o
Ġh oy
s a
ĠP a
ier on
f ici
Ġan tes
Ġs iste
Ġpr Ã³
Ġm on
wit ter
le g
Ġp es
o cu
us o
Ġten er
Ġb us
Ġempres a
er g
Ġes e
Ġreci b
Ġf amil
ĠD i
t t
Ġinv esti
Ġo tras
v a
Ġtrav Ã©s
Ġper mi
Ġes o
Ġda tos
ci do
Ġse gÃºn
y o
se gu
Ġqu ien
Ġj ue
Ġh i
Ã³ mo
gu a
ien cia
Ġa unque
S O
Ġes to
y a
Ġhor as
f r
ĠU na
i or
tiv as
Ġ 8
Ġcon tin
h o
te c
ci dad
p ro
ĠP ero
ĠN a
ab or
Ã³ g
Ġqu Ã©
Ġparti do
ar ias
ĠprÃ³ xim
Ġof re
Ġ ir
u da
Ġse a
a tro
Ġser Ã¡
Ġm as
Ġal go
Ġequi po
Ġv en
t ada
Ġpres idente
Ġap ro
que l
ĠEs te
c ado
ĠJ os
ici p
w w
Ġnuev a
Ġcon v
tur al
Ã¡ c
Ġte mp
Ġti po
Ġcom entar
Ġf o
Ġque d
c os
ĠP P
Ġmed io
2 0
v an
Ġd ar
Ġpo co
b o
ĠJ u
Ġcam b
ĠL o
ĠM an
ĠA y
Ġtien en
Ġpued en
is iÃ³n
Ġo tra
ĠC u
Ġcons id
Ġg u
Ġten d
/ /
ĠEs ta
g ra
Ġg us
Ġhis toria
Ġcu r
Ġcomp r
ĠC or
ci s
ens a
us tr
Ġau tor
Ġto tal
er do
lo g
Ġs a
Ġ tal
Ġp el
Ġserv icio
Ġse Ã±
Ġes tas
Ġs Ã³lo
z as
tt p
Ġpre v
Ġa pl
Ġam b
ar an
ÃŃ o
ĠC an
: //
Ġre cu
.. ..
Ġad emÃ¡s
Ġel los
ce p
teri or
Ġgru po
ĠG u
ĠEuro pa
Ġm al
ien tras
ĠIn ter
pi tal
Ġ1 0
Ãº m
un ci
Ġ 9
g ado
ĠCon s
Ġv i
ĠP r
cu l
Ġh um
i cia
Ġar t
Ġes p
Ġa po
ch os
Ġfin al
ol a
Ġempres as
Ġutil iz
I C
g e
un tos
tor io
Ġsem ana
Ġb a
ica ciones
Ġ Ãºn
Ġn om
v il
Ġhab ÃŃa
h a
ĠO r
L a
ti dad
ar ra
Ġcom par
Ġt Ã©cn
s os
Ġy o
Ġre pres
Ġa quel
Ġm il
Ġn in
Ġs enti
Ġc ier
Ġes a
Ġn ada
Ġespe cial
ter a
Ġn av
an za
d al
Ġcom er
Ġserv icios
Ġha bl
ĠF ran
Ġhab er
Ġest ado
Ġcon oci
Ġa g
Ġinter es
Ġm ad
ĠP res
Ġp ens
Ġre con
en t
ĠC am
Ġs ÃŃ
or n
om o
Ġproyec to
Ġsin o
Ġe di
ar i
av or
Ġprofes ion
Ġe fec
un tamiento
id e
im os
Ġn Ãºm
SO E
ĠE x
Ġus u
Ġcas a
b an
b ol
un ta
E s
Ġs an
ĠS al
Ġs im
cu lar
Ġc in
Ġcom paÃ±
Ġsiste ma
el l
E l
Ġ1 5
v in
enta ciÃ³n
Ġd ir
Ġrespon s
ĠL u
Ġa ten
ĠP ol
ĠÃ ģ
Ġle g
Ġdeci r
iv el
ÃŃ f
Ġgener al
tu ras
ab an
ÃŃ d
Ġcon o
en cias
e x
Ġp al
t Ã³n
d ida
pues to
Ġb an
Ġb ar
Ġparti cip
Ġman era
om e
r is
c ri
Ġ k
Ġesta ble
iv a
Ġp i
Ġmun icip
ĠÂ ¡
ig a
Ġin m
Ġf avor
Ġel lo
Ġmuch os
Ã¡ g
Ġus o
Ġelec tr
ĠUn ivers
ĠA c
Ã¡ l
ĠAd emÃ¡s
Ġpe que
Ġf a
Ġespe ci
Ġca pa
Ġla b
Ġh e
i tos
un idad
ĠT o
T A
ĠJos Ã©
Ġman ten
u al
Ġan ti
us iÃ³n
pues ta
Ġ tor
ĠN av
Ġl ar
Ġre v
Ġau to
esti Ã³n
Ġv uel
b ra
p le
ĠEs tado
Ġn ivel
ĠL A
Ġa quÃŃ
Ġc Ã³mo
p re
Ġc ara
ĠM on
Ġecon Ã³m
c or
Ġ i
ĠM e
Ġcen tro
Ġg as
ĠH a
ĠP SOE
Ġ igu
' ,
ĠpolÃŃ tica
Ġprogr ama
ab les
Ġju g
Ġlo c
qu il
is is
al l
cel ona
Ġes pa
t witter
Ġcu atro
Ġmes es
ĠS eg
er as
ir m
Ġm ientras
Ġv ia
e ta
ci miento
ĠAy untamiento
c ol
Ã³ r
Ġestu d
Ġ os
ĠS oci
g on
ĠM ed
le o
ĠâĢ ĵ
ib ilidad
ĠÃ© l
Ġpos ible
Ġconten idos
Ġs en
ĠG ener
Ġtu r
ĠnÃºm ero
I S
Ġha bi
Ġdis pon
Ġacu erdo
Ġalgun os
Ġh o
Ġes pec
re o
Ġmed i
Ġes per
ÃŃcu lo
tan cia
Ġdis tin
na cional
Ġb o
cion ales
Ġde cl
en e
olog ÃŃa
ador a
Ġorgan iz
ĠT am
ti f
Ġb u
en ci
ici al
ar Ã¡n
Ġl ÃŃ
Ġs o
Ġcos as
Ġnoti cias
ĠS in
ĠP od
f orm
h ib
Ġne go
Ġden tro
o tros
Ġa br
Ġinvesti g
Ġins tal
re a
Ġcontin u
Ġdir ig
Ġay ud
in as
s iÃ³n
b er
f ru
Ġimpor tante
Ġg ente
Ġte cn
Ġdere chos
por te
ci d
Ġle y
Ġc las
Ġnues tros
c ÃŃa
Ġdeb e
an ci
Ġsegu ir
e as
Ġc lar
ĠJu an
d ic
Ġconsid er
l u
Ġesc ri
p as
Ġgran des
Ġcon di
Ġsitu aciÃ³n
Ġcom pe
Ġref er
Ġcom en
tr an
ĠA m
im o
Ġval or
ib u
j as
Ġtemp or
Ġh ttp
is o
g as
ier a
ĠBar celona
Ġse gur
Ġcas i
ch ez
Ġp ed
Ġim a
ĠpÃºbl ico
ue la
Ġc alidad
Ġun as
Ġlle gar
Ġver dad
Ġej emp
tu d
Ġ ur
b ado
ti m
Ġ1 8
on o
Ã© c
I N
ĠP u
t Ã¡n
Ġmu er
Ġcamb io
ad i
Ġe uro
ĠP er
Ġh emos
ues tra
Ġsec tor
Ġpre gun
Ġqu er
o k
ĠG ar
Ġp unto
Ġfun cion
in os
Ġa se
om a
Ġlle g
Ġfu era
Ġm Ã¡
ĠG ran
ĠC en
Ġa mpl
du ci
ĠIn s
te d
ĠM un
Ġd omin
ĠÃºlti mo
ĠCa tal
Ġz ona
R E
ĠE N
ĠP re
Ġmis ma
gra f
ĠAs ÃŃ
Ġigu al
Ġd ocu
Ġper io
Ġsol ici
Ġre par
Ġd ig
n es
or r
Ġcele br
ers iÃ³n
Ġdifer entes
ep end
Ġdis fru
Ġem bar
Ġmujer es
p ed
T E
im a
ĠR es
Ġv enta
ĠGener al
Ġpres en
Ã± as
Ġp ad
ter io
pec to
Ġor ig
tar io
Ġp Ã¡g
ĠA g
t ÃŃn
l ado
pos i
Ġtra ta
Ġs ue
h e
Ġl im
Ġ1 2
Ġfr ente
i ar
or te
ol u
Ġproduc tos
Ġcontr ol
Ġtu s
t s
z ado
un ca
ti o
Ġo bl
Ġcon segu
Ġd in
Ġre cur
ol Ã³g
ĠRe al
ec er
ta ciones
Ġobje tivo
Ġmuch as
om ÃŃa
n e
Ġel la
Ġdis e
Ġsoci edad
an to
Ġgra cias
ĠQ u
R A
Ġcu mpl
Ġfal ta
Ġh ora
U E
es iÃ³n
Ġte le
ĠC iudad
Ã¡n chez
Ã¡ m
Ġre co
e ci
br as
Ġj unto
Ġa fec
gres o
Ġor den
un a
e lo
Ġlab or
Ġdesarrol lo
til la
ol uciÃ³n
iv il
Ġreg istr
Ã¡ r
Ġcono cer
Ġbaj o
ĠS Ã¡nchez
Ġejemp lo
Ġsegur idad
Ġfun d
Ġfin anci
Ġfo to
Ġpar ece
ter o
Ġcam bi
ÃŃ tu
ĠE L
ĠTam biÃ©n
n et
Ġpro ceso
Q u
Ġha cia
I I
i re
z Ã³n
Ġp an
Ġre un
m Ã¡
Ġperson al
Ġin ici
Ġpro ced
is tro
Ġob s
Ġman if
Ġmej ores
Ġmer cado
ib les
p el
Ã± ana
duc aciÃ³n
Ġdes a
Ġform aciÃ³n
pon e
por t
Ġperson a
Ġa um
Ġal um
Ġa gua
ib uciÃ³n
Ġdic e
Ġtar d
Ġp uer
I L
ĠT od
Ġactu alidad
p r
Ġnom bre
Ġmin u
Ġg obierno
u la
Ġm os
Ġac ep
p ic
f a
Ġsoci ales
Ġpon er
ĠNa cional
ue go
ĠM in
Ġv eces
tu ro
res pon
Ġparti r
l or
is tra
Ġ3 0
Ġd iv
Ġg aran
Ġa le
uy e
Ġco lec
b res
ic h
Ġc ir
Ġcol abor
Ġpro hib
Ã³ s
Ġdirec tor
g ue
ien e
l v
ĠCon se
Ġo c
Ġdes cu
Ġf ran
Ġal can
di al
aj es
ĠP ed
Ġase gur
Ġm Ãºs
il lo
Ġde m
Ġcin co
Ġj us
tu al
Ġe jer
Ġcan dida
Ġind epend
Ã¡ f
Ġproble ma
ĠUnivers idad
ĠÃºlti mos
Ġproble mas
ten d
ic e
Ġnuev os
ĠF ern
Ġpues to
Ġnuev as
ĠprÃ³xim o
Ġac ab
Ġ1 1
Ġesta ba
om os
Ġlib er
i tas
Ġdeb er
Ġg ol
Ġembar go
Ġincl uso
Ġdere cho
O L
Ġactiv idades
Ġp untos
ĠM u
ĠDes d
Ġf or
r Ã¡n
ĠDesd e
ten cia
Ġse x
p ti
iv o
Ġelectr Ã³n
M A
Ġcon tac
Ġo cas
Ġse lec
qu es
Ġe t
Ġpr Ã¡c
Ġm us
Ġde r
Ġsegun da
re d
u Ã±a
Ġexper iencia
Ġins titu
l io
Ġter min
Ġni Ã±os
t h
Ġnos otros
b e
g el
ĠM o
r am
ĠI s
Ġex tra
ĠCom o
Ġca us
min istr
I D
Ġ il
dos e
p end
Ġob ra
pul ar
Ġn unca
ci er
aliz aciÃ³n
Ġpal ab
Ġa Ãºn
Ġbu ena
p ciÃ³n
ĠI g
iz o
ĠP o
Ġj orn
Ġpro vin
i te
Ġl ado
Ġan im
v es
Ġpre par
ĠS erv
ed ia
ĠPod emos
ech a
Ġpas o
Ġab s
Ġpr omo
Ã ĵ
Ġe d
Ġ on
ĠE mp
Ġm Ã©
r or
Ġal cal
ic ul
Ġactiv idad
Ġna cional
il i
pues tos
ĠE S
Ġre com
Ġten emos
b lo
Ġ1 3
ci endo
ir ma
Ġsegun do
20 1
Ġv an
ĠQ ue
Ġl i
Ġb log
z os
Ġs iendo
Ġl ÃŃn
Ġpr ue
n as
Ġre alidad
Ġdic ho
ter min
Ġdef in
Ġmayor ÃŃa
Ġestu di
Ġof er
Ġma Ã±ana
Ġcon j
Ġca tal
ĠpaÃŃs es
aj o
ĠA u
Ġeuro pe
Ġ 0
I A
Ġelec ciones
R O
ĠEuro pe
m ento
Ġ2 5
f o
Ġcen tr
per aciÃ³n
Ġca pital
Ġcor respon
Ġlo gr
ra ciÃ³n
v ÃŃa
Ġa gr
ĠR a
Ġfu turo
Ġvi ol
duc ciÃ³n
Ġhom bre
if icaciÃ³n
Ġsenti do
Ġsal ud
Ġb en
Ġrealiz ar
ÃŃcu los
Ġencontr ar
im in
Ġal l
Ġcon ven
ici dad
- -
iz a
r era
Ġmed ios
Ġac er
Ġhay a
Ġp in
Ġfuer on
Ġnav eg
ĠLe y
ĠaÃ± ad
ab ilidad
Ġna tural
Ġcondi ciones
if ic
ir Ã¡
Ġm ens
Ġdes p
Ġfamil ia
ĠseÃ± al
Ġactu al
en as
b as
ĠMar ÃŃa
t bol
r on
j ar
ton ces
Ġalgun as
Ġmos tr
Ġmi em
Ġpr iv
ÃŃ c
ĠB a
Ġcomun icaciÃ³n
Ġ /
ĠC al
ĠmÃ¡ xim
Ġp ob
Ġf i
ĠR eg
i k
c k
Ġac ceso
Ġre laciÃ³n
Ġv arios
ul ar
Ġob ten
Ġquier e
Ġpre m
Ġj un
Ġd ivers
Ġf il
Ġlar go
Ġsec re
ĠP la
Ġr u
Ġun ivers
Ġop in
Ġprogr am
Ġen tidad
Ġmo v
Ġtard e
Ġcon ver
Ġapo yo
Ġet c
Ġ1 4
im en
Ġlib ro
O M
Ġn orm
Ġpel ÃŃcu
tÃ³ r
isten cia
Ġno v
Ġentr ada
Ġser ie
Ġel eg
ĠT or
ĠÃºlti ma
Ġs os
Ġpre cio
Ġa van
i tal
Ã¡n d
Ġjue go
Ġart ÃŃculo
ĠAn dal
vis iÃ³n
en da
Ġman o
ul io
Ġcons ul
Ġha br
ed or
ĠP e
re g
Ġm ul
Ġparti ci
ĠD is
g er
Ġin te
Ġcu er
Ġres to
N o
Ġd ici
Ġf Ã¡
Ġparti dos
le x
ĠPed ro
ĠP ue
c end
Ġe r
Ġo bras
Ġ1 6
Ġclar o
Ġcon te
Ġv end
Ġm or
ic ÃŃa
ta gon
ier nes
ic amente
Ġdeci d
c ter
Ġcomentar ios
Ġdirec ciÃ³n
oci aciÃ³n
Ġusu arios
re z
cur so
Ġf on
ĠLu is
Ġde por
d ica
uc ÃŃa
l er
Ġdin ero
Ġdecl ar
ĠDi rec
Ġres erv
ĠJ o
Ġim pl
ĠespaÃ±ol a
Ġsigu iente
ĠAn ton
Ġencuen tra
Ġcal le
Ã³ p
ti z
Ġre pro
Ġes ti
ĠT e
Ġab ier
Ã¡ p
Ġg en
ĠC l
Ġin icia
ord in
Ġpued es
Ġ1 7
Ġpas ar
Ġ2 4
Ġo port
ĠlÃŃ der
Ġc ri
ien da
Ġsi tio
. -
es a
Ġespa cio
Ġtempor ada
ĠSeg Ãºn
ĠpÃºbl ica
Ġima gen
Ġma teri
Ġedi ciÃ³n
Ã© is
ig n
ti ene
Ġde ba
ĠA h
Ġpodr ÃŃa
Ġben ef
Ġemp ez
Ġrela cion
Ġde termin
b al
ad ie
3 0
er on
Ġc la
Ġl ec
... ]
Ġg r
ien t
Ġsig ue
aliz ar
edad es
ed er
ig os
Ġdej ar
Ġo cur
an as
Ġincl u
os o
Ġinvestig aciÃ³n
Ġno che
T O
Ġprim ero
Ġalgun a
ch ar
Ġcon se
ĠCom unidad
Ġcam paÃ±a
Ġmedi ante
ti cia
Ġpro tagon
Ġes cu
ĠpÃ¡g ina
Ġid enti
tr u
v illa
Ġnin gÃºn
truc ciÃ³n
Ã ¼
Ġan terior
Ġres pecto
s i
Ġen erg
os a
ĠG al
Ġestud io
Ġs or
ven es
Ġa tra
Ġcor reo
Ġprop io
ti na
Ġac om
Ġsab er
ĠY o
Ġofre ce
Ġb al
Ġg estiÃ³n
Ġmed idas
il ar
iz ar
Ã³ vil
Ġen fer
ĠR o
tec ciÃ³n
Ġprofesion ales
Ġpres id
Ġre al
er ra
il las
ti a
Ġte x
Ġr ies
Ġf e
Ġparti cular
ÃŃtu lo
Ġcele bra
bl es
Ġesc rib
ion al
ÃŃd eo
Â ¡
Ġan unci
ĠTod os
Ġti tu
tar Ã¡
ra g
tor ial
aj a
Ġas es
Ġfa cil
ĠM Ã¡s
Ġcas os
Ġb lan
Ġresul tados
Ġsu r
Ġrecon oci
Ġsig lo
ĠG o
Ġpod emos
ĠC ol
qu is
Ġa por
Ġca p
Ġen car
Ġve h
Ġv iernes
br os
ab r
Ġminu tos
Ġrec ord
un es
Ġmod elo
Ġpa tr
Ġdis tr
ĠS ol
Ġnin gun
ĠCu ando
Ġev itar
Ġes tr
ĠEs tÃ¡
uer ra
Ġap rend
Ġ Ã©s
Ġcr isis
min istra
Ġpubl ic
Ġex ig
ĠAg encia
v al
ĠmÃºs ica
Ġre l
ad io
T I
g n
Ãĵ N
Ġg al
Ġpa pel
Ã³ venes
Ġpos i
par a
Ġte ma
iz quier
Ġind ustr
i Ã©n
t adas
ĠF a
e te
es ta
Ġj o
ĠCar los
i p
ĠS a
Ġo cu
Ġde mo
Ġprohib ida
if ica
ab lo
Ġr om
im on
Ġcu ar
Ġper d
Ġpre cios
Ġen tonces
Ġcons titu
gen es
ĠAnton io
Ġmo do
Ġv as
Ġs Ã¡
Ġpro du
ven ciÃ³n
Ġd ado
r ÃŃ
u g
i x
tu bre
in d
Ġpr ensa
Ġdisfru tar
as e
Ġma ter
Ġpermi te
Ġperio d
Ġl an
is terio
Ġmar cha
Ġcer r
Ġex cl
en se
Ġs esiÃ³n
ww w
Ġh izo
Ġobl ig
ĠT er
Ġcu anto
pti embre
ĠNav arra
Ġ[ ...]
Ġper fec
tr od
Ġnues tras
ti Ã³
Ġex p
ĠP al
ĠCatal uÃ±a
l Ã©
Ġel las
an cia
Ġten ido
e os
i ado
Ġter cer
Ġin cre
Ġten ÃŃa
Ġ izquier
uev a
duci r
1 9
ĠT ra
Ġcab o
Ġay er
Ġde tal
Ġresul tado
i ano
Ġrecib ir
cu lo
f orma
il o
ĠT ras
Ġdes tac
vo ca
aj oy
il a
Ġes tamos
em or
E C
ĠAndal ucÃŃa
Ġcon cre
Ġmed ia
Ġmay o
ĠJ av
c am
pues tas
ĠC ul
h t
ador as
Ġpres entar
Ġjun io
Ġl l
Ġh ub
Ġllev ar
ĠC ON
ĠB o
E L
ĠCen tro
Ġal im
Ġpla zo
ĠJ unta
ci ales
Ġjorn ada
Ġcapa cidad
ies ta
ĠH oy
ta vo
Ġimpor tantes
is cal
Ã į
Ġj Ã³venes
Ġin g
Ġc oci
ĠVal encia
Ġe dad
Ġcer ca
Ġprincip ales
Ġpres u
ĠÃºn ico
Ġcol or
Ġde ten
Ġes tra
Ġbas e
Ġay uda
Ġcara cter
Ġaten ciÃ³n
i ra
Ġ tes
Ġprincip al
Ġproyec tos
Ġcorrespon d
Ġpue blo
ĠPres s
Ġse is
Ġcur so
Ġv ig
ĠespaÃ±ol es
Ġa ud
m ientos
ĠEn tre
Ġrepres en
Ġes os
cion ar
ĠG ra
Ġdomin go
ĠR ec
ĠGar cÃŃa
Ġf ac
ĠRe y
Ġcu en
ministr aciÃ³n
u ales
ĠY a
Ġinter nacional
er ia
Ġs ens
ĠI N
ÃŃ tica
on os
Ġal gÃºn
Ġe ven
ĠIg les
Ġ5 0
A l
Ġejer ci
U N
ĠJ a
Ġdes ta
Ġd o
Ġprop ia
Ġten go
Ġllev a
Ġdici embre
Ġr Ã¡p
Ġim pres
ĠV er
Ġan un
Ġpar e
E n
Ġprev io
ĠCon greso
en tal
tu ri
Ġin cor
Ġtien es
Ġad el
Ġn adie
Ġconsegu ir
Ġjo ven
ĠR ajoy
ĠÃ© x
Ġlib re
r io
tor a
Ġneces ario
Ġv ari
Ġsu fr
Ġsig n
Ġac ced
Ġdis posiciÃ³n
ĠelectrÃ³n ico
Ġres ta
ĠEs tados
Ġh os
i le
es tiv
Ġdemo c
ĠMar tÃŃn
tor al
ĠcompaÃ± ÃŃa
or ÃŃa
Ãº a
Ġdi jo
ec en
ar e
no v
ĠH ay
Ġpl ante
tor no
l ine
Ġhis tÃ³r
on as
E D
ma il
ĠUn idos
Ġ2 1
Ġal ter
Ġ201 7
Ġse ptiembre
Ġgru pos
Ġcier to
ĠD ÃŃa
Ġen can
uev es
ch es
Ġcre o
Ġv arias
Ġha cen
Ġtend rÃ¡
ĠM er
Ġ201 8
ĠP lan
Ġemp leo
ĠSan ta
Ġinf orma
Ã ĥ
Ġl uego
vi embre
Ġcam po
ĠM or
t Ã©
Ġoc tubre
Ġacom paÃ±
Ġpue da
Ġal ta
e v
ĠB an
d ico
Ġvis to
ti no
ĠsÃ¡ bado
Ġprofesion al
er ic
Ġpres enta
Ã¡nd ez
u mo
j ero
Ġcons enti
ĠS ec
Ġres pe
Ġorig in
ĠC ris
i tan
Ġvol ver
Ġa do
Ġj ur
ÃŃs tica
Ġfund am
ĠM ig
Ġl unes
Ġinter Ã©s
Ġloc alidad
A M
da p
is la
ĠfÃ¡ cil
Ġalcal d
Ġconten ido
c rib
tor ios
Ġed if
Ġ +
Ġemp le
Ġpes ar
Ġen vi
Ġver ano
Ġv ir
ĠAn d
ĠH o
Ġp ud
j es
ĠtÃ©cn ico
Ġb r
Ġre des
ar ÃŃa
k e
t ÃŃa
Ġcl ientes
ard ia
ch as
ĠS us
Ġm ir
ÃŃc ti
Ġ1 00
cion ado
Ġid ea
Ġa ta
Ġpres ente
Ġgus ta
Ġciudad anos
Ġde pend
Ġve cin
Ġj ulio
c to
ĠSoci al
Ġapo y
Ġconj unto
ĠT ur
ĠS on
Ġtr i
U R
Ġtrabaj adores
al e
b ro
Ġv ic
Ġenfer m
Ġmar ca
Ġofre cer
Ġincor por
Ġhabl ar
Ġof ici
Ġam or
t ales
lam ento
ĠP ablo
Ġre cl
Ġpas a
CI ON
ĠH er
Ġn eg
Ġque da
ĠA le
Ġliber tad
Ġpod rÃ¡
ĠlÃŃn ea
Ġconsenti miento
id eo
Ġparticip aciÃ³n
tin g
m bi
Ġm ÃŃn
_ _
Ġse man
em a
Ġest re
Ġencuen tro
ob er
Ġexpres amente
Ġmanif es
Ġprim eros
Ġ *
tar ia
ĠMin isterio
ÃŃs ticas
Ġpos ibilidad
Ġper man
f e
Ġel em
ĠEs to
Ġm uestra
Ġorgan izaciÃ³n
Ġcan tidad
ĠM us
ĠCas tilla
itar io
Ġ ib
il es
Ġpro ces
il idades
Ġprovin cia
m entos
ĠIn d
Ġdes car
un al
Ġquien es
ĠAh ora
Ġusu ario
Ġter ri
Ġa dap
Ġen v
Ġac to
du ca
Ġv ÃŃcti
ĠMig uel
m on
Ġinte gr
ĠSe villa
Ġo lv
Ġid e
Ġacu s
Ġcon ce
Ġmuer te
Ġproduc to
v ech
Ġm Ã³vil
Ġmed ida
or o
Ġcuer po
Ġmiem bros
ĠPor tal
ir se
Ġpalab ras
P A
Ġd oc
ĠConse jo
p rend
I O
ur al
Ġt Ã©r
Ġmar zo
ĠS er
Ġtu vo
ar o
Ġac og
ĠF und
Ġres puesta
id ar
Ġlo cal
om as
Ġp ic
Ġto m
ĠÃ¡ mbi
ĠP as
ÃŃ amos
Ġapl icaciÃ³n
Ġser ÃŃa
Ġcon cl
Ġabr il
Ġno viembre
Ġ201 6
Ġsigu ientes
Ġtoda vÃŃa
ĠpolÃŃ ticos
Ġdif ÃŃ
Ġpla ta
Ġpartici par
p era
Ġel abor
al o
ient ÃŃf
el os
ti on
Ġes f
Ġcen tros
Ġtr adi
Ġrespons able
ĠR od
ĠpolÃŃ tico
gr Ã¡f
Ġlu z
Ġres id
Ġj ueves
Ġcom ien
Ġf el
Ġf echa
Ġ2 2
br ero
Ġdi pu
k a
z Ã³
Ġau ton
ra c
Ġv ista
Ġl en
Ġcar rera
Ġmejor ar
Ġalum nos
Ġmanten er
Ġc ad
Ġm ÃŃ
Ġcontac to
Â» .
f ica
' .
Ġser Ã¡n
Ġcolabor aciÃ³n
Ġen fr
ĠMan uel
ram ien
ĠpelÃŃcu la
Ġentr en
Ġex isten
Ġl ista
ĠG ru
Ġcab eza
tiv idad
Ġdeci siÃ³n
Ġdes tin
Ã³ d
Ġde man
Ġrecur sos
Ġpres encia
Â» ,
Ġries go
Ġ ub
gu ien
Ġcons erv
Ġp oc
on z
Ġcar go
aliz ado
ĠIns titu
Ġha ciendo
Ġmen or
Ġs ir
ĠC ivil
Ġa segu
Ġcam ino
Ġmay ores
Ġcre ar
Ġgra tis
Ġcos a
Ãº tbol
Ġaquel los
ĠÃ©x ito
ĠS o
Ġa tr
tal la
tor ias
Ġal to
Qu Ã©
Ġb ol
Ġalcald e
ar lo
Ġd om
Ġim pul
ĠFran cis
ĠB uen
tar on
Ã¡c ter
Ġcl ub
ĠU N
ĠT rib
Ġ19 9
Ġdef end
Ġd uda
ĠA b
1 0
Ġningun a
Ġincl uy
v ista
Ġa j
Ġof icial
col es
Ġc ine
Ġcomun idad
ru z
Ġcar Ã¡cter
ĠF in
Ġse an
a u
Ġpr on
Ġesp era
Ġv ersiÃ³n
Ġcor r
Ġsegu ro
Ġpo ten
di Ã³
Ġen ero
Ġsol u
ĠPr im
p an
ĠpolÃŃ ticas
ib lio
Ġpob laciÃ³n
le z
Ġ4 0
ci Ã³
ĠCom un
Ġinter na
Ġdig ital
Ġme tros
ĠCiudad anos
e la
Ġgra tu
Ġam igos
form aciÃ³n
ĠInter net
en os
Ġcom b
tiv amente
Ġneces idad
ig ue
Ġpues ta
Ã¡l isis
ĠM i
istr ibuciÃ³n
Ġexpres o
tur ales
c ados
teri ores
Ġcul tura
ĠM ur
imon io
ĠU r
ĠS E
ens o
Ġhom bres
ĠG onz
trod u
ci ma
Ġen se
Ġtrabaj ar
Ġk il
ĠÂ ©
ien das
Ġad ecu
Ġpro por
Ġmad re
u t
Ġex tre
Ġmuch a
ĠT witter
estiv al
Ġp is
Ġpre ocu
Ġinter ior
irm ado
Ġar te
ĠPol icÃŃa
ti endo
Ġvis ita
ĠE j
Ġest Ã©
Ġte mas
R ef
Ġher ramien
om b
v ia
Ġde mos
Ã¡n do
Ġar tis
p ol
Ġv iene
Ã© m
ĠÃºn ica
Ġdeb en
Ġac on
Ġj ud
Ġasegu ra
Ġca teg
Ã³n ica
ĠPu bl
Ġa gu
ĠEs paÃ±ol
ĠN e
if usiÃ³n
ue lo
Ġpre vis
il los
l ad
Ġpa ci
Ġdise Ã±o
ed a
ĠE ducaciÃ³n
Ġim Ã¡
Ġab and
Ġespecial mente
ter ÃŃa
Ã©r coles
bo ok
Ġsal ida
Ġofer ta
ĠA unque
te ca
Ġhi jos
L A
Ġbus c
Ġd ob
im ientos
ĠFrancis co
ĠFund aciÃ³n
ĠJ es
Ġcompe ti
ten der
uer to
Ġ2 8
Ġpro puesta
Ġviol encia
Ġpued an
ĠCas a
Ġred istribuciÃ³n
Ġcompr om
ĠEurope a
Ġsen cil
ĠJav ier
ĠL OS
ien cias
tavo z
ĠimÃ¡ genes
ac ciÃ³n
Ġmar tes
tar se
Ġa ire
ĠtÃ©r min
Ġrecu er
Ġes truc
I T
tar ÃŃa
Â ¿
g in
l y
Ġv amos
Ġn um
CI ÃĵN
iv os
Ġp ier
Ġmod er
Ġf ÃŃs
Ġus ted
Ġ \
ĠServ icio
ĠGru po
it ada
Ġtr ad
Ġvecin os
ĠDE L
gos to
ĠDi pu
mi te
b ilidad
Ġred ifusiÃ³n
ĠB en
w e
Ġp en
Ġc iento
ente mente
ier ra
O D
id ores
2 00
ur as
iv id
Ġle er
ĠeconÃ³m ica
ĠÃ¡ rea
ol ver
Ġes ca
ed ores
Ġgaran ti
i tado
Ġg uerra
Ġlabor al
Ġd Ã©
Ġdem Ã¡s
Ġcre aciÃ³n
i ro
Ġcons ecu
ĠInter nacional
Ġlle ga
Ġprue ba
ic al
Ġdes con
Ġah ÃŃ
Ġvol un
ĠT a
Ġregistr ado
ie do
Ġal guien
p ia
Ġdirec to
Ġamb os
Ġdeba te
on e
ita t
Ġes as
r ÃŃa
ĠO b
s u
Ġagr ad
Ġrecu per
Ġrecom end
Ġdere cha
Ġ2 3
m ad
aliz a
Ġpel ig
Ġcambi ar
Ġman os
ĠdifÃŃ cil
ech o
C O
ĠAs ociaciÃ³n
Ġbuen o
Ġcon cier
Ġ2 6
ĠC ab
ta ba
â Ĥ
par tam
5 0
Ġen torno
âĤ ¬
ĠL ib
Ã¡ tico
Ġdes e
i anza
v ar
Ġpodr Ã¡n
Ġcon voca
ita ciÃ³n
br ia
tic amente
Ġcons um
Ġsu pone
Ġapro b
Ġexpl ica
Ġopin iÃ³n
Ġco leg
Ġe duca
Ġcon tar
Ġinform e
ĠP Ãºbl
Ġt ÃŃtulo
s iones
ĠÃģ n
Ġdefin i
Ġapro vech
Ġe ran
Ġrec orr
im ismo
Ġmi Ã©rcoles
am b
Ġdi ez
Ġesc en
es e
Ġ >
ĠR ed
Ġequi pos
ĠH is
Ġesto y
ĠLe Ã³n
Ġd ud
Ġmater ia
Ġe mo
Ġbas tante
Ġsu ced
Ġinicia tiva
ĠMun dial
p s
Ã¡m ara
Ġo posiciÃ³n
Ġfo tos
Ġmis mos
Ġpre cis
ĠD a
Ġexcl us
la ga
itar ia
Ġco che
Ġv ÃŃa
Ġop era
Ġgran d
Ġpad res
Ġconte mp
Ġdemos tr
Ġa z
Ġcon cep
Ã© l
ĠTo do
ÃŃ do
ÃŃs tico
f il
Ġac ciÃ³n
Ġter c
Ġe ducaciÃ³n
p ir
Ġestud ios
Ġl id
Ġizquier da
Ġsim ple
Ġcor rec
ĠB il
Ġdef ensa
Ġf abr
ĠÃ© po
esti on
Ġrepro ducciÃ³n
Ġseman as
iz ado
Ġb eb
Ġc ivil
Ã©c tr
graf ÃŃa
Ã³p ez
C H
Ġimpor tancia
Ġs Ã©
Ã¡n dose
C A
ta bria
ĠpÃºbl icos
Ġpermi tir
ĠV ic
Ġfuer za
Ġlib ros
Ġdis posi
ĠO l
Ġv ideo
Ã³m e
Ġb el
Ġ201 9
Ġho tel
on so
Ġre cha
ti da
ce book
lar es
Ġc ientÃŃf
ĠR u
o co
Ġind ivid
Ġabs olu
lo go
am ientos
Ġse d
ĠL Ã³pez
Ġsab e
ĠB r
Ġmo tivo
Ġtex to
Ġpo pular
Ġc if
Ġgan ar
i que
Ġel imin
gue z
Ġz onas
Ġproduc ciÃ³n
Ġsal ir
Ġap ues
ĠD er
Ġju gar
f t
ve la
i an
Ġpon e
ĠO s
Ġpre tend
Ġrel ig
Ġn orma
Ġanti gu
Ġto mar
Ġcomentar io
ĠFern Ã¡ndez
Ã©r ica
Ġter ror
Ġesf uer
ĠmÃ¡xim o
Ġmunicip al
w s
Ġen la
d em
Ġs oy
Ã ģ
ĠN os
Ġsu fici
Ġp ul
ĠPre m
j al
ar te
Ġacced er
cri pciÃ³n
Ġc ic
Ġsuper ior
Ġtecn ologÃŃa
cion a
Ġoport unidad
ic ante
Ġb Ã¡s
Ã¡ laga
Ġex iste
Ġdeb ido
b aj
Ġpres entaciÃ³n
og le
ĠT en
h ttp
Ġro d
Ġde dic
Ġpad re
V A
Ġcons trucciÃ³n
Ġpor tavoz
Ġinter pre
Ġden unci
Ġprincip io
ĠÃ¡mbi to
Ġop ciÃ³n
Ġen cima
E M
Ġefec tos
ĠCons titu
ĠD el
Ġs omos
un cia
tam ientos
Ġorig en
Ġobs erv
ĠF er
ic an
Ġutiliz ar
Ġp ide
to do
Ġper ten
titu d
Ġrecon o
ĠA L
ĠSu per
Ġim pa
tia go
Ġneces idades
Ġconsid era
Ġrealiz ado
Ġa gosto
end e
Ġvia je
ĠÃºlti mas
ĠF u
Ġfe brero
Ġin nov
pon er
Ġmom entos
ĠE con
b ier
ĠD av
Ġad ministra
Ġde ja
Ġcomp ra
Ġv in
Ġbus car
Ġde mas
Ġ201 0
Ġbus ca
Ġfuer te
ĠJ us
el as
ĠL oc
Ġb lo
ĠCom isiÃ³n
ic k
Ġin gres
Ġd an
Ġcre cimiento
ĠF o
Ġtra tamiento
Ġ201 5
ĠC os
end as
ĠD urante
f es
Ġnego cio
Ġcon duc
ĠW eb
Ġinstal aciones
ĠAl ber
Ġpla za
k o
Ġper der
Ã© di
Ġon line
Ġinm edia
u do
Ġr eno
ic ada
if icar
an ÃŃa
ra cia
Ġelec toral
ĠM as
ĠFern ando
Ġdise Ã±
ĠE m
Ġhi jo
Ġhacer lo
Ġreun iÃ³n
mp oco
Ġb on
Ġecon omÃŃa
ĠJ or
Ġnoti cia
Ġfun ciones
en cial
Ġcamb ios
Ã³ l
Ġpro tecciÃ³n
Ġno ta
Ġesti lo
Ġam ena
Ġidenti f
re mos
Ġc ob
ĠeconÃ³m ico
ĠEmp res
Ġbaj a
ri Ã³
Ġsi ete
ĠC U
Ã¡ lez
Ġpa gar
ĠC Ã¡
ara go
Ġlu cha
ad amente
ĠUn iÃ³n
ĠSeg ur
Ġneces ita
g ada
Ġense Ã±
ĠÃģn gel
Ġ201 1
n er
h er
ĠV il
Ġej ecu
Ġv ÃŃdeo
Ġof rec
ĠÂ ·
Ġsu puesto
Ġprogram as
Ġestra teg
ru mp
Ġpro v
in es
Ġrespons abilidad
Ġobten er
tr on
Ġdis co
Ġcons umo
ĠB er
Ġr en
Ġpro b
Ġper m
ĠM ay
Ġtrabaj os
al d
Ã©n ero
Ġta mpoco
ĠR am
Ġhab ÃŃan
Ġac ciones
Ġvuel ta
Ġap un
S e
Ġsos ten
Ġte lÃ©
Ġsign ifica
ĠGonz Ã¡lez
Ġpro pi
ĠPar tido
ĠtelÃ© f
Ġviv ienda
Ġal quil
Ġfamil ias
Ġmateri al
qui tec
Ġf em
Ġ2 7
l Ã©s
ĠP AR
ĠF eder
cid ente
Ġper s
Ġcl iente
Ġcom Ãºn
Ġ x
Ġcr is
Ġalter na
es te
ez as
ca pa
ĠM Ã©
ĠA ud
Ġcoci na
Ġa ver
f ÃŃa
Ġescri to
Ã ĳ
z an
Ġpeque Ã±o
Ġan Ã¡lisis
orm e
ĠCan tabria
Ġh as
an til
j ud
r ar
ĠFran cia
Ġf ra
Ġestre l
Ġrefer encia
ti dos
Ġcons tru
U S
Ġtr an
Ġtr am
Ġdesa par
Ġall ÃŃ
am pl
ĠCul tura
Ġn orte
C E
Ġejerci cio
ĠTrib unal
Ġacu d
Ġti erra
i el
Ġcentr al
Ġfun ciÃ³n
Ġe mail
lam entar
T R
Ġdistin tos
us k
cia ciones
ĠIn v
Ġsor prend
tar ios
ter as
al u
Ġfu entes
te les
ier e
Ġel Ã©ctr
Ġcaus a
Ġjug adores
Ġf Ãºtbol
Ġsu m
Ġd io
ic Ã³
C on
Ġprem io
r ig
Ġpro teg
it ad
Ġmin istro
l ic
Ġloc ales
Ġde v
ĠÃ©po ca
Ġreco g
que da
Ġenerg ÃŃa
Ġal ma
Ġconver tir
Ġs uel
ĠSan tiago
. ,
Ġcla ve
Ġconoci miento
Ġentidad es
Ġmun dial
alidad es
ĠR iv
ĠQ UE
g re
Ġp id
Ġocas iones
Ġcre a
Ġd ura
on da
men es
ĠAs turi
Ġamb iente
!! !
Ġdesarrol lar
ĠInstitu to
Ġra z
id or
des a
Ġdescu br
Ġfal le
jer os
Ġgrand e
arago za
Ġten ga
f f
Ġdistin tas
um en
ĠR E
Ġmon ta
Ġcr ÃŃ
Ġex posiciÃ³n
Ġg lo
re as
Ġm itad
Ġhech os
ĠD ios
Ġinv ersiÃ³n
Ġcomprom iso
Ġen s
I EN
Ġa vis
Ġqu in
Ġ Ã³r
IC A
Ġviv ir
Ġd ia
aliz ada
Ġf ir
I B
Ġdecl ara
ca ciones
ĠP on
Ġentre ga
Ġpos iciÃ³n
Q U
Ġsiste mas
ĠMur cia
Ġclas e
ies tas
ĠV en
Ġactu aciÃ³n
ĠJes Ãºs
Ġclas es
Ġnum eros
Ġnego ci
c Ã©s
Ġg ri
Ġdi ario
cu los
Ġpresen tado
1 2
I M
ĠN ues
Ġf re
Ġcon cen
Ġcul tural
Ġar ch
ĠA t
Ġdesarrol l
i ales
ĠSegur idad
emor ia
ĠN ueva
Ġm ol
ĠT he
Ġvic toria
Ġincl uye
Ġl ig
ĠH os
Ġcontr ario
ĠN O
ĠD ec
igu ra
ĠV o
Ġquier en
enti s
ĠF el
is a
Ġra zÃ³n
Ġhabr Ã¡
Ġ201 2
Ġsed e
a pa
ĠGo ogle
ĠV i
p aciÃ³n
Ġin icio
Ġfon do
ĠE di
ier te
ĠAs imismo
Ġveh ÃŃculos
Ġpi el
v ieron
Ġp ien
ier an
Ġc ora
la z
ĠM Ã¡laga
P or
in s
tan cias
ĠGu ardia
Ġselec ciÃ³n
Ġin teg
Â Ń
Ġs ac
Ġtras lad
r ido
ĠH ab
Ġcu yo
Ġp un
Ġcu mp
Ġsa tis
Ġmens aje
Ġreg iÃ³n
Ġma tr
ul as
Ġpa go
Ġj ef
ic ados
ĠP ues
Ġd Ã©c
I n
Ã© rez
cri p
Ġespec ÃŃf
ĠâĢ ¢
Ġfin ales
ĠT u
Ġe ta
Ġcre e
ie go
ad al
Ġo cho
Ġter r
ĠPol ÃŃtica
ĠGra cias
Ġreg ul
Ġreg res
ĠC OM
Ġcom pl
Ġen tender
Ġocas iÃ³n
ĠAd ministraciÃ³n
el la
ay a
ob ern
ios o
Ġdeb es
Ġpubl icado
Ġg o
Ġcomer ciales
Ġpar tes
Ġvis i
ers iones
i j
Ġtiem pos
Ġmej ora
Ġmunicip io
Ġc ita
Ã³d igo
Ġall Ã¡
Ġval ores
Ã¡ tica
Ġelem entos
qu ir
in aciÃ³n
Ġtele visiÃ³n
E MA
Ġau tÃ³n
ĠO fici
ri que
Ġh ici
Ġan dal
Ġlle gado
tr al
Ã©n d
ran tes
e tas
or k
Ġcandida to
m entar
ĠâĢ Ķ
g enti
er te
p h
Ġciudad es
Ġ6 0
ĠDes puÃ©s
Ġkil Ã³me
it ales
Ġag entes
Ġim p
ĠIn f
Ġcontra to
Ġjug ador
L os
partam ento
Ġvo tos
Ġsol uciÃ³n
Ġcomple to
ĠSoci edad
Ġmen ores
Ġsus titu
Ġefec to
rÃŃ guez
Ġpare ja
le v
Ġmov imiento
ĠT ele
Ġart ÃŃculos
ĠprÃ¡c tica
Ġimpul s
Ġsa car
ĠE E
Ġllam ada
ĠA na
qu Ã©
Ġmil itar
ĠDav id
Ġayud ar
C u
Ġdom ici
ampl ona
ĠP os
Ġsecre tario
ĠFa cebook
Ġcompr ar
lan o
d an
Ġinstitu ciones
ĠD an
Ġcar re
Ġcu estiÃ³n
Ġedif icio
es truc
Ġcal les
Ġlleg Ã³
ĠSal ud
c la
ĠRod rÃŃguez
? ?
ĠP Ã©rez
Ġexpres a
Ġfr on
Ġobje tivos
Ġb Ãºs
ĠB us
v ers
Ġju icio
Ġcon oc
ĠvÃŃcti mas
Ġpro puestas
ĠÂ »
Ġencuen tran
Ġhab la
Ġesc ol
Ġh on
Ġnatural eza
is iones
ĠPar lamento
Ġprofes or
Ġid eas
Ġestar Ã¡
ru pciÃ³n
Ġ is
Ġco in
Ġpuer ta
Ã³n d
Ġdob le
Ã ł
Ġref orma
Ġfundam ental
ĠAm b
Ġsue lo
ĠIgles ias
id ado
ĠU E
Ġcomple ta
ÃŃ os
Ã© g
Ġrepres enta
Ġban da
Ġvo to
ĠR io
Ġcompar tir
er Ã¡
Ġform as
ĠPo pular
Ġreno v
Ġpl eno
Ġentr ar
ĠC er
Ġf amos
ĠEs c
ar ial
Ġle van
v iv
Ġprimer as
ti que
ĠB lan
Ġ200 9
Ġd ol
Ġpoc os
tel ig
Ġdirec tamente
Ġpens ar
a t
D E
ĠPue des
Ġal red
ĠX X
Ġg Ã©nero
Ġmar co
Ġauton Ã³m
i ter
Ġpregun ta
Ġprue bas
ĠDes arrol
Ġre tir
ĠGal icia
Ġs il
ĠT r
Ġcam pe
Ġp s
ĠR os
Ġin trodu
A T
Ġcomun icado
L E
Ġco ordin
Ġmes a
ĠAsturi as
Ġd im
Ġcon curso
Ġrecl am
Ġrecib ido
tr es
Ġl uc
Ġel ev
Ġcons igu
man ia
ĠT ran
ĠI I
Ġconf lic
Ġex cel
Ġib a
e ga
AD O
1 1
es o
Ġre almente
Ġquier o
Ġquer emos
Ġnaveg ador
Ġquier es
Ġnoti f
Ġcuen tas
D O
Ġ tre
t Ã¡s
t ador
Ġperio do
Ġhttp s
Ġex cep
Ġinform ado
di rec
ĠI mp
Ġcu ales
Ġprop ie
Ġobl iga
Ġv ac
ĠZ aragoza
Ġex tran
Ġf ru
ti les
orm ente
Ã³nd e
Ġf iscal
rag Ã³n
g al
Ã© tica
Ġg es
Ġv oy
Ġprev ia
ci dos
Ġdistr ibuciÃ³n
Ġf iesta
Ġ ÃŃn
Ġtal ler
Ġrela ciones
m ed
Ġllam a
Ġar gu
ci to
ĠC ruz
is mos
g aciÃ³n
oc ado
Ġpre fer
Ġexpl icado
ĠEj ecu
Ġe res
ic es
in ar
Ġus ar
I G
gen ier
Ġ200 8
Ġde porte
g ul
ĠMed io
Ġl ic
is tir
Ġconoci do
j ado
s as
Ġni Ã±o
k i
Ġpeque Ã±os
Ġdifer encia
Ġmod elos
ĠC ur
Ã©g imen
ĠP S
ar ca
Ġe qu
itar ios
ien tal
ci den
ĠB el
olÃ³g ico
Ġve lo
Ġeven to
Ġde d
Ġf an
Ġc ru
ĠE r
Ġperson ales
an es
ĠPa tr
ĠDe por
Ġ19 8
Ġref le
if icado
Ġterc era
Ġpos ib
Ġa v
x ico
tel l
m er
Ġmil es
Ġas um
z ada
s an
Ġver d
Ġref lex
Ġsocial ista
Ã¡f ico
ĠP ala
Ġtrans porte
Ġpuer tas
Ġ8 0
Ġma g
w are
i ados
Ġjue z
iv al
Ġfre cu
Ġr ue
m entaciÃ³n
tu ales
ĠtÃ©cn icos
qu er
Ġdirec ta
Ġd u
Ġanim ales
ĠMartÃŃn ez
Ġdis pu
Ġ q
Ġactu aciones
z ca
or t
Ġaum ento
Ġf irma
j u
Ġpe or
Ġlugar es
ĠJ un
ĠEs tos
Ġaband on
Ġpeque Ã±a
tr um
Ġa ven
D e
Ġr ad
c un
Ġcu ya
teri ormente
Ġac ces
Ġsu erte
Ġb re
e e
% ,
Ġt Ãº
Ġpues tos
Ġ tas
Ġbien es
ĠMus eo
Ġin au
ĠPla za
V I
h ab
Ġcomer cial
Ġdeb erÃŃa
ri tÃ¡n
Ġm ec
im as
tan a
Ġ2 9
Ġlim pi
ĠEspaÃ±ol a
ĠB al
Ġvo z
Ġdif icul
ba o
Ġprincip ios
ÃŃ m
Ġgener ales
un id
Ġ ul
Ġcl Ã¡s
Ġcu an
Ġleg al
ĠtelÃ©f ono
ad e
Ġtotal mente
Ġhum anos
ti g
ĠA quÃŃ
Ġp ie
ĠV iv
ar r
Ġh u
Ġpod ÃŃa
Ġqu iÃ©n
ed ra
m enta
Ġblan co
ĠPu ig
Ġabier to
Ġcon ec
ĠkilÃ³me tros
Ġplata forma
tal ia
ĠDipu taciÃ³n
Ġo per
Ġemp i
Ġmar cas
ĠS em
p y
jer ÃŃa
ÃŃ r
Ġinici ado
Ġsu pon
Ġaj us
ol o
le ta
Ġrepar aciÃ³n
ĠAl m
Ġtradi cional
Ġcora zÃ³n
Ġg obern
y as
Ġcateg orÃŃa
Ġs ob
Ġpretend e
ĠMun icip
Ġtur ismo
ĠA p
U U
b io
Ġfin es
Ġsen tencia
A B
ter ios
Ġescen ario
Ġcomp ro
ĠGran ada
EMA IL
Ġorigin al
Ġad quir
Ġaf irma
Ġinteres es
ĠT ec
on t
Ġalquil er
Ġw ww
Ġm ues
do ba
Ġentre vista
pec tos
Ġcir cu
ĠP l
es tre
Ġdel eg
im e
Ġped ir
Ġconvoca toria
Ġv ino
ĠI b
Ġpubl icidad
cion ados
L O
we et
Ġayud as
ĠbÃºs queda
Ġf ich
CI A
ĠP amplona
Ġho gar
tu m
t Ã©n
Ġobje to
ĠGeneral itat
c r
Ġinten tar
Ġman tiene
ĠIn cl
Ġtercer os
Ġemp rend
Ġpod ido
1 5
l id
Ġtitu lar
f re
Ġvuel ve
or ro
ĠIn formaciÃ³n
Ġac tos
bi Ã³
Ġconv ers
Ġar quitec
ĠA N
Ġp Ã©r
am ble
Ġpue do
Ġestado unid
d ar
Ġh uel
id encia
Ġdemoc racia
Ġf ase
Ġadel ante
Ġto ma
Ġdemas iado
tan der
Ġcom pa
Ġfon dos
Ġhos pital
Ġim pos
ci na
ĠV as
an da
Ġtri un
Ġhub iera
Ġado p
ĠseÃ±al ado
Ġcumpl ir
Ġterri torio
e ar
Ġva caciones
Ġfamil iar
ens iÃ³n
ĠEx tre
4 0
Ġder ro
p ero
Ġform ul
ĠD on
Ġc Ã¡n
mad ura
1 8
Ġcompr ome
Ġin cend
Ġped ido
Ġpos t
e cido
ĠT Ã©cn
olog ÃŃas
Ġinteres ante
Ġpresu puesto
Ġjur ÃŃd
Ġap enas
Ġcon ci
quier a
ĠJus ticia
Ġprop ios
ĠB ur
Ġres pec
Ġestudi antes
Ġv esti
Ġam igo
Ġtr Ã¡fico
Ġb ritÃ¡n
Ġm ala
tu s
Ġasegur ado
ĠV I
d io
Ġutil izaciÃ³n
Ġpos ibles
Ġvis itar
Ġqu iz
Ġcompe ten
Ġcapa z
Ġe fica
c ad
Ġespa cios
Ġf igura
ĠP R
r ado
ĠInv esti
Ġas pectos
Ġinter venciÃ³n
u z
en tro
ti en
ĠServ icios
Ġa gres
Ġconf ianza
Ġpar cial
Ġpe lo
ĠR om
iva cidad
ĠRe ci
m ano
ĠpÃºbl icas
am eric
Ġfuer zas
Ġdej ado
Ġinter net
Ġpalab ra
Ġcon tras
Ġlleg ada
ar la
ĠprÃ³xim a
c Ã³n
Ġev alu
Ġacer ca
Ġcir cun
Ġn ie
ĠA ragÃ³n
Ġj a
gen cias
ĠDirec ciÃ³n
Ġtor no
Ġar ti
al la
Ġa t
tera tura
un o
ĠD eb
ta ble
Ġleg isla
ra y
Ġindepend entis
Ġdomici lio
Ġop ciones
Ġr enta
Ġreserv ados
Ġo jos
d icos
Ġesfuer zo
Ġresul ta
ĠCom er
ĠpÃ¡g inas
Ġpa is
u tr
ĠB ol
Ġcu adr
ĠTran s
Ġm ic
U n
Ġesta ban
gr am
Ġfuncion amiento
Ġc m
o o
Ġde tec
ti ble
ice pres
Ġcaracter ÃŃsticas
Ġcontinu aciÃ³n
Ġenferm edad
Ġfinanci aciÃ³n
U M
Ġv ie
T ER
Ġf iestas
Ġex ten
Ġcar ta
ech os
Ġdocu mento
Ġo l
c enso
Ġsigu en
Ġse par
Ġcomun idades
Ġac ord
Ġcelebra ciÃ³n
ri le
Ġpes o
A C
Ġdes tino
Ġing lÃ©s
ĠCl ub
Ġatra c
ti d
Ġmanten imiento
Ġpar lamentar
Ġinterna cionales
Ġviv iendas
ĠTur ismo
Ġrecuer da
Ġab og
ĠL eg
Ġindustr ia
ĠA z
Ġtr o
V E
Ġdeman da
i ares
ar ma
ier es
Ġconver tido
âĢ ĵ
Ġbar rio
iblio teca
Ġcatal Ã¡n
Ġma es
ĠEs tas
% .
ĠL ena
Ġan teriores
.... ....
Ġsal a
Ġvelo cidad
Ġpo pul
Ġsatis f
Ġp ena
ĠC ada
r ue
ti cias
Ġjue gos
Ġac aba
Ġdel ante
Ġti pos
mÃ¡ tica
ĠÃ ī
d iz
T OR
or ca
Ġden uncia
Ġ19 7
Ġconcre to
am e
on ia
du ra
Ġ ido
Ġre pe
ĠH um
Ġmo da
ĠEs o
ĠDÃŃa z
Ġexper tos
ĠB as
Ġr end
a p
Ġm iedo
r al
ĠD os
ĠTec n
Ġjus tif
ð Ł
Ġi tal
Ġcur sos
Ġm ez
m l
Ġm emoria
ra estruc
ec uciÃ³n
Ġsin dica
ĠV ir
ĠprÃ³xim os
Ġden omin
ĠTor re
un da
Ġar ro
ĠO N
mi tir
Ġdeclara ciones
if e
Ġper iÃ³
ĠcompaÃ± eros
olÃ³g ica
Ġestrateg ia
Ġne ga
Ġdocu men
Ġlan z
ĠAle mania
Ġin telig
Ġa di
Ġre ce
ĠRio ja
Ġre ducir
ar do
Ã ī
ĠPrem io
Ġexp lo
Ġpan talla
Ġblo que
Ġrec or
Ġpe ti
Ġcr Ã©di
ig les
Ġcon den
Ġtar je
ÃŃs imo
Ġmunicip ales
g Ã¼
Ġmis mas
a f
Ġsocial istas
Ġpla zas
Ġ7 0
p in
Ġobs tante
Ġam ar
Ġd on
Ġplan ta
Ġreg ional
Ġtemp era
tr iz
Ġcos te
ĠBil bao
Ġtrabaj ando
Ġapar ece
G T
uen cias
ĠV ÃŃdeo
Ġllam ado
Ġconsecu encia
it Ã©
Ġcom e
Ġur b
Ġre y
is tros
Ġrespe to
ĠDesarrol lo
it y
y os
id amente
Ġaz ul
Ġgol pe
u ta
Ġgan as
Ġmateri ales
Ġprem ios
ĠN i
Ġcircun s
l l
ĠA C
Ġautor izaciÃ³n
til lo
Ġ3 1
Ġal er
Ġtr ib
Ġvol v
Ġconcen tr
Ġf as
Ġmar c
ĠRe ino
la ciones
Ġapues ta
Ġneg ro
Ġ201 3
P E
Ġe p
ab el
ĠEjecu tivo
Ġfran ces
Ã³r doba
Ġalcan zar
Ġjef e
Ã §
ĠS ER
ĠM os
ĠP RO
Ġofer tas
Ġpr om
Ġdifer ente
Ġsuper fici
Ġcon cur
Ġhum ano
t x
d rÃ¡
Ġveh ÃŃculo
Ġcon ced
Ġdestac ado
ĠtÃ©rmin os
Ġev oluciÃ³n
i ana
Ġper fil
Ġpregun tas
Ġespec tÃ¡
Ġpas ada
Ġas isten
S S
ÃŃ da
Ġap re
p es
Ġ201 4
ĠPro fes
Ġh arÃ¡
Ġf om
en aje
Ġampl ia
ter os
Ġrev ista
un ya
ĠAc tu
Ġhabi tual
Ġeleg ir
Ġeta pa
ĠPor que
ĠE lec
Ġqued ado
Ġf er
able mente
on g
I ER
ĠH e
ĠAl gun
Ġpr isiÃ³n
Ġcuar to
ĠSe gu
ci ente
ĠB e
Ġju z
Ġdeber Ã¡
ĠT h
ti go
Ġpro tes
Ġescrib ir
ĠF iscal
Ġconcier to
y s
Ġp ilo
Ġins trum
ci mientos
Ġcom por
Ġpropi edad
ue gos
Ġtra tar
ĠPa ÃŃs
Ġa per
Ġdispon ible
Ġnaveg ando
Ġdic ha
Ġha c
ĠE usk
ĠM ic
Ġdes can
Ġ3 5
Ġcer tif
ĠConstitu ciÃ³n
ĠG a
Ġex ped
B A
ona to
Ġbuen as
ĠT ea
Ġex terior
ĠIgles ia
Ġre to
Ġparticip antes
Ġconsegu ido
ĠÃ©s te
Ġperson ajes
ĠC re
Ġlogr ar
esti ones
y e
Ġle jos
ci r
ĠV illa
Ġ9 0
enci ana
m Ã¡n
Ġesc uela
Ġ igles
ĠP en
ĠP OR
Ġur g
Ġactu almente
Ġha ga
ent ales
ĠPro vin
ĠL iga
Ġima gin
Ġalred edor
Ġa us
eb as
ĠExtre madura
Ġpubl icaciÃ³n
Ġf is
ĠOr gan
Ġres oluciÃ³n
T U
Ġas oci
mi tes
Ġherramien tas
Ġcualquier a
Ġpr ior
ĠCan arias
Ġref orm
ĠO n
con s
Ġcon ex
Ġhi po
ific ados
ĠI r
Ġigual dad
Ġpa c
Ġincluy endo
Ġbenef icios
ven ciones
Ġestruc tura
Ġcol ores
k ing
Ġ &
Ġabr ir
Ġpresid enta
Ġder iv
aliz ados
Ġdesta ca
Ġcons ol
Ġm ur
ĠMÃ© xico
Ġdel ito
Ġnivel es
Ġta ma
ĠhistÃ³r ico
1 6
ĠlÃŃn eas
Ġrespons ables
Ġsufici ente
Ġcom ida
tien en
Ġun idad
ĠOr den
Ġmad rile
Ġr adio
ĠM ad
Ġdic en
ĠC AS
or ÃŃas
Ġrepresen tantes
ĠF orm
ĠC O
Ġcam pos
Ġpes e
l ada
capa cidad
ĠF or
Ġfoto graf
Ġd ibu
Ġim par
Ġdeclar aciÃ³n
Ġcolec tivo
Ġprevis to
ios a
Ġcon d
, ...
Ġlar ga
it ados
amble a
Ġr ural
Ġcom pon
Ġfacil itar
Ġm s
ĠV is
Ġs ome
ĠRa fa
ĠtÃ©cn ica
Ġpar que
lan d
Ġas ociaciÃ³n
ĠCons ul
gr ama
2 5
Ġgaranti zar
Ġimpa cto
Ġg estion
ti ma
Ġal o
ten ciÃ³n
bl os
p ado
Ġhay an
j an
Ġgas tos
Ġposib ilidades
Ġo peraciÃ³n
Ġer r
Ġi leg
Ġten iendo
ĠT rump
Ġinstal aciÃ³n
Ġindepend encia
am an
S i
ĠRiv era
Ġac e
ĠT OD
Ġp rac
Ġtien da
ero p
Ġpas e
Ġrecorr ido
Ġmo tor
Ġr Ã©gimen
ob ili
Ġd ando
Ġa pos
ti os
Ġtam b
Ġpron to
Ġdificul tad
ĠA gu
Ġacu er
ĠmÃŃn imo
ar emos
Ġcump le
ĠSan tander
Ġd Ã³nde
Ġest Ã¡s
Ġal tura
g ados
p al
Ġem b
Ġar ran
Ġdivers as
Ġp end
e Ã±a
Ġdivers os
Ġestu vo
Ġl is
Ġop tim
ĠPAR A
Ġpromo ciÃ³n
ĠC E
cin d
en ado
ĠInd ustr
Ġatr Ã¡s
Ġpaci entes
ros o
Ġher man
Ġco o
Ġno vela
ĠG re
Ġb io
ĠMan cha
Ġhabr ÃŃa
Ġconf orm
m ana
Ġentr adas
Ġac cidente
Ġd Ã³
âĢ Ķ
Ġbenef ici
or ia
Ġproced imiento
ien en
Ġperd ido
Ġdetal les
ĠHa ce
dem ont
Ġinten ciÃ³n
U L
ÃŃtu los
ĠF estival
Ġinf antil
Ġapl icaciones
Ġre iv
Ġd orm
ĠD u
Ġfin almente
Ġoport un
Ġnov edades
ĠF ue
ĠN uev
ay o
) ;
Ġmus ical
Ġproces os
ĠEurope o
Ġata que
k er
tu des
ĠL AS
ib er
ĠS ur
tr Ã¡s
Ġc Ã³digo
Ġjus ticia
__ __
Ġre ac
b il
Ġalgun o
Ġfamil iares
ĠM ientras
a a
Ġdi Ã¡
Ġten gan
Ġan d
Ġf irm
Ġac re
Ġer ror
Ġsolu ciones
el es
ĠAl cal
Ġempez ar
j era
ĠtÃ©cn icas
Ġcomp rend
Ġse g
C Ã³mo
ĠH asta
Ġdemoc rÃ¡
Ġdes em
Ġt on
el lo
Ġautor idades
Ġconcep to
am p
ue las
Ġacu m
Ġfran cÃ©s
ĠmÃ¡xim a
Ġpol icÃŃa
i pe
b amos
pl es
vo car
rig ht
Ġma gn
Ġrealiz a
Ġe fici
Ġte atro
Ġcorrespond iente
ĠG as
qu ina
Ġar m
Ġde uda
Ġsenti r
Ġampl i
Ġc Ã¡r
ĠAu tÃ³n
Ġnuev e
eci Ã³
Ġcontin Ãºa
or g
Ġingres os
lado lid
Ġsec ciÃ³n
Ġas o
Ġrespon d
Ġtend rÃ¡n
on do
ĠÃģ lv
ie lo
ĠCatal unya
ke ting
Ġneces aria
Ġjud icial
Ġad ministraciÃ³n
ĠR us
ti mos
ĠHo tel
Ġllev ado
Ġsec tores
Ġindepend iente
Ġhi ja
Ġmul ti
Ġ Ãº
e Ã±o
Ġnorm al
Ġartis ta
Ġdis curso
posi ciones
p Ãºbl
Ġconce jal
A n
Ġbuen os
Ġvis iÃ³n
@ @
ab ora
f ico
Ġnorm as
ĠPuig demont
Ġdeci siones
ht ml
Ġin ver
Ġb ur
Ġem pa
Ġconv ir
Ġdud as
ĠpelÃŃcu las
en ar
ĠJor ge
Ġapro xim
Ġdecid ido
ĠCar men
an zas
ĠI gu
Ġen tra
al dad
ĠU no
ĠN orte
Ġen ti
Ġref ug
g us
ĠVal ladolid
h n
ci enda
Ġprof und
EN T
Ġcons tante
6 0
to l
ĠB ien
ĠMar iano
x to
Ġcom ba
ĠBuen o
ĠseÃ± ala
Ġpodr ÃŃan
ĠHos pital
Ã¡n ica
genti na
Ġfue go
t ÃŃ
ĠM al
Ġmiem bro
com o
Ġacab ar
ic ciÃ³n
Ġpu do
ĠR adio
p en
Ġg obier
ĠF al
Ġcoin cid
Ġres ca
tis mo
Ġre vis
Ġcol o
Ġbusc ando
Ġcumpl imiento
Ġamb as
c ab
ĠR ES
Ġpro gres
quil ib
ĠEs pe
Ġperiod ista
le do
ĠConse jerÃŃa
Ġex ac
1 7
Ġaprend er
Ġglo bal
Ġanunci ado
Ġl in
ĠZ apa
Ġaquel las
ĠPer son
log ÃŃa
Ġcontemp or
Ġr it
ĠS obre
ec ÃŃa
ĠUn ido
pu bl
Ġ Ã¡n
Ġgener aciÃ³n
ĠSec re
ĠS ebas
D A
Ġgen era
ĠAl f
Ġidenti dad
Ġrecu peraciÃ³n
Ġgra ve
ĠI talia
Ġsimple mente
Ġco ches
Ġdocu mentos
d el
id ez
Ġnom br
Ġde c
Ġre quier
der as
Ġdol or
Ġreg al
Ġau tores
Ã ¨
Ġpla ya
py right
Ġaum entar
Ġreconoci miento
Ġrecuper ar
Ġneces arios
Ġsex ual
t Ãºa
ta g
ĠC Ã³rdoba
Ġrelacion ados
Ġac ad
Ġorganiz aciones
Ġedi torial
g ran
ĠC las
Ġsal v
Ġenla ce
Ġgu ard
ĠCh ina
Ġinm ig
Ġtr en
ĠS ab
Ġpodr Ã¡s
Ġhabi taciones
t adores
Ġlen gu
j or
ĠR ub
Ġa bre
Ġdis tancia
Ġconse jero
Ġas istencia
ĠM ir
ĠÃ¡ r
i ores
ĠH ern
Ġconf er
v el
Ġverd e
Ġmar av
Ġcas as
ĠRey es
Ġcad ena
u os
Ġcier re
l le
Ġllev an
Ġor ien
ĠespaÃ±ol as
ĠM en
Ġinf er
Ġrecur so
a g
ĠMunicip al
Ġk m
Ġsu je
Ġre quis
in ado
ĠIn g
ĠprÃ¡c ticas
Ġre du
ci da
ĠBan co
Ġo tor
Ġres olver
Ġli teratura
ĠS h
ul l
ĠCo pa
ech as
Ġv icepres
Ġin cid
Ġcor to
Ġadel an
ĠEn cu
Ġcor rupciÃ³n
ĠPue d
ĠTea tro
pÃºbl ica
ĠPued e
ĠVal le
ĠAlber to
AD OS
Ġdiv er
Ġartis tas
Ġform ar
Ġsitu ado
Ġlec tura
ĠS ala
Ġgas tron
Ġs es
que z
Ġil ustr
ier no
an ce
ĠAl icante
Ġc iencia
an e
Ġdis par
ta cular
Ġqued an
Ġcomen z
ec uencias
Ġcon m
Ġsol a
ĠL O
Ġpue blos
Ġman da
b ur
Ġsal e
ĠP in
ĠSebas ti
ue los
Ġesper ar
ĠDe f
u a
Ġbas es
cep ciÃ³n
Ġsor pres
Ġalim entos
Ġfu tbol
) :
rib a
Ġdefend er
Ġhub o
yec to
Ġdej Ã³
ft ware
ti mo
t z
Ġdefini tiva
iv amente
ĠAl onso
Ġnorma tiva
Ġplan es
Ġgr ado
Ġmo vil
Ġf res
Ġide al
Ġba Ã±o
Ġgal le
ĠHis toria
R e
Ġur ban
Ġr ÃŃo
Ġaum en
Ġmens ajes
ĠS ÃŃ
Ġcre ado
Ġfem en
2 4
Ġescu char
Ġeven tos
II I
ĠM el
Ġhum an
ĠAl ba
Ġmunicip ios
Ġhom enaje
pre mo
ĠEsc uela
Ġdispon e
ier o
-- --
tu vo
b us
i tamos
ol ina
Ġvia jes
Ġpi ezas
M P
ĠL ond
Ġgas to
or as
Ġan al
Ġreci ente
ar nos
Ġsu ma
Ġinf raestruc
. "
em ia
ac k
ĠNav idad
Ġanti gua
ĠEcon omÃŃa
Ġsab emos
Ġre ca
Ġestadounid ense
Ġapl ic
Ġad ul
Ġcons ecuencias
I F
Ġprop ias
ĠcÃ¡r cel
le t
ĠD o
Ġcomen zÃ³
Ġconsul ta
1 3
Ġbo ca
Ã³g ica
us a
Ġen orme
qu ÃŃa
Ġaf ron
Ġtama Ã±o
Ġbar r
Ġb ici
Ã¡ ticos
Ġcor por
ir Ã¡n
Ġanun cios
Ġjus to
Ġor o
Ġrecib e
Ġpa z
Ġ200 7
Ġcif ra
Ġsitu aciones
ĠdÃ³ lares
Ġantigu o
ĠMu jer
pi ra
Ġquer ido
ĠLoc al
Ġp obre
ĠT al
ĠFeder aciÃ³n
Ġdef ien
ĠPar que
Ġre m
Ġprecis amente
Ġgu ar
Ġcu estiones
ĠRam Ã³n
ici ales
ti das
v as
S an
E T
I R
Ġde trÃ¡s
Ġrepres entaciÃ³n
Ġad mi
Ġaquel la
p Ã³n
ter s
ĠPar ÃŃs
Ġespeci ales
ig na
Ġg rÃ¡
ĠCÃ¡ diz
Ġigles ia
Ġcarre tera
Ġmad era
Ġaf irm
ĠTod as
Ġcam p
Ġas unto
Ġanun cio
ĠS il
ĠPor tu
Ġhis torias
Ġpopul ares
Ġconv iv
ĠJ ul
Ġextra ordin
Ġviv o
Ġlid er
ĠCo pyright
!! !!
Ġrealiz aciÃ³n
Ġf ol
Ġ isla
ĠSe Ã±
Ġherramien ta
Ġf estival
ID AD
Ġcri tic
Ġj ard
Ġimpos ible
Ġen tend
u lo
Ġo cul
b ajo
ga ciones
Ġmo tivos
Ġsex o
Ġdeb emos
Ġincre mento
ĠT om
da c
ÃŃ p
Ġex istencia
Ġcic lo
Ġid i
ĠY ork
Ġresta ur
Ġprov oc
Ġrecord ar
Ġsi quiera
M e
Ġpres iÃ³n
Ġraz ones
b erg
leg io
Ġcom isiÃ³n
ĠE d
1 4
Ġau tÃ©n
fer encia
Ġb ra
Ġes tan
Ġcomp ues
2 2
L o
Ġsolici tud
Ġlen gua
ĠA R
Ġpa g
til las
ĠG ab
Ġab ord
n idad
Ġve in
ĠHa cienda
Ġeurope o
d ÃŃa
ĠL le
Ġeurope os
pr im
g ica
Ġps ic
ĠFel ipe
ĠmÃ© dico
Ġmod alidad
Ġesc as
Ġar tes
Ġtecn ologÃŃas
Ġresta urante
iz ada
Ġv ul
Ġr os
u ena
ces iÃ³n
Ġapar tado
ÃŃd eos
Ġes co
Ġ za
Ġcolec ciÃ³n
Ġr as
Ġcan al
ĠSe gun
Ġvo tar
Ġb ara
lu encia
Ã¡ is
ĠT weet
Ġcompe tencia
Ġre ma
Ġenfr en
ĠX I
Ġreg istro
ĠVas co
A r
ĠCon f
ĠS ub
ue bles
ĠS erg
Ġabier ta
ĠA P
iv as
ĠI U
av era
ig ur
Ġven tas
Ġju ven
Ġprodu ce
Qu ieres
Ġf ras
Ġaud io
ĠH ola
Ġas i
ĠDer echo
il ares
Ġespec tacular
ĠX V
Ġc el
IC O
Ġviv e
Ġcon tam
Ġrev istas
Ġd ur
ĠEs tud
Ġnego cios
Ġpubl icar
ĠrÃ¡p ido
Ġforma to
L as
ĠEs pa
Ġprotagon ista
Ġs om
a to
le za
ĠSu premo
Ġre dac
Ġvolun tad
tis ta
Ġmer cados
Ġeurope a
b ia
Ġim pu
ĠE R
ĠaÃ±ad ido
Ġindustr ial
Ġad jud
Ġconf irm
ĠseÃ± or
ivers ario
Ġofrec en
ĠÃ¡ reas
uel va
ib uy
Ġim puestos
Ġtran quil
Ġfu ente
Ã©m ica
Ġtele f
icul tura
- ,
Ġpas os
ÃŃs ticos
or ra
Ġesc al
Ġdistr ibu
G A
Ġcelebr arÃ¡
Ġaper tura
ĠT ener
Ġ Ì
ĠC uen
Ġescri ta
Ġcomer ci
Ġmostr ar
Ġpatr imonio
Ġad v
Ġv ues
Ġf en
ol v
ĠP A
ĠÃ©s ta
Ġa erop
Ġcan ciones
Ã³r m
k s
n i
Ġes tim
ĠG uerra
Ġconflic to
Ġl lu
ĠS O
Ġaf i
Ġcos ta
ci pl
ĠV e
Ġreco ge
Ġcal or
Ġcontinu ar
Ġc Ã¡mara
I P
Ġexpl icar
Ġde cor
ĠCam p
Ġas pecto
Ġac tor
Ġgra b
Ġcer c
Ġ â
Ġdef ens
ĠPro tecciÃ³n
Ġcoleg io
Ġentren ador
ĠT i
Ġpas ando
or e
b la
Ġpr os
cri to
Ġgratu ita
5 00
i tor
Ġdic h
ĠA gr
Ġciudad anÃŃa
ĠLond res
ĠAud iencia
Ġminu to
Ġutiliz a
Ġcen ten
Ġplan eta
Ġru ta
Ġ %
Ã© tico
Ġh Ã¡
Ġvisi tantes
Ġsub ray
ĠM od
Ġorganiz ado
Ġdis cu
Ġ Ã³
ĠC Ã¡mara
Ġinvesti dura
Ġf l
Ġp uso
Ġb and
Ġalo j
Ã³m ez
r en
Ġgan ado
iv e
Ġcomer cio
ĠS U
erv a
AD A
Ġsue le
Ġjorn adas
Ġp ond
s al
Ġb omb
Ġ5 00
Ġro pa
' s
Ġsil en
Ġimpl an
ĠD ig
Ã©nd um
ĠP uerto
Ġplan tilla
z co
ĠEE UU
Ġhon or
ĠT V
Ġan o
ĠPala cio
Ġpre f
Ġind ica
Ġpar o
s en
Ã³s ito
Ġprofes ores
Ġencan ta
ĠC r
Ġases or
Ġre b
Ġcar ga
Ġind icado
Ġescu ch
Ġrit mo
Ġinten s
r Ã¡s
qu ia
Ġla v
Ġinnov aciÃ³n
Ġconoci mientos
Ġcuen tan
aj as
Ġdes ac
Ġencontr ado
Ġcu bier
Ġdispon ibles
ĠComun icaciÃ³n
Ġvin cul
Ġin direc
Ġj am
Ġv aya
aman ca
ec a
Ġestable cer
Ġapl icar
Ġcu ad
Ġha cÃŃa
iste ma
Ġcomien za
Ġemple ados
Ġ3 00
ĠM il
ĠEmp leo
G O
ĠDi ario
ĠrÃ¡p ida
Ġsal vo
9 9
Ġna turales
Ġperson aje
Ġd igo
Ġpriv ado
Ġdipu tados
Ġna cionales
Ġpelig ro
Ġsim ilar
Ġopin iones
tique tas
ĠS omos
ĠSem ana
Ġman e
Ġdeten ido
Ġpres entes
ici na
Ġcan tante
in i
Ġreserv a
S A
ci ar
Ġind ic
Ġconstru ir
ĠIs abel
Ġsuperfici e
Ġde p
s s
Ġcontra tos
ĠH ol
Ġorganiz a
Ġr ig
Ġtr im
Ġpeti ciÃ³n
Ġpa cto
Ġca ÃŃda
Ġar reg
Ġpas Ã³
Ġhici eron
Ġformul ario
Ġlimpi eza
ĠVo x
am ento
Ġd uro
Ġqued ar
ĠFiscal ÃŃa
ra el
Ġestable cido
ĠM es
Ġsolici tar
Ġempres arial
ĠtÃ©rmin o
ĠpÃ©r dida
ĠNues tro
ten a
ĠdiÃ¡ logo
ĠP i
Ġh id
ĠcÃ¡n cer
un do
Ġs orte
Ġr um
is os
ĠN uestra
Ġsoci os
Ġhabl ando
Ġtu v
c ra
ĠAl l
ĠvÃŃcti ma
Ġpr ome
Ġopera ciones
Ġacre di
Ġcris ti
ĠcompaÃ± ÃŃas
Ġg ana
ĠP an
Ġexpres iÃ³n
Ġconv ierte
Ġb i
http s
Ġaso ciaciones
Ãį A
Ġhabi tantes
te cas
ĠA vis
em as
Ġvis itas
ĠG Ã³mez
ĠQue da
ĠM Ãºs
Ã³g ico
Ġagu as
r ir
om bre
Ġest Ã©n
Ġa un
u f
ĠAm Ã©rica
Ġtas a
p p
Ġactu ales
Ġalma cen
d is
Ġcomen zar
Ġcl ara
Ġley es
Ġhum or
Ġm ig
Ġplan tas
iz aje
ud e
ĠS am
Ġpr ivacidad
Ġapro bado
CION ES
ĠEusk adi
Ġrefer Ã©ndum
Ġdisposi tivo
Ġespeci e
Ġnom bres
Ġar riba
ti eron
ĠVal enciana
Ã± ar
tis tas
Ġpublic ada
Ġedif icios
c enta
ĠSebasti Ã¡n
grÃ¡f ica
an g
Ġcu idado
ĠB or
Ġacep ta
Ġexper iencias
Ġterr eno
o ta
ĠespectÃ¡ culo
Ġdirig ido
Ġocur re
Ġcan ciÃ³n
Ã© u
t y
Ġem erg
in do
Ġten ÃŃan
ĠJ er
ĠAmb iente
lec tual
Ġsuper ar
eg as
Ġde cre
Ġ3 2
7 0
Ġllev Ã³
Ġli ter
Ġcar r
Ġrue da
ĠComer cio
Ġhacer se
Ġen ter
Ġconex iÃ³n
Ġperfec to
Ġinter cam
l d
Ã§ a
por ta
ĠB ale
Ġil us
Ġ- -
u p
Ġse l
Ġcondi ciÃ³n
ĠE TA
Ġgus tarÃŃa
ĠO c
Ġpartici pa
Ġescol ar
Ġtrabaj a
I Z
ĠEn rique
Ġalterna tiva
ĠSuper ior
Ġdocu mentaciÃ³n
end ario
Ġrecono ce
ĠA S
Ġv eo
ĠU P
ĠAd ministra
Ġenvi ar
Ġparticular es
Ġelimin ar
ĠCos ta
Ġtan tos
Ġre lev
ĠS ierra
h am
ĠF uer
Ġdes en
is tido
Ġs ÃŃn
Ġd ro
Ġmic ro
Ġcon tes
Ġlec tores
Ġab ra
Ġpre ci
ĠCan aria
Ġdipu tado
Ġre tras
ven ir
un tamientos
Ġpermi ten
Ġqued Ã³
Ġinvestig adores
ĠM AR
2 1
Ġv ÃŃdeos
al iciÃ³n
Ġconven io
Ġoportun idades
Ġhuel ga
Ġpro pone
ter ia
Ġdis puesto
m or
uc ciÃ³n
ĠMun do
Ġrecu erdo
hab il
ĠPres idente
ĠD omin
Ġampl io
Ġsue Ã±o
Ġprac tic
ĠAn te
j us
ĠL og
ĠA D
Ġtrans par
Ġconv oc
ĠProvin cial
T OS
Ġvend er
ĠD iego
Ġvuel to
8 0
Ġpl ena
Ġcu br
les c
Ġ4 5
p la
Ġej ecuciÃ³n
ĠF e
ĠJo hn
Ġleg is
Ġcons ta
ĠR ober
ĠRe pÃºblica
fr ica
Ġinstitu ciÃ³n
ic ano
ÃŃ ri
Ġdura ciÃ³n
R AN
Ġrecord ado
ĠG er
ĠÌ ģ
ĠVic ente
Ġpers pec
tiz aciÃ³n
Ġeleg ido
ĠPro grama
us os
ĠF lor
ĠIn terior
mÃ¡ ticas
Ġe quilib
Ġres e
Ġdeb ajo
Ġacuer dos
Ġcono ce
Ġar mas
g amos
s ar
ĠÃ ļ
Ġan iversario
if icaciones
ĠA ma
g s
m es
Ġdel an
Ġni Ã±a
og ra
2 3
ion ales
olÃ³g icos
uc es
Ġcul turales
Ġco ti
Ġpor centa
Ġqu erÃŃa
ĠdÃ©c adas
ĠSol o
ĠTra bajo
Ġim per
Ġcl im
Ġimpres cind
qu en
Ġrev el
Ġprodu cido
re to
Ġ âĤ¬
Ġsan gre
le tas
te o
Ġcar gos
Ġnotif icaciones
ĠP ER
Ġm Ãºlti
Ġca u
Ġl istas
Ġpropie tario
cion amiento
Ġsu f
Ġperfec tamente
Ġre ducciÃ³n
k y
Ġtr Ã¡
Ġref or
Ġv es
l ica
ĠB re
Ġin cu
Ġap unta
Ã¡m ica
ĠCon tac
Ġcelebr ar
r y
Ġprotagon istas
as h
Ġpro ve
di cionado
Ġf lor
ir i
ĠTo ledo
p ens
Ġescri tor
Ġa leg
ĠJ im
Ġex am
g ano
Ġmanif ies
Ġimpor te
Ġm am
Ġsab en
Ġcab al
Ġsir ve
Ġre quer
Ġtrad iciÃ³n
Ġace ite
ran o
em pl
Ġcandida tos
ĠI II
Ġh ar
gr ÃŃa
ter na
2 6
Ġcomple tamente
Ġj untos
Ġcelebr ado
Ġin ven
in aria
Ġpresu puestos
ĠCris tina
uev e
Ġm enti
ĠeconÃ³m icos
ez uela
al ia
Ġsur g
Ġti endas
Ġpro ducir
: '
Ġelec tor
Ġdis min
ĠTener ife
ĠT ierra
ĠRus ia
Ġen f
Ġest ad
Ġte j
ÃŃs ima
Ġpor tal
tel lano
I OS
Ġd ue
4 5
Ġgus to
... )
Ġpeque Ã±as
Ġexcel ente
lÃ© tico
grÃ¡f ico
Ġpar ecer
Ġs ober
h u
Ġdel itos
Ġmec an
Ġdesp laz
Ġconcier tos
gen da
Ġdesarrol lado
ĠAs amblea
Ġep is
R ES
Ġmostr ado
Ġlid era
Ġpres tig
ĠRafa el
ĠSan idad
Ġcatal ana
Ġestudi ar
ĠU su
tel la
d r
Ġesta ciÃ³n
Ġparti da
z z
ens es
ĠAr gentina
Ġesc ena
Ġes con
AL ES
oy a
ĠCas tell
Ġinv ers
Ġinici ar
Ġ ran
ĠA ra
C om
Ġperiod istas
ĠIg na
ic ales
Ġb ru
ĠTÃ©cn ico
Ġda Ã±os
Ġcontr ibu
Ġded icado
Ġmanif iesta
Ġlegisla tura
Ġcri terios
Ġconte xto
Â¡ Â¡
ĠPortu gal
Ġcl ima
Ġrequis itos
Ġp iso
es t
Ġ+ ]
ĠAnd r
Ġcompeten cias
Ġtarje ta
Ġpro l
Ġlle gan
ĠG e
Ġdes per
ĠInvesti gaciÃ³n
Ġref iere
Ġcab e
Ġtra yec
f i
Ġins tan
Ġvol umen
ĠPÃºbl ica
Ġb il
Ġpos terior
cul tad
Ġ ic
iz aciones
Ġanim al
Ġdirector a
Ġtend encia
Ã©r cito
Ġabsolu ta
Ġgol es
Ġsegun dos
Ġor gul
ĠMÃºs ica
Ġtrans form
ĠcrÃ©di to
Ġestrel las
ĠprÃ¡c ticamente
Ġestrel la
ĠOfici al
ĠS te
vi amente
t n
ĠD em
Ġorden ador
ru p
Ġfel iz
tan o
ĠlÃŃder es
Ġap ell
Ġc itada
Ġdes eo
Ġex pul
ri to
Ġfuncion a
m m
ĠdÃ©c ada
Ġcompeti ciÃ³n
ĠNo ticias
Ġmar gen
Ġrecono cer
Ġdescubr ir
Ġempi eza
Ġsub ida
ĠaÃ±ad ir
ic en
Ġafec tados
Ġocu p
tar Ã¡n
Ġun idades
ĠTOD OS
ĠAc ad
Ġtele vis
ven ida
ĠAr te
9 0
Ġacum ul
Ġpro duci
Ġrelacion adas
Ġfoto grafÃŃa
c Ã³
Ġban cos
Ġenferm edades
Ġcatal anes
ĠRu iz
ĠCen tral
ĠIgna cio
Ġcer can
Ġsencil lo
olu cion
Ġt ales
Ġme ta
ĠfÃŃs ica
Ġcomien zo
ĠC reo
n ar
ĠP h
Ġprogram aciÃ³n
Ġr ival
ĠF r
" :
Ġdar le
Ġpoc as
Ġf echas
Ġsi tios
a cion
Ġban co
mÃ¡ tico
Ġdesta car
Ġinf l
Ġv Ã¡l
Ġtan a
Ġcor te
I V
t ones
S E
Ġsoci o
Ġdeber Ã¡n
Ġencontr amos
ĠF eria
Ġreconoci do
L e
Ġtaller es
us e
Ġhum ana
Ġcaus as
a te
b os
Ġcontra taciÃ³n
Ġdes emp
Ġal co
Ġt ÃŃtulos
ĠTo da
T M
N V
2 8
ĠSan to
Ġerr ores
Ġan ual
om ento
Ġdocumen tal
Ġv oc
Q ue
Ġpermitir Ã¡
t Ãº
Ġso ftware
Ġho teles
Ġries gos
Ġalcal desa
ĠR ib
Ġac titud
Ġe ch
G U
Ġam eric
Ġdis capacidad
ĠL or
Ġro bo
Ġpriv ada
Ġpens iones
Ġafec ta
s in
Ġp ista
Ġestable ce
Ġinau gur
Ġpro pon
Ġelec ciÃ³n
ÃŃri tu
ĠprÃ³xim as
Ġrend imiento
Ġca er
Ġequi p
ĠM A
cas o
3 6
Ġinicia tivas
ĠGu adal
t ÃŃas
ras il
c ales
Ġsos p
, '
ĠhistÃ³r ica
le y
Ġperman ente
ĠMa g
and ro
Ġsens aciÃ³n
enci ales
Ġlic encia
Ġbel leza
Ġl ech
u za
* *
Ġefec tu
M adrid
Ġins ul
Ġado lesc
Ġaf irmado
Ġsindica tos
ter al
Ġcif ras
Ġcompro bar
Ã©n do
os otros
Ġconce j
in t
Ġdecid ir
Ġventa jas
Ġexper im
Ġtor n
ĠCor por
Ġf lu
Ġnumeros os
ce te
Ġlu ch
ĠSerg io
Ġde cÃŃa
ide os
Ġcapa ces
Ġab ajo
ĠAvis o
ĠS Ã³lo
ĠLa v
Ãº menes
ĠC D
Ġlabor ales
I CI
Ġhac emos
ĠDe partamento
Ġprincip almente
ĠPr incip
ien ta
Ġp ec
Ġac triz
entar ios
Ġconoci da
Ġdisposi tivos
c lo
ĠC iencias
Ġgal ard
ĠCo legio
Ġfac tores
d ia
Ġpuer to
ĠJu ven
Ġconsul tar
ĠAr t
Ġconvertir se
ill er
Ġsub ir
Ġfen Ã³m
Ġmov imientos
ĠO tro
ÃŃ mp
ĠAn tes
Ġinclu ido
Ġev idente
ĠM ac
h ol
Ġrespon der
es os
Ġpubl ica
Ġpres ent
Ġincend io
Ġn utr
Ġinv ersiones
ĠCul tural
ĠL in
ĠB ern
Ġni Ã±as
Ġorgan ismo
Ġcar ne
Ġdiv id
Ġcl ic
Ġvul ner
? .
cion alidad
Ġinfer ior
ĠP ad
ĠV a
Ġpresen tÃ³
ĠVil lar
ĠDec reto
Ġad ver
ĠDirec tor
dic e
to dos
Ġra ÃŃ
Ġtempor al
Ġpro to
ĠmÃ³vil es
Ġen ca
Ġcandida tura
Ġdes f
Ġdescan so
Ġmuer tos
Ġac os
ĠCam ino
Ġparticip ado
Ġ19 6
Ġelem ento
O C
Ġtrim estre
b ran
Ġlogr ado
Ġacer car
Ġher mos
3 5
Ġ ðŁ
Ġpilo to
Ġbre ve
Ġch ica
Ġsorpres a
Ġsal Ã³n
Ġan alizar
Ġsuel en
ĠAt lÃ©tico
Ġesp ero
ĠFran co
ĠSal v
Ġinstan tÃ¡n
Ġcircuns tancias
Ġreg ular
Ġg ar
Ġsegu idores
ĠA B
Ġfotograf ÃŃas
Ġe mi
Ġej empl
Ã³m ico
Ġnegoci aciÃ³n
m Ã¡s
T RA
am or
ĠM uy
e an
Ġcier ta
Ã³lo go
Ġneces arias
il io
Ġestra tÃ©
ĠSal amanca
ĠCam po
ĠL E
ĠV enta
ĠJ orn
Ġempres arios
ĠCom itÃ©
Ġcu idad
r ada
pres iÃ³n
Ġfac tura
Ġbenef icio
Ġreci entemente
ĠÃºn icamente
ĠPrim era
ĠC e
ĠSi empre
Ġg ig
ĠÃº til
Ġc ens
Ġmod ern
Ã©n ez
ios os
Ġt he
uc le
ĠEs e
Ġexper imen
Ġap rue
com un
F E
ĠH or
ic adas
. [
ad er
Ġim ped
tor i
ĠaÃ±ad e
Ġrequier e
Ġinten to
Ġofici ales
ci b
ĠVen ezuela
Ġmo tiv
Ġg ama
Ã ļ
ĠB log
Ġma qu
Ġperiod ismo
le tÃŃn
Ġmues tran
Ġcerr ar
Ġperm iso
Ġc aja
Ġvig il
re al
igu raciÃ³n
Ġper f
Ġ3 6
Ġmuer to
Ġepis od
ĠR osa
Ġaerop uerto
ĠSegun da
ĠVir gen
Ġactu ar
ĠT res
ir mar
ĠForm aciÃ³n
ĠAr ch
Ġdetal le
P P
u ma
ĠR on
Ġolv idar
ER A
ĠMu chas
Ġg e
i jo
Ġac lar
ĠF oro
Ġsilen cio
Ġin icial
form as
ĠAlgun os
Ġza pa
Ġcolec tivos
ĠC A
ĠFo to
Ġproteg er
Ġfran qu
AN T
ĠB iblioteca
Ġdes ea
ĠAlm erÃŃa
Ġh el
Ġhor ario
h an
ĠVal d
ĠEmpres a
Ġch o
Ġcons igue
ien es
ĠSoci ales
l i
us elas
it Ã³
Ġpl Ã¡s
Ġaten der
ĠhÃ¡ bi
Ġbo tÃ³n
Ġpr Ã©s
ĠO tra
es tas
Ġpre ten
ĠF il
i Ã±o
Ġro jo
ĠT iene
crib ir
Ġalcan ce
od er
ada jo
m isiÃ³n
Ġases ina
all orca
Ġ20 20
Ġpen al
Ġsec und
Ġelabor aciÃ³n
Ġcol oc
Ġneces itan
ici n
Ġfem in
Ġgener ar
ĠAlf onso
Ġofici na
Ġ200 6
ĠÃ¡r bol
adajo z
Ġdefien d
Ġdefiend e
Ġasegur Ã³
Ġexig e
ĠIncl uye
Ã³rm ula
in ter
Ġf lo
Ã± ez
on i
Ġacon te
Ġdes ped
ĠA ir
Ġex is
Ġconsider ado
ura ciÃ³n
Ġrealiz ada
Ġsus pend
ĠQ uer
Ġolv id
ĠDa tos
Ġdes censo
Ġnumeros as
Ġcons truc
itar ias
cu la
ĠRe ina
Ġpe le
ĠV ol
Ġconcentr aciÃ³n
Ġan aliz
Ġpoten cial
Ġman i
Ġmil i
C as
Ġale mÃ¡n
Ġanun cia
Ġtar eas
D es
Ġgobier nos
Ġposi tivo
Ġv io
Ġamena za
B ar
Ġfor o
ĠAutÃ³n oma
Ġher mano
ĠNa tural
Ġcr ÃŃtica
Ġemb ara
ĠAle j
Ġeurope as
Ġdesac tiv
Ġg ala
la v
tra to
ĠC in
ĠIn form
u tu
Ġm era
Ġfuer tes
Ġre per
ĠJ ulio
Ġdificultad es
Ġvia jar
ĠP ilar
Ġporcenta je
Ġen ga
Ġtermin ar
Ġa pe
Ġf eria
z on
ĠG estiÃ³n
Ġco aliciÃ³n
Ġacus ado
Ġesper anza
Ġa tre
RE CH
Ġg ira
ĠUn idas
Ġil usiÃ³n
Ġsosten ible
Ġpro vis
Ġcar tel
ĠD iv
Ġconcl u
ro Ã±o
Ġgu ÃŃa
Ġreform as
Ġconse jos
olÃ³g icas
Ġvari edad
Ġgaran tÃŃa
Ġpo tencia
Ġma ch
ĠDer echos
Ġcos tes
Ġsu ces
Ã©n dose
Ġtu vieron
Ġform an
Ġdirig ida
M O
Ġpron unci
Ġin genier
g ues
ĠR oc
Ġex pec
Ġas turi
Ġexpl icÃ³
ĠH an
ĠCor uÃ±a
ion ar
c amiento
T o
Ġba talla
ĠCam pe
um e
ĠPres u
Ġcons iste
Ġocur rido
J A
tra ciones
ĠS im
ĠBr uselas
ĠB rasil
Ġdescon oci
ĠE X
Ġenfr entar
Ġre p
Ġcompor tamiento
Ġfor tal
Ġtrayec toria
lec ciÃ³n
in ario
un g
Ġpro bar
Ġter ra
ĠTor res
ul os
Ġval e
Ġdifer encias
ĠA cu
ar ez
tar a
Ġdeci diÃ³
Ġesper ando
ad ero
idar idad
Ġg er
Ġd r
Ġinv ierno
am entos
Ġrese Ã±as
ĠG ol
Ġar ras
av e
ĠDE RECH
ĠB ea
Ġv eg
ĠcrÃŃ ticas
Ġunivers idad
i i
Ġcam is
Ġmov ilidad
tr uy
Ġpelig ros
m s
c ada
Ġpresen tan
Ġobje tos
Ġpon en
ĠPal ma
Ġrecl ama
Ġform ado
Ġofrec emos
v iedo
ĠDis eÃ±o
tr Ã³
Ġv iento
ĠB os
Ġviv en
if er
ĠMor eno
Ġval enci
ĠES PA
Ġpre venciÃ³n
Ġmill Ã³n
ĠR ÃŃo
Ġen em
Ġapoy ar
Ġinm obili
Ġdif und
Ġtriun fo
ĠBlan co
Ġevalu aciÃ³n
ita ciones
Ġin con
ĠEs p
z ando
Ġh al
ĠAr tes
Ġtr ibu
Ġgra v
Ġestable cimiento
cer es
Ġv idas
Ġmon um
ĠBar Ã§a
h or
Ġc Ã¡l
Ġub icaciÃ³n
EN TE
ĠL i
U D
tiv e
ĠMay or
Ġil um
ci no
Ġpor tu
on te
ĠlÃŃ mite
Ġcorrespond ientes
Ġpermi tido
ĠB u
ĠC s
ĠJor di
Ġas pir
Ġv ar
rÃ¡n eo
Ġaprend izaje
id aciÃ³n
Ġcas tellano
ĠO tros
ĠeconÃ³m icas
ĠperiÃ³ dico
Ġreci biÃ³
Ġlengu aje
Ġespeci es
cen as
ĠDig ital
ĠC el
Ġres tos
U C
Ġrefer ente
Ġcl ÃŃn
Ġrel l
Ġdepor tivo
Ġma te
ĠmÃºlti ples
Ġgra ves
Ġcic l
Ġt ÃŃp
M ar
Ġhab ido
Ġinteg raciÃ³n
Ġvas co
Ġre Ãºn
3 8
ĠDes cu
2 7
Ġllam ar
Ġo cio
Ġaprob aciÃ³n
i ten
Ġcor re
g Ã³
Ġse cu
ĠE du
Ġus ando
Ġpre mi
Ġc ed
ĠAu to
Ġincluy en
ĠmÃ© dicos
e ja
Ġc ien
Ġb od
Ġsu ger
Ġdesa f
Ã³m ica
Ġlegis laciÃ³n
Ġbal Ã³n
Ġab or
Ġclas ificaciÃ³n
Ġtradi cionales
Ġbici c
ĠI l
ĠnÃºm eros
ĠV igo
Ġn arra
us to
Ġind is
ĠDE S
Ġb os
Ġpens ando
Ġfin alidad
ĠJo a
Ġdej ando
r ia
Ġempez Ã³
A s
ĠDan iel
Ġb or
Ġv emos
Ġv iendo
oso fÃŃa
Ã± ado
av al
qu ÃŃn
Ġme tro
ĠT ar
ĠI z
Ġpriv i
b um
Ġv istas
Ġencontr aba
an ta
ĠP NV
ĠM is
Ġd ul
ĠEs per
w n
em en
Ġmag istr
Ġacep tas
. )
Ġcal endario
Ġintegr al
O O
Ã¡n ico
Ġreiv ind
ĠL es
Ġv ers
am ora
ĠcompaÃ± ero
ĠM c
AR IO
ter ra
Ġquier a
ĠZapa tero
Ġcomun es
Ġapar ecen
gu en
Ġpin tura
Ġal tas
ĠR ob
Ġmer ece
vil a
Ġac tores
Ġpromo ver
Ġsim ilares
ĠHern Ã¡ndez
Ġtempera tura
uer ta
ĠPla ta
Ġsub venciones
ĠÃ³r gano
f Ã©
ĠI d
Ġlu jo
ĠSan t
te ga
el er
Ġre in
di ario
Ġsencil la
ĠEn c
Ġcul pa
Ġes pos
ĠF omento
p ra
Ġing les
Ġd arÃ¡
ĠS ir
Ġmi ra
ER O
Ġtur istas
crib e
Ġimpl ica
Ġre ales
Ġmanifes taciÃ³n
es per
ĠA M
Ġrecomend amos
Ġ15 0
cion ada
Ġson ido
E Z
Ġin com
ĠIn genier
Ġpol i
Ġtamb ien
Ġv ÃŃas
Ġmin istra
Ġmarav illos
Ġofici nas
Ġam is
Ġtar if
Ġcuar ta
Ġestar Ã¡n
p Ã³
ĠA ustr
ĠMed ia
Ġconf iguraciÃ³n
ĠIn nov
Ġrestaur antes
ĠER C
Ġtend rÃŃa
end en
Ġay untamiento
Ġelectr od
Ġfundam entales
Ġ7 5
br ica
3 9
Ġefica z
ĠMar ta
Ġay untamientos
Ġim puesto
Ġsig los
Ã³s tico
ĠC ir
Ġdomin io
Ġherman os
Ġre pas
bi t
tr ol
Ġca y
M a
Ġm ente
Ġpar ed
Ġcambi ado
Ġdes pa
ÃŃo do
ĠReci be
Ġ4 00
Ġventa ja
Ġa Ã©
j Ã³n
Ġcontrol ar
P res
Ġcontr ibuy
2 9
aj aj
o od
Ġsab or
ĠM allorca
r Ã³
aj ara
N A
Ġdif usiÃ³n
Ġp ies
Ġocu pa
ĠfÃŃs ico
Ġv ienen
ĠU R
Ġher idos
ĠS ch
x o
ĠCom pr
g ico
Ġcond ena
Ġf irmado
Ġsol amente
U P
Ġpro cl
Ġe col
Ġos cu
ic ana
i tud
me tros
iz ados
Ġtrabaj an
ĠIndustr ia
u almente
Ġcorrespond e
Ġtar ea
Ġdis cipl
Ġdeclar ado
Ġanunci Ã³
Ġutiliz ando
p io
Ġarch ivo
Ġcla ves
Ġconf irmado
Ġa is
ari amente
f al
Ġsin g
tam en
ĠCas ado
Ġindirec tamente
Ġpaci ente
Ġrealiz an
Ġcontras eÃ±a
Ġad ministr
Ġto ca
ĠCris to
Ġconduc tor
para cion
um bre
Ġprev Ã©
? ,
Ġtur ÃŃstico
Ġmen tal
os os
io d
Ġurb ano
ier to
ing Ã¼
ĠNues tros
Ġbienes tar
Ġalim entaciÃ³n
ĠcientÃŃf icos
Ġinau gu
Ġch icas
Ġgratu ito
ĠJ am
lam en
Ġdes pe
ĠV ie
Ġvig or
Ġrespons ab
er se
ĠEspe cial
Ġll eno
Ġital iano
ez ca
ĠO ro
Ġinteres a
ier ta
Ġoblig aciÃ³n
Ġabog ado
Ġad quis
Ġpi edra
Ġrealiz adas
Ġsal ido
Ġquiz Ã¡s
ĠS enado
ĠEs tamos
te la
Ġmatr imonio
Ġseg uros
mar t
Ġinfraestruc turas
ĠD om
ci entes
indo ws
Ġper ÃŃodo
ion a
Ġpubl ici
Ġpis cina
Ġadecu ado
Ġmo to
Ġb iblio
ĠPÃºbl ico
ĠIn trodu
ĠBur gos
Ġde partamento
T AS
ĠA f
ĠOrgan izaciÃ³n
Ġ3 3
ĠAndr Ã©s
Ġacud ir
Ġsab es
Ġinstitu cional
Ġtr iste
Ġrepe tir
ĠU S
Ġinclu ir
Ġda Ã±o
Ġah orr
Ġcon tiene
ud as
in ta
i torio
Ġbaj as
c rÃŃ
Ġaus encia
us iones
Ġrespond e
Ġmar keting
ĠmÃ© todo
Ġecon om
es ÃŃa
Ġraz on
Ġasisten tes
Ġag re
Ġconci encia
Ġacon se
cier to
ĠQu Ã©
Ġ ign
Ġag encia
ion ado
Ġelectrod om
Ġres tr
Ġconviv encia
ĠSus ana
is as
Ġsegu ido
ÃŃf ico
Ġac tivos
Ġinmig rantes
Ġper ros
ub il
ĠFin almente
Ġir reg
ĠlÃŃ mites
im ina
Ġeduca tivo
omb ia
Ġesp al
id enta
Ġmis iÃ³n
Ġas untos
on ÃŃa
Ġdeleg ado
ĠAlber t
Ġleg ales
ĠenseÃ± anza
Ġluc ra
Ġaquel lo
ĠÃ ĵ
g adas
Ġsegu imiento
Ġpublic Ã³
ĠE ra
ĠM esa
em ente
am o
ci les
Ġc ruz
gan os
ĠU s
Ġtex tos
Ġmad ru
ĠCas tro
Ġentre gar
Ġavan ces
Ġcar b
ĠJ uegos
Ġlanz amiento
ĠbritÃ¡n ico
Ġma pa
Ġins cripciÃ³n
Ġpos teriormente
u tas
ĠD r
w a
Ġmir ada
Ġacad Ã©m
ĠacompaÃ± ado
Ġesp ÃŃritu
ĠM E
Ġmonta Ã±a
ĠMon te
Ġmoder na
j ada
Ġaten d
Ġha z
ĠC la
Ġexclus iva
ari ales
Ġenv ÃŃo
Ġlech e
Ġti er
Ġutiliz ado
Ġtan tas
Ġre duci
Ġimprescind ible
Ġmilitar es
ion s
Ġcomp ras
Ġc ielo
Ġejer cer
Ġadministra ciones
Ġrece ta
Ġfuncion arios
Ġ )
Ġapar iciÃ³n
Ġciudad ano
QU IER
Ġman d
Ġnav e
l Ã³
ĠD oc
Ġc Ã¡
Ġvolv iÃ³
men tado
Ġnaveg aciÃ³n
Ġll ena
Ġas igna
z go
Ġcu esta
ĠNuev o
Ġr ique
Ġmo ciÃ³n
Ġre pi
Ġsufr ir
Ġgaran tiz
Ġsol id
Ġdoc tor
ĠCa p
ĠCris ti
Ġderro ta
ic ol
Ġindivid ual
Ġreun iones
Ġdescu ento
Ġdepend e
Ġres Ãºmenes
Ġh ier
Ġconf irma
T e
ĠC i
ĠJa Ã©n
Ġdeten idos
Ġn aran
n ado
ĠH ar
Ġafi cionados
Ġdedic ada
Ġconsum idores
Ġtrib unal
ver n
Ġper jud
Ġampl iar
ĠConsul ta
Ġin jus
Ġb orr
mar as
Ġex hib
Ġquiz Ã¡
Ġpier d
ĠÃ¡ l
ER V
Ġpun tu
as te
Ġn ar
Ġata ques
Ġpierd e
Ġins pir
Ġja pon
Ġaver ÃŃa
Ġhabi taciÃ³n
D I
Ġsufr ido
Ġf lex
h i
m u
Ġres al
Ġdescar gar
ĠD ol
Ġserv ir
Ġmus eo
ĠInnov aciÃ³n
Ġpar ecen
od os
Ġatr ibu
Ġser ies
Ġpan or
Ġcomple jo
ĠTra baj
i ada
Ġar re
Ġ3 4
Ġmer can
Ġv ay
Ġre le
Ġc ientos
iz an
ĠPar ti
Ġres istencia
Ġrecog ida
Ġb om
ĠXI X
u alidad
Ġsi tÃºa
Ġfinanci era
Ġcampe Ã³n
Ġmanifies to
Ġcon tarÃ¡
Ġlu char
Ġdo ce
Ġcom arca
Ġser io
ic ha
aliz aciones
ĠI ra
a z
Ġpi eza
ib il
er ÃŃas
ues ca
k et
ĠTen emos
u x
Ġso porte
cr imin
en z
Ã³n ico
ĠC AR
ĠVi toria
ĠrÃ¡p idamente
Ġsal iÃ³
Ġinf luencia
ON A
Ġtorn eo
Ġrepresen tante
Ġvig ente
Ġre tro
ĠH emos
Ã¡ rez
ÃŃ na
Ġti n
tes is
Ġal tos
Ġme ter
Ġf arma
Ġal ar
l ados
Ġd ieron
Ġn ub
Ġcontinu a
Ġdemostr ado
ĠCom entarios
ĠF amil
id er
ta gram
p il
Ġfom entar
Ġper ro
Ġinmedia to
to logÃŃa
Ġfrances a
m ica
qu ie
Ġc Ã³m
a tos
Ġcompl icado
Ãº car
ĠelectrÃ³n ica
Ġacab Ã³
Ġgan ador
Ġinte lectual
ĠÃģlv arez
ier en
Ġn erv
Ġreci Ã©n
Ġes encial
ĠS istema
gr os
Ġcu Ã¡n
Ġ6 5
Ġpas eo
ĠLe er
Ġre publ
Ġterror ismo
Ã¡ z
Ġrespec tivamente
Ġac tiva
Ġpre d
Ġverdad ero
gun a
Ġacep tar
Ġj e
ĠCal le
Ġac tivo
Ġorigin ales
Ġap la
Ġex tin
Ġvis u
b es
aliz adas
Ġband era
Ġhu bi
Ġreco ger
Ġdirig entes
V O
Ġtana torios
ĠUn idad
ĠM U
ĠR oma
Ġ- --
Ġes cul
ĠC aja
tr ado
Ġr in
habil itaciÃ³n
ĠclÃ¡s ico
ab e
gr ado
% )
Y o
Ġexpl ic
ĠN A
h is
Ġlib res
Ġv osotros
cis mo
Ġdes n
ĠH uelva
Ġrefug iados
Ġinteres antes
Ġexclus ivamente
Ġpas an
i tes
Ġsu mar
Ġtrad u
ĠEstud ios
ĠCo ok
ĠAp ple
Ġcoleg ios
Ġdej an
h ora
ĠJu z
Ġas istir
tro cin
b log
Ġbeb Ã©
ĠPal mas
s ula
Ġon ce
tin os
g ando
Ġelector ales
Ġgan Ã³
u re
Ġarquitec tura
Ġfinanci ero
Ġa mp
Ġimpor ta
ĠV ia
Ġfel ici
is torio
Ġconstitu cional
Ġclim Ã¡tico
por tes
lam ent
Ġmal os
ĠC erv
Ġdem uestra
H ay
Ġalco hol
201 9
Ġhabl amos
ĠOr tega
Ġprob ablemente
Ġarch ivos
Ġcerr ado
Ġesp iri
ĠA ran
3 7
Ġaler ta
Ġconsider an
Ġres puestas
ĠMed iter
Ġch oc
Ġ4 8
m edia
Ġimpuls ar
ĠEn erg
Ġcolo car
Ġah orro
Ġindependentis tas
ĠC rea
Ġperspec tiva
ĠH en
ĠEs a
Ġ" Â¿
Ġcontac tar
Ġf eder
Ġexp los
Ġs iento
fici t
Ġbon ito
ĠS Ã¡
Ġna ciÃ³
ti bles
am as
ĠB B
ĠM ario
Ġapar ecer
Ġ2 000
Ġmor al
ter r
Ġestu v
Ġesta bilidad
m uy
ion ante
ĠReg istro
ĠD I
Ġen cab
Ġav iÃ³n
Ġ200 5
Ġconvers aciÃ³n
Ġg ras
Ġna cimiento
l in
Ġconserv aciÃ³n
.. ...
paÃ± as
Ġtan ta
Ġadul tos
ted ral
Ġsus p
Ġc ober
ciden tal
Ġreg alo
Ġra p
Ġbus can
ĠPro yecto
Ġfr ÃŃo
ĠI ma
Ġto car
r ero
Ġcuad ro
Ġme x
Ġfras e
Ġpar ecÃŃa
Ġmedio amb
Ġas is
Ġvalor aciÃ³n
Ġ =
ĠB ra
Ġcan cel
ec as
ĠLog roÃ±o
ĠCU AL
Ġmon o
Ġmod ificar
Ġpol Ã©mica
Ġsecre to
Ġresid encia
ĠJim Ã©nez
Ġcu estion
ĠBlan ca
Ġ3 7
Ġapor tar
Ġsigu iendo
Ġafron tar
ĠB la
ar me
Ġl Ã¡
Ġpud iera
eb ro
ĠDERECH OS
Ġpid en
ul aciÃ³n
Ġbas ado
4 6
ĠN in
Ġvo taciÃ³n
er amente
Ã¡m ico
Ġblog s
Ġavis o
Ġpriv ados
ar t
Ġamb iental
ĠO viedo
ĠS igue
r im
Ġprepar a
Ġlogr Ã³
Ġsub s
Ġprovin cial
ĠAlej andro
Ġreflex iÃ³n
ten te
ĠNe w
Ġplante a
Ġsociedad es
ĠTer esa
i ciones
Ġsitu ada
Ġseguir Ã¡
Ġpobre za
Ġexplo taciÃ³n
Ġenti ende
Ġd or
Ġcu Ã¡l
tÃ¡ logo
Ġaprovech ar
U ES
Ġor d
tif icaciÃ³n
Ġel ig
Ġconse jo
Ġcos tum
Ġaven tura
go via
ĠBale ares
b y
Ġe char
Ġmar ido
ĠA Ã±
Ġses iones
Ġpu ente
ta ban
Ġmar car
ec on
Ġmod ificaciÃ³n
Ġsin dic
Ġcre en
ĠV an
ĠPro duc
pi raciÃ³n
ĠQu iz
ĠReg iÃ³n
ic antes
Ġrepar to
di ciones
Ġesper an
Ġpas aj
ci das
Ġincu mpl
ĠmÃŃn ima
Ġlec tor
Ġqu itar
Ġpla cer
Ġespecial istas
Ġar que
Ġa val
Ġcam a
Ġponer se
Ġc erv
Ġreca ud
Ġadquir ir
Ġrealiz Ã³
Ġre tr
Ġjam Ã¡s
ĠLib er
un as
ĠMe jor
Ġley endo
P ro
Ġdemostr ar
ces to
ĠDef ensa
Ġtal ento
Ġpens amiento
Ġresid uos
Ġpla tos
Ġv ideos
ne y
Ġconstitu y
Ġconsider ar
ĠCo o
Ġde jo
Ġtempera turas
Ġme te
ĠJa pÃ³n
Ġex ces
al do
ĠT anto
Ġli qu
Ġasegur ar
Ġtrans formaciÃ³n
b u
cin to
Ġqu is
Ġex ter
Ġcoti di
P S
Ġda to
l ia
Ġp eg
Ġcoo peraciÃ³n
Ġadecu ada
OR A
Ġa go
Ġlucra tivos
Ġban car
g Ã¡nica
Ġpo ca
Ġunivers idades
Ġdepor tiva
Ġrique za
Ġcur ios
Ġso le
B L
Ġch ar
f ra
e gr
Es paÃ±a
Ġmar cado
ĠS AN
Ġningun o
Ġsol ar
Ġexped iente
ĠCAS O
ĠJos ep
ĠIn te
Ġsorte o
Ġcontin Ãº
Ġaproxim adamente
Ġdesem pe
Ġa genda
jer on
it adas
Ġandal uz
ĠLoc ales
ĠPl eno
ij Ã³n
ĠOfici na
Ġh uev
ĠG ir
ec o
ĠCor tes
Ġdeber ÃŃan
Ġmed ie
Ã³ cra
Ġdesarrol la
m bol
Ġprovin cias
ĠI V
Ġro ck
z ados
Ġtu m
ĠCUAL QUIER
ĠCons ell
Ġcateg orÃŃas
ĠCol ombia
Ġconfer encia
Ġfan tas
Ġblan ca
ĠAu tor
Ġintelig encia
Ġh ol
olog ia
Ġacog e
ĠW ar
Ġextran jero
Ġag ru
ĠEdi torial
Ġpas iÃ³n
Ġavan ce
Ġexisten tes
Ġcon tado
Ġfis cales
Ġser es
Ġfac tor
i eg
ĠClas ificados
Ġte orÃŃa
Ġcol abora
am bre
olu ciones
ta tivas
Ġinter ac
Ġpresu pues
Ã©c ord
ĠAcad emia
Ġenla ces
Ġvicepres idente
ci pe
Ġv inos
Ġpor tada
ris a
ĠCh ris
Ġileg al
ĠFu ente
ĠPar lament
ĠC R
Ġdes igu
ĠCuen ca
Ġinform es
Ġnego ciaciones
Ã©s ticos
ĠIz quier
Ġr onda
Ġprepar ado
ĠF un
Ġp Ã¡r
ĠDepor tes
Ġpla to
ĠDe porte
Ġprodu jo
ri el
ĠAr m
Ġconsigu iÃ³
J D
ten ido
ĠÃģ frica
Ġvir tual
Ġn ucle
ĠPatr imonio
min istro
Ġreb el
an ea
Ġcorrec tamente
Ġcom is
Ġrod e
ĠB on
ĠL uc
Ã¡ les
ĠDomin go
Ġdes ign
Ġto que
on cesto
Ġalum no
Ġcivil es
Ġpa que
Ġconsider amos
ĠdÃ© ficit
Ġencar gado
Ġ3 8
Ġpare cido
Ġllev arÃ¡
f in
Ġrenov aciÃ³n
Ġmal o
Ġpod eros
AN A
Ġren unci
z adas
Ġfalle cido
Ġgestion ar
ĠC iencia
Ġpien sa
lo j
r Ã³n
ĠC ad
Ġsolici tudes
Ġmir ar
ĠC H
ir re
3 4
ĠL an
ĠRES ERV
om bi
ĠW ill
Ġdesta can
ĠM ol
a cu
or ld
uel ve
tor iales
Ġincre ÃŃ
Ġesc ala
fici al
Ġins pec
ĠÃ¡l bum
ĠC S
0 5
Ġfamos o
ĠPres idencia
Ġmadru gada
Ġplata formas
ĠH u
gu i
Ġre iter
ĠfenÃ³m eno
Ġmul titud
la terra
ĠseÃ±al Ã³
Ġre cal
ĠW indows
ĠW ord
z can
ID A
ĠÃ¡n imo
Ġinterpre taciÃ³n
ĠAl c
Ġbr ill
', '
Ġdis cre
Ġla menta
Ġtram o
Ġa pa
ĠIs rael
Ġefici encia
ĠB adajoz
col o
Ã¡z quez
Ġelabor ado
Ġf ues
Ġpan tal
Ġinclu idos
Ġg uer
Ġcr imin
Ġmez cla
Ġpis os
Ġd il
Ġale grÃŃa
Ġcre er
po co
Ġgr ados
Ġten siÃ³n
ĠMo v
Ġperm ita
Ġcre cer
Ġclar amente
Ġper ju
Ġmen udo
ĠC ine
Ġco pi
ĠS ar
Ġcan ales
Ġcap ÃŃtulo
ĠFer r
ĠL uego
Ġllu via
ient ales
ĠL im
l amos
Ġconvers aciones
it h
gu ardia
Ġsol idaridad
ĠelÃ©ctr ica
Ġha gan
Ġmas cul
Ġgus te
ter ÃŃas
CO O
B RE
Ġins truc
ĠA tenciÃ³n
Ġes tancia
Ġval le
Ġperfec ta
Ġpend ientes
Ġve cino
ĠCorpor aciÃ³n
Ġve ter
Ġg eo
Ġgu itar
Ġesca Ã±os
Ġcris tal
isten te
Ġesta tal
i amente
ro id
Ġdelan tero
Ġcol a
Ġpre ced
Ġfir me
ĠA lex
ĠRESERV ADOS
ĠR SS
Ġextran jeros
Ġselec cion
tu almente
I ON
Ġba terÃŃa
Ġpreocu paciÃ³n
en za
Ã¡ bamos
Ġvideo j
ib ar
Ġejemp los
Ġpro vocar
Ġdig itales
Ġac eler
Ġd aba
Ġ Ã³p
i am
to Ã±o
Ãį S
g ona
ĠActu almente
em po
Ġproced entes
Ġdirig e
Ġconvir tiÃ³
Ġlo g
Ġre mon
ier ten
ĠF Ãºtbol
Ġqu ÃŃm
ĠGo vern
ĠGener ales
Ġb ras
e y
Ġjur ado
ogra fÃŃa
tor nos
Ġs iente
tor as
Ġampli aciÃ³n
B I
man es
Ġalterna tivas
Ġvi tal
Ġencu esta
ĠEdu ardo
Ġintrodu cir
ĠPa co
e amente
Ġidentif icar
Ġpa trocin
Ġre tos
Ġrealiz ando
T he
Ġab on
Ġhabl ado
Ġcompon entes
tan as
Ġpend iente
Ġc uel
la ve
J O
ĠBil du
Ġ200 4
Ġdia gn
Ġins er
Ġespeci f
ĠMed ios
ĠC uer
Ġmanifes tado
ĠM ul
Ġfrecu encia
Ġprepar aciÃ³n
Ġgaranti za
Ġutiliz an
ĠIs la
Ġem isiones
Ġr Ã©cord
ĠR ural
ĠDe leg
il lan
ci ta
Ġproced imientos
Ġcer ebro
ĠJo an
Ġte m
Ġcontac tos
cid entes
ĠCu enta
un ales
ĠAlba cete
ig as
ĠU GT
ĠPresu puestos
Ġconoci dos
Ġsuper iores
Ġinteres ados
v edra
ĠsÃŃ mbol
Ġsu p
Ġjue ga
ĠCon o
Ġb l
ĠG an
Ġap as
Ġirreg ular
Ġin quie
te mp
ĠSu Ã¡rez
ic ho
Ġestable cimientos
Ġj ubil
amp ions
g ina
Ġcu ento
Ġre visiÃ³n
ĠK a
ĠbÃ¡s icos
Ġautor idad
Ġv uelo
EN CIA
ĠQu in
Ġcorr iente
Ġrela to
ĠJ ur
Ġte la
Ġocur r
Ġens ayo
Ġestr eno
Ġproduc en
ĠB ro
end er
Ġgen ial
or ios
Ġmas a
Ġtecn ico
Ġcircu ito
Ġrecor tes
Ġpro te
Ġfel icidad
Ġle ÃŃdo
Ġapar tam
Ġempres ario
Ġplan o
Ġmed ic
Ġespeci alizada
Ġtotal idad
Ġas censo
v os
cios o
ĠEs tu
@@ @@
Ġbol sa
Ġbal ance
Ġcerc ano
Ġtrabaj ador
ĠC N
E B
i res
Ġcon cesiÃ³n
Ġdifer enci
Ġcubr ir
Ġextre ma
Ġparticip an
ĠAn ti
Ġesfuer zos
ĠUN A
ĠEncu en
Ġpol ic
Ġten den
or cio
Ġrom per
ĠAl im
ĠPubl icaciÃ³n
d on
ort un
Ġpor no
Ġven ir
Ġf es
Ġmez cl
Ġterc ero
Ġprim avera
Ġespeci alizados
Ãº c
f u
Ġmanda to
qu inas
Ġcam paÃ±as
Ġsex uales
Ġlleg ue
Ġafirm Ã³
Ġprepar ar
Ġestr en
v io
ĠXX I
ĠMer ced
Ġ19 5
Ġc ero
Ġelectr icidad
P a
or ar
to p
Ġaloj amiento
Ġocu par
or os
ĠCur so
Ġlocalidad es
ĠcientÃŃf ico
Ġpos e
Ġdici endo
Ġidi oma
ĠEmpres as
ĠI ber
Ã¡ ticas
ĠD en
ĠDis pon
ĠP RE
Ġtitu lares
] ,
ĠP D
tar ias
Ġexpres idente
ĠV ega
Ġdecre to
tim on
Ġdivers idad
V al
Ġpropor cion
0 9
Ġcontempor Ã¡n
Ãĳ A
ĠJ ef
Ġposi ciones
em n
Ġvein te
Ġcontempor anea
Ġtra to
Ġpos ee
Ġfi j
Ġestrateg ias
ur ales
Ġmo ver
Ġle tras
ĠPa z
te des
iv er
ĠEs tÃ¡s
ĠCon tra
Ġextre mo
C ar
Ġh in
enda ciones
con es
P SOE
mÃ¡ ticos
ĠelÃ©ctr ico
Ġesta tu
ĠCh ile
Ġex pon
Ġpres taciones
u o
Ġnorte americ
Ġen fo
ha t
ĠGuadal ajara
th le
Ġtranspar encia
av aj
Ġir re
por tar
ÃŃ dos
Ġcomun icaciones
Ġe vi
Ġh ue
Ġpresid encia
Ġgus tan
Ġmater ias
Ġauton omÃŃa
Ġpla yas
M I
H a
ĠElec tr
Ġdescu bier
ic ciones
Ġmar cados
ĠN ie
tag ena
ĠL ic
Ġesc uelas
ĠIgu aldad
0 1
ĠEs cu
ĠPon te
Ġinf ec
ĠT RA
Ġtom ado
Ġinten ta
ĠEsta tu
Ġdi eta
Ġapell ido
C h
Q UE
en zo
Ġprivi leg
Ġcuadr ados
Ġm ando
ĠON G
Ġti ro
Ġtes timon
v istas
Ġv ersiones
arra gona
E x
d idas
Ġdi pl
Ġantigu os
Ġcomple mentar
ĠcientÃŃf ica
Ġvo tantes
ĠFu entes
Ġprofes iÃ³n
crip ciones
ĠCook ies
ĠJ ud
ĠC lar
am i
ĠLeg al
Ġfron tera
Ġbas ada
Ġserv idor
gar Ã¡
po t
e is
Ġemerg encia
Ġpol icial
Ġde fec
Ġs ien
ĠÃ¡mbi tos
Ġrealiz arÃ¡
Ġexac tamente
Ġdiv ul
ĠPol ÃŃ
Ġacon dicionado
Ġch icos
Ġconf orme
Ġtur no
f era
ĠCor reo
____ ____
Ġcomb us
Ġfru to
Ġaten tado
ĠMu chos
ĠB ajo
Ġsan idad
Ġllev aba
Ġpropie tarios
Ġadap taciÃ³n
P ara
Ġt ono
Ġcober tura
Ġcol um
Ġcu yos
/ ...
id al
Ġso f
ĠfÃ¡cil mente
ĠCab all
Ġexper to
uel ta
Ġalcan zado
Ġf icciÃ³n
Ġfl ores
Ġinstrum entos
ing ton
0 8
Ġlab ores
c ro
Ġpid iÃ³
s ta
titu des
ĠM ara
ÃŃc tor
Ġgastron omÃŃa
Ġtenden cias
Ġpreocu pa
ch ado
Ġpro pa
i aciÃ³n
ĠGre cia
thle tic
19 9
cis ta
ĠÃ³r ganos
Ġobten ido
m Ã³vil
Ġapor ta
ĠCon diciones
Ġacos tum
ĠInter na
Ġjuz gado
Ġfer ro
Ġim ple
ĠCas tillo
Ġdepor tivas
Ġc es
Ġfa ch
Ġasum ir
il d
Ġrece tas
ĠCu atro
4 8
Ã±o z
Ġlo gra
Ġquier an
ĠTa gs
Ġha go
Ġl anza
o x
M S
Ġim pon
Ġeduca tivos
Ġven ido
ivers idad
ĠNav arro
Ġal ber
Ġcelebr Ã³
Ã© ro
it Ã¡n
Ã¡ndo le
Ġoblig ado
T C
Ġapor taciÃ³n
ĠS tar
Ġadi cional
Ġs Ã³l
Ġmadrile Ã±o
Ġinmedia ta
ĠCan al
ĠRes erv
Ġsobre viv
Ġp us
Ġencu estas
Ġco g
ĠÃ į
ĠEn tr
Ġperten eci
Ġper cib
p ias
Ġp ala
Ġregul aciÃ³n
an tiles
Ġrecha zo
x it
ib uye
Ġsubray ado
am ar
x i
Ġmejor as
ĠN adal
Ġequ iv
ĠN eces
Ġquer er
Ġadv ierte
it s
Ġgus tado
Ġvia j
Ġhor iz
o w
Ġemp u
Ġciudad ana
ĠHum anos
Ġman tienen
ens iones
ĠL en
Ġcomple tar
ĠEn tonces
ĠS I
Ġpro tec
Ġllegar on
C an
ĠsÃŃn to
Ġsolici tado
y n
Ġpar al
ĠA br
Ġasesina to
Ġaudio vis
ĠCom pra
f as
ĠPar ece
Ġn Ãºc
Ġ6 00
Ġdeman d
.... ..
pl ica
c ciÃ³n
0 7
Ġurg ente
Ġexam en
ĠSeÃ± or
ĠJoa quÃŃn
Ġcens ura
ĠSalv ador
0 6
Ġnaran ja
Ġref uer
tu alidad
Ġre mi
i tivo
ĠConstitu cional
ĠT an
m al
Ġinform ar
Ġdes cend
C U
Ġcier tos
genti no
l ÃŃn
cri tos
ver d
ĠV ÃŃctor
ĠT ri
ĠÃģlv aro
Ġcon ta
ĠTer ri
Ġterri torial
Ġsen ten
Ġabsolu tamente
Ġlab ora
Ġperson alidad
M o
Ġalim entar
Ġdiv isiÃ³n
Z A
tin as
Ġcontam inaciÃ³n
Ġopera tivo
Ġmus icales
Ġdefend ido
Ġdes gra
g l
ĠDipu tados
ĠcÃ¡ maras
Ġv uelos
Ġrev oluciÃ³n
Ġacab ado
Ġorgan ismos
ĠB l
Ġtra tamientos
qui to
Ġrema te
ĠM uer
ĠI VA
Ġsindica to
Ġa ma
Ġinf ancia
Ġas ign
ĠC COO
Ġprob able
Ġintercam bio
Ġvie jo
Ġg ir
i adas
ĠJos e
' '
roso ft
Ġ3 9
ic anos
Ġind emn
et s
Ġneg ra
ĠPrem ios
Ġun e
Ġsolu cionar
Ġnie ve
Ġmanten ido
Ã¨ n
Ġcor ta
3 3
Ġcuer pos
Ġpubl icaciones
ies e
Ġdepor tes
ĠC L
ĠP es
Ġabandon ar
Ġtur ÃŃstica
Ġdetermin ar
Ġfir mas
Ġigu almente
Ġprofund idad
Ġbaj ar
f Ã³nica
Ġpod remos
ĠX unta
o t
Ġcu ota
Ġconstitu ye
Ġpres taciÃ³n
ĠMediter rÃ¡neo
Ġaud iencia
avaj illas
T AN
P al
c aba
Ġtermin ado
ĠMu Ã±oz
Ġencuen tros
Ġb eso
j ante
ĠC AM
Ġab und
Ġcolec tiva
Ġaf ili
t und
Ġfemen ino
ig uras
Ġaprue ba
Ġher ed
ĠRod r
ix a
ĠV O
Ġinteres ado
ĠUsu ario
Ġa os
Ġsegu ra
Ġres umen
Ġaum enta
ĠCh ampions
Ġdich os
ĠG r
T V
ĠdiseÃ± ado
e go
Ġentren amiento
Ġperten ece
Ġtr ama
b Ãºs
ĠjurÃŃd ica
Ġpon iendo
Ġsu pera
Ġsal en
os ten
Ġconcep tos
Ġcomo d
ĠG il
Ġpropor cionar
Ġcla us
g ia
ĠT E
ĠhÃ¡bi tos
ĠO R
Ġb iblioteca
Ġcamb ia
ĠO JD
ĠIns tal
Ġpais aje
ĠLib ro
or io
Ã©r amos
7 5
S al
Ġabsolu to
ĠJuz gado
Ġneces itas
ios as
ĠFa cultad
Ġru tas
Ġqued e
Ġtier ras
ĠCar m
Ġsuced e
ĠautÃ³n omas
ĠRes pon
ĠProfes ional
br ado
Ġl iga
Ġing red
Ġtriun f
Ġinver tir
Ġsab ÃŃa
ĠA ire
all er
Ġefica cia
ĠraÃŃ z
Ġterror ista
Ġpublic ados
ĠC OR
Ġverdad era
Ġin tr
Ġreg iones
: )
Ġus a
Ġreper cu
Ġp ene
es to
Ġespos a
AR C
ĠAc ciÃ³n
Ġsim ul
Ġcer e
Ġca fÃ©
Ġllam adas
er gencias
Ġdes ay
m end
Ġre gu
ĠPu ente
C iudad
tÃ³ graf
f ob
G ran
Ġcar tas
crip t
Ġincorpor aciÃ³n
ĠautÃ³n omos
Ġrecom endaciones
Ġ[ +
ĠSan tos
Ġkil os
do l
ĠEsto y
CI O
ĠP C
ĠN eg
ĠA Ãºn
Ġretir ada
Ġreg las
Ġindustr iales
Ġsu fre
Ġcarr eras
Ġespec tadores
ĠC Ã³mo
Ġviv ido
Ġunivers al
Ġsal var
Ġhabi tuales
l Ã¡n
C a
Ġur nas
qu illa
Ġejerci cios
v ante
ĠH IS
Ġp las
Ġpod Ã©is
ik i
ĠT R
ĠS r
th er
Ġcorrec to
Ġobserv ar
Ã³lo gos
Ġfin alizar
ĠCon ce
ÃŃ es
Ġsig a
Ġfal lo
Ġcomp ens
ĠIns tagram
Ġvir us
m is
Ġintens idad
c ens
ĠP ir
ĠIng laterra
Ġ200 3
Ġles iones
ĠF ron
Ġreci entes
Ġconden ado
ĠC C
ĠLa ura
Ġprol on
Ġvia jeros
Ġcontinu idad
quil lo
Ġan aliza
Ġinv itados
uel to
Ġres pal
ĠP ac
Ġesti ma
Ġcri terio
Ġefec tivo
Ġcarre teras
Ġizquier das
Ġjard ÃŃn
if in
Ġl um
Ġch a
Ġconoc emos
Ġcar n
IN A
Ġhabl an
ÃŃn sula
Ġvesti do
Ġest adio
Ġpa ta
ĠM ora
ik e
Ġprotes ta
3 1
Ġtrabaj ado
Ġb ro
Ġcompues to
ĠS oy
Ġf ur
g ip
ri es
Ġ15 5
Ġam iga
s tru
il lar
Ġexpec tativas
in ados
Ġcom enta
Ġposi tiva
Ġpl en
un tamente
Ġib an
ĠV ill
ĠS oria
Ġpre viamente
Ã©r ico
ĠN or
Ġqu iso
ĠCu al
ĠTam poco
i h
ĠCar r
I E
Ġan uales
c Ã³mo
T S
Ġpreocu p
Ġag ente
Ġre mo
di as
Ġpanor ama
Ġgaran tÃŃas
Ġfil osofÃŃa
Ġcantidad es
Ġresca te
Ġsatisf acciÃ³n
P er
Ġpres unto
Ġb ord
Ġdro gas
Ġoblig aciones
Ġbras ile
Ġimpres iÃ³n
ĠS en
ho w
am Ã©rica
Ġv el
Ġprev ista
Ġinvesti gaciones
Ġvalor ar
Ġimpul so
ĠS ue
Ġdecor aciÃ³n
Ġ5 5
an im
ĠIncl uso
verd e
Ġdev olver
ran te
Ġas al
ĠLor enzo
ud ela
Ġaf iciÃ³n
EN A
iÃ©n dose
Ġunivers o
inos a
Ġasegur an
ĠI P
ĠA par
Ġmani pul
Ġro l
Ġcor red
id el
Ġre baj
Ġorganiz ada
ad ura
ĠMerced es
med io
Ġcomen zado
Ġbar co
ĠautonÃ³m ico
min a
Ġincre mentar
% ),
Ġ[+ ]
i pu
Ġamis tad
ra fo
k ia
Ġinstrum ento
ĠG lo
Ġmoder no
Ġsal as
Ġfavor itos
Ġhuman idad
G u
Ġar gentino
ĠreÃºn e
ĠEx per
ĠIzquier da
Ġpolic ÃŃas
ab uena
Ġprim a
ĠEs pero
Ġcon greso
TM L
Ġin oc
ĠHer man
201 8
Ġpasaj eros
ĠR amos
ar re
Ġf iguras
pres s
ĠG ijÃ³n
OR ES
ro l
gen o
ĠPÃºbl icas
Ġus tedes
Ġdesemp leo
Ġc itado
Ġimplan taciÃ³n
ĠP ul
L AN
6 5
Ġac cidentes
Ġest ados
qu ilidad
Ġapun tado
Ġdes pl
d s
ĠD entro
ĠCon tin
Ġdetermin ados
Ġsecre taria
Ġexp ans
utu be
Ġexten siÃ³n
ra gon
ue ble
Ġcoordin aciÃ³n
di ales
ĠcrÃ©di tos
se gur
Ġpres tar
om Ã©
is po
Ġas cend
Ġem ble
lor ia
ĠReg lamento
Ġparlamentar io
h um
ic s
ĠPerson al
Ġc i
ĠMic rosoft
ÃŃ timo
Ġreiv in
Ġen rique
ĠON U
T en
ĠCh ar
Ġub icado
Ġo toÃ±o
Ġme tÃ¡
Ġconcej ales
Ġvo ces
ĠH uesca
Ġcomprend er
ĠGran d
Ġlan zado
ĠRes oluciÃ³n
Ġd arse
ĠSir ia
es tr
Ġprop Ã³sito
Ġprov ocado
Ġenerg Ã©tica
Ġapro bar
Ġapues tas
Ġbo da
Ġdenunci ado
tad ura
ĠMar tin
Ġen d
Ġv uestra
Ġcorrec ta
Ġsan itarios
Ġles iÃ³n
ĠF l
Ġno tas
ĠA thletic
Ġqued arse
Ġavan zar
Ġdecid e
Ġocu paciÃ³n
ĠOb s
Ġr iv
ĠDepor tivo
Ġjue ces
Ġa tro
O G
Ġtermin a
ĠCom par
Ġra to
ill era
EN ES
pi Ã©
ĠCastell Ã³n
O E
Ġven tana
Ġen mar
Ġe tiquetas
Ġh orm
Ġca tÃ¡logo
qu ista
Ġbil le
Ġnota ble
0 4
ti to
ĠVic toria
Ġan teriormente
ĠF re
Ġre acciÃ³n
clo a
id es
ĠTo ur
ir man
Ġcal iente
Ġfra caso
Ġinform Ã³
N av
qu era
Bar celona
Ġsem ifin
Ġpresentar Ã¡
Ġe duc
Ġsan itario
ĠReg ional
ĠD ocu
Ġincend ios
Ġcenten ar
Ġch ico
Ġpro voca
Ġ om
eci dos
Ġdesigu aldad
Ġpar ar
ĠAdministra ciones
Ġapro pi
ĠmÃ¡ quina
ĠComun idades
g or
ÃŃn cipe
Ġcompe tir
ID O
ĠSer Ã¡
Ġtor os
Ġgobern ar
Ġaud itada
Ġencab ez
Ã©l ulas
Ġbarr ios
rue cos
ĠP ese
os as
Ġcomb inaciÃ³n
Ã¡ us
qu eras
lle er
Ġmaes tro
Ġna cido
U na
, ,
C L
Ġcons ciente
Ġterra za
M E
ĠS or
Ġcier tas
ĠP IB
ĠPrincip ado
Ġver se
Ġemp e
ĠMos sos
---- ----
ĠIn m
Ġregres o
ĠH A
ĠC ara
Ġacu sa
ĠH om
Ġeduca tiva
Ġpres os
Ġelev ado
Ġsol d
Ġdeten ciÃ³n
Ġabord ar
Ġcandida ta
Ġal f
Ġo dio
ĠAd ri
ĠRe paracion
Ġher mana
Ġequilib rio
Ġno ches
ĠAgr icultura
Ġmar ch
ĠdemocrÃ¡ tica
Ġcal ef
ĠAy er
I AS
Ġlan zar
Ġpens ado
Ġmor ir
Ġcomba tir
P od
s h
Ġfues e
Ġsegur amente
ig ht
Ġescrib iÃ³
ĠPe pa
Ġta bl
Ġte a
Ġpare jas
Ġrecom ienda
Ġof ens
Ġconflic tos
ci ado
Ġse para
ÃŃcu la
Ġbol s
Ġre cinto
Ġf Ã³rmula
Ġescol ares
Ġ4 2
ol l
Ġpropor ciona
Ġfan tÃ¡s
ĠD ar
ĠAl ma
Ġpriv adas
Ã³n imo
id en
Ġrelacion ado
ĠGab riel
ten ga
or ado
ven ido
tera pia
Ġf ib
Ġf ores
ĠEs tad
b ios
c era
ha el
F A
Ġcoci n
cin co
e j
w ood
AR A
Ġper egr
Ġdeci s
es tar
Ġcircu laciÃ³n
ĠT oni
Ġcar iÃ±o
ĠN icol
Ġparti d
Ã© ticos
Ġredu cido
Ġl lor
Ġfinanci eras
Qu iÃ©n
Ġcas co
T IC
Ġex cu
ces a
ĠO tras
ĠR en
tel erÃŃa
Ġdis cur
Ġagres iÃ³n
ĠG RA
Ġquin to
Ġta bla
Ġex posiciones
Ġalum nado
ĠautonÃ³m icas
Ġsing ular
ĠRe par
Ã± igo
ĠRes ul
Ġmostr Ã³
Ġescen arios
ĠN aciones
ĠRec uer
in io
Ġexcep ciÃ³n
v ic
ĠMe tro
Ġis las
Ġde dica
ĠA pro
p ista
ĠRo ja
ĠS L
Ġau x
Ġconse jera
ire mos
Ġre vela
Ġorganiz ar
Ġtarje tas
Ġjuven tud
Ġdestin os
ĠV ER
Ġcumpl en
ĠO f
Ġale mana
gar se
AD R
ĠE qui
is h
ĠT im
Ġresponsab ilidades
cu ra
Ġo jo
Ġl ema
Ġefec tiva
b ir
Ġnov edad
ĠLu go
Ã± Ã³n
Ġh all
Ġauto bÃºs
tÃ³ lica
Ġcons truy
be te
Ġabra zo
Ġdestin ado
ĠU til
Ġdr ama
ĠSe govia
ta Ã±a
Ġru ido
Ġbicic leta
Ġjug ue
Ġcul p
Ġcontr ad
tu ario
Ġdig nidad
ine te
Ġentre ten
ta mo
ĠPr omo
ĠRober to
cier on
Ġad j
s ado
ĠGu ar
Ġespecial ista
v ol
ĠAnd roid
Ġconsul tas
Ġsusp ensiÃ³n
Ġmus ul
Ġconcl usiones
C s
Ġcu m
Ġgan ad
Ġen amor
le er
eci da
Ġhaber se
Ġl adr
TOR IA
Ġho ja
Ġadquis iciÃ³n
Ġorgul los
ible mente
Ġde cenas
Ġestar ÃŃa
Ġsuper viv
ĠDiv isiÃ³n
Ġre porta
ar le
Ġsal to
Ġmad res
Ġgalle go
ĠC ientÃŃf
Ġimped ir
Ġex por
or aciÃ³n
Ġmen Ãº
Ġlib r
ĠSal Ã³n
Ġpre cip
Ġrealiz ados
ion istas
v ie
N O
Ġequ ival
Ġev idencia
hor abuena
Ġcampe onato
Ġllegar Ã¡
P O
ĠmÃ© todos
Ġde terior
ĠSocial ista
Ġins u
ad u
Ġconf es
ema to
Ġdis cos
ĠV amos
ef in
j ano
Ġc ena
in idad
Ġcertif icado
Ġdes as
ten ta
ĠGar rido
tÃº an
Ġidi omas
ĠEj Ã©rcito
Ġte Ã³r
Ġestu p
Ġaver ÃŃas
b ano
ab ell
ĠE D
3 2
Ġdirig ente
ques ta
il as
ies a
ĠCor te
n al
ĠQ U
ĠW orld
Ġsuf riÃ³
Ġsu yo
tra te
Ġim pro
ĠV OL
Ġinstal ar
den es
Ġneces itamos
4 7
Ġtras lado
Ġme todo
Ġinv ol
s er
ĠMar ruecos
Ġespal da
Ġmanifes taciones
ĠCOM P
Ġma tar
Ġestruc turas
ĠCon ven
Ġimpa c
Ġpatr on
Ġh ec
Ġfamos a
CI AS
Ġll en
C o
l ando
ur i
Ġregal os
4 9
ol es
ÃŃf ica
ba co
i anos
ĠT es
Ġenvi ado
ĠMay o
cer tid
ĠF ondo
ĠHa z
cin as
ĠPr ivacidad
Ġjud iciales
Ġper diÃ³
ĠE tiquetas
Ġh arÃ¡n
Ġc Ã©lulas
ĠCU P
Ġpropi edades
Ġtend r
tr ÃŃa
ĠX VI
Es to
Ġterror istas
ĠCar tagena
ĠMel illa
or ros
Ġdetermin ado
m ico
Ġfabr icaciÃ³n
Ġsan itaria
Ġpos tura
Ġcier ra
Ġacog ida
un cias
ĠCÃ¡ ceres
Ġinvesti ga
w er
Ġcon tigo
ĠInf antil
gan da
S u
m ir
ĠcrÃŃ tico
f ran
Ġdis crimin
Ġabier tas
f ia
ĠP s
ĠL ea
f und
ez ol
Ġrefor zar
ĠMer cado
en ce
ĠjurÃŃd ico
ĠN et
ĠRes ta
........ ........
Ġpos esiÃ³n
Ġhab ilidades
Ġa er
Ġtend rÃ¡s
Ġnegoci ar
Ġprefer encias
Ġin trod
Ġa qui
Ġcontra tar
ĠMes si
Ġasesor amiento
Ġdestac Ã³
Pres s
Ġson risa
Ġval ora
ĠdÃ© ci
u to
Ġinvers ores
N os
Ġcontemp la
Ġf igur
Ġpregun tar
Ġp ion
Ġalcan za
Ġquin ce
ĠAlcal Ã¡
Ġdistin to
Ġbaj os
ĠMon cloa
ci ende
ĠAll ÃŃ
Ġneces itar
iste mas
Ġcompar ec
Ġf lamen
men t
Ġvues tro
Ġsufr en
Ġrue das
s es
Ġconf igur
ĠP ola
Ġfi ja
Ġem baj
Ġher idas
Ġtran quilidad
ĠPS C
M an
Ġman ual
iz Ã³
Ġdistin gu
Ġe c
1 00
Ġperman ecer
ĠOb ama
ones a
Ġapl ica
Ġtre inta
temp or
ific ada
ĠS A
Ġpob res
Ġtraslad ado
ĠCo ordin
ĠÃģ rea
ĠS AL
ĠEl ena
ĠBol sa
ĠCar re
ĠPrim aria
Ġfra ude
Ġf estiv
ĠAl ta
Ġpre ven
0 3
Ġdorm ir
Ġrepres entar
bur go
ĠRom ero
Ġca e
Ġdiagn Ã³stico
p od
ĠincreÃŃ ble
Ġvuel va
ud os
ĠCe uta
Ġrev olucion
ĠG en
Ġcorr er
l la
Ġglo b
Ġconcl uy
Ġhubi ese
Ġpa gos
tif icar
Ġintelig ente
Ġdispon er
IEN TO
Ġexig ir
ti zado
Ġlidera zgo
Ġdeclar ar
ĠCar les
Ġin n
Ġtend remos
ĠP iso
mo vil
Ġro ja
ĠT ro
tin es
Ġnega tiva
E E
me tro
ĠP el
ĠT ex
Ġcontribu ir
ĠL is
prim ir
tra je
ĠPe pe
Ġcuan tos
Ġin greso
Ġatrac tivo
IL LA
tim edia
Ġpla zos
Ġpoder es
er al
ĠTen go
Ġm adrid
iz ca
tim idad
te cn
T ES
Ġemail s
as terio
Ġresta uraciÃ³n
ĠPa ul
Ġar res
Ġbas a
ĠInd ia
Ġen m
ĠPla y
ĠM ich
Ġconf irmar
icar do
Ġsufici entes
ĠO pen
Ġelectrodom Ã©sticos
Ġcon vocar
Ġre ina
in ada
8 5
Ġnov ia
ĠautÃ©n tico
P OR
Ġocur riÃ³
Ġun iÃ³n
Ġespeci alizado
Ġforma ciones
Ġcom posiciÃ³n
ici as
201 1
Ġfinanci eros
Ġsu ici
Ġm el
ĠCampe onato
Ġcl ick
ĠNos otros
Ġmecan ismos
Ġlevan tar
Ġtra tados
ĠZ amora
Ġb es
ĠplÃ¡s tico
Ġauto mÃ³vil
Ġl ici
Ġdefini tivo
Ġsu man
ĠL ar
iz ando
Ġfron teras
Ġprovis ional
Ġ25 0
Ġmues tras
Ġar ma
ÃŃ g
Ġsu ministro
Ġtrans iciÃ³n
ĠV AL
Ġcon tamos
Ġinf antiles
ĠUnivers itario
Ġprocl am
Ġactu alizaciÃ³n
ti ende
Ġim poner
Ġcon quis
Ġprim arias
Ġpromo v
Ġcompar aciÃ³n
ĠL abor
Ġempa te
Ġf ans
Ġpien so
as o
Ġcon ces
mart ph
ĠK e
Ġamena zas
Ġdes m
Ġban ca
qu ero
Ġrecur r
ĠN orm
ab al
Ġdej amos
crÃŃ bete
ĠOr gÃ¡nica
Ġhor arios
ĠÃģngel es
ĠG ala
tion al
ĠSe a
ĠE v
Ġpre venir
Ġurg encia
n y
ĠC Ã³digo
ĠMar ia
Ġcomun icar
ĠhistÃ³r icos
ĠViv iendas
ĠPe Ã±a
ĠCu ba
Ġejecu tivo
Ġargu mentos
u tos
Ã©nd ez
Ġcons enso
Ġabog ados
rÃ¡ tico
ĠFo tos
ĠE va
9 5
Ġf um
ing s
Ġsac r
pl an
Ġc ajas
Ġavan zado
ĠC ala
Ġh ambre
Ġme tal
Ġviv iendo
Ġrepro duc
is co
Ãº r
es as
Ġdefin iciÃ³n
UR L
s oci
Ġvend e
Ã± e
Ġconfer encias
Ġas om
Ġre tra
ĠBla ck
ĠEste ban
Ġquin ta
Ġindivid uales
ĠCom ple
Ġem isiÃ³n
ĠMed icina
Ġtas as
Ġpro greso
Ġb ron
Ġb ac
Ġincid encia
Ġp istas
Ġrepresen tan
ĠIN F
ÃŃn ea
Ġin ex
Ġca za
Ġfu tur
ce ta
0 2
ĠelectrÃ³n icos
ĠJa ime
Ġelimin aciÃ³n
Ġd as
Ġ4 4
Ġdipu tada
Ġro j
Ġtrib unales
ĠÃī l
Ġpier nas
ĠContac to
Ġpresen tada
gÃ¼ enza
Ġestr ena
ĠF on
Ġpo esÃŃa
g Ã³n
Ġsob res
ĠautÃ³n oma
Ġinici Ã³
Ġcorpor a
Ġcapa ci
ĠCristi ano
Ġrefle ja
Ġestr ic
ti mas
Ġd uelo
v ias
Ġdeb ÃŃa
Ġin certid
Ġedi ciones
ĠJam es
Ġescrib e
id encial
Ġsal udo
ĠAn gel
Ã¡n dal
Ġcon cer
Ġrelev antes
Ġe tique
Ġrecib en
cion istas
Ġagrad able
Ġr io
Ġtrans cur
Ġjug ada
ĠOs car
Ġresid entes
Ġdoc entes
av a
Ġtej ido
un ciÃ³n
Ġtra tado
Ġel imina
n is
ĠsÃŃnto mas
Ġmedie val
a unque
Ġrelacion ada
ik a
EN D
el adas
ĠG U
cu laciÃ³n
Ġle tra
ĠÃ©s tos
Ġar ena
Ġsue Ã±os
h ay
Ġprove edores
Ġvolver Ã¡
Ġrelig iÃ³n
ĠpÃ©r didas
gres os
Ġcolabor ar
tin er
ĠPa pa
Ġdesp la
blog s
Ġfutbol ista
eci endo
Ġapar te
A A
Ġcamis eta
ur ense
Ġinmedia tamente
Ġre cepciÃ³n
e jo
Ġcho que
Ġgan an
Ġban das
Ã¨n cia
ĠVis ita
Ġcentr ales
Ġign or
Ġco pia
is e
Ġfo tÃ³graf
Ġdescar ga
Ġnav ide
Ġconcl uye
ĠUr ban
ĠJ unto
Ġsuel do
Ġla teral
Ġregistr ados
ĠV Ã¡zquez
Ġbrill ante
Ġterri torios
tr ar
partam entos
if icio
Ġch arla
Ġte cho
ĠestÃ© tica
ĠPlata forma
Ġtempor adas
ĠautonÃ³m ica
ĠRa Ãºl
E G
Ġpod ÃŃan
Ġcom isiones
ĠSan z
Ġr ico
Ġvigil ancia
Ġd ios
ĠDan i
Ġ200 1
Ġmed icina
Ġsenti mientos
Ġcoo pera
Ġcar as
Ġf rag
Ġquier as
Ġm Ã¡g
J E
ce la
Ġsuper ado
Ġfuer an
ĠZ ona
mÃ¡ ticamente
Ġno c
ĠbritÃ¡n ica
201 7
Ġpor tÃ¡
c ando
r il
Ġ( "
Ġparlamentar ia
Ġpar ro
Ġsal ario
ĠAlgun as
im nas
Ġinf rac
Ġconsum idor
ĠÃģ vila
cios a
f icos
Ġad vers
ĠE H
Ġc itas
Ġempres ariales
ĠHum an
Ġvis ual
Ġredac ciÃ³n
Ġindependentis ta
ĠReserv ados
Ġchoc ola
Ġestudi ante
Ġcon du
v Ã¡n
Ġcon tÃ³
ĠN unca
Ġpar ada
ĠCon d
Ġsens ibilidad
Ġpor tero
f l
Ġpo eta
ĠPro pi
i ti
Ġconv ocado
Ġpoten te
Ġdesp rend
Ġic ono
ĠM olina
Ġru p
Ġmaes tra
Ġcomb ina
Ġna ce
Ġha ces
ĠMar cos
ĠPer iod
t Ã©r
ĠS ara
Ġhab il
k in
Ġde je
Ġcur r
Ġm uebles
Ġsu g
ĠS pa
ĠMic hael
e cimiento
Ġdes tru
Ġinaugu raciÃ³n
Ġenfr enta
Ġmonta je
ĠCerv antes
Ġjug ando
Ġre habilitaciÃ³n
erva torio
Ġingred ientes
la va
Es te
ĠIn icio
Ġcubier ta
i edad
ĠEsta tal
Ġreserv as
Ġn omin
ik o
Ġa ustr
ĠWord Press
ĠvÃ¡l ido
ĠF C
Ġaconte cimientos
ĠRe vista
p ue
Ġpol iciales
Ġrepar ar
Ġcir cular
Ġvalenci ano
Ġlleg ando
Ġrig uros
uer tos
Ġr ub
gon o
ĠÃ¡ ra
Ã¡ menes
Ġes que
ĠHis tÃ³r
Ġinforma ciones
Ġtrans mi
Ġtrans mitir
Ġbas ura
Ġsom bra
Ġconcl usiÃ³n
ĠC AL
Ġsos tiene
Ã³n icas
Ġbal oncesto
Ġse me
ĠNo che
ĠRes pecto
Ġn aciÃ³n
Ġaz Ãºcar
Ġdoc ente
ĠAmb os
ĠelÃ©ctr icos
Ġllam an
4 4
ĠAgu irre
ĠJorn adas
Ġprior idad
Ġsab ido
Ġac oso
Ġcons cientes
ĠLu gar
ĠLe on
Ġens ay
b or
Ġmedi ados
Ġpa ga
Ġcuar tos
Ġinten tando
Ġpud ieron
teri al
Ġfavor ito
Ãģ S
Ġluc es
p itales
gu Ã©s
s able
: :
Ġh em
ĠOb tenga
ĠFal ta
d rÃ¡n
ĠVil lan
Ġconm igo
Ġde gus
8 8
ĠPonte vedra
Ġsin ies
Ġfund aciÃ³n
Ġcam inos
ÃŃc ola
Ġv illa
ci Ãĥ
Ġta ble
Ġactu alizaciones
ro ga
ĠMar ina
Ġcer em
ĠSec ciÃ³n
Ġcre ada
Ġven ezol
Ġnotif icaciÃ³n
Ġinter no
v enta
Ġargu mento
ĠMÃ¡s ter
Ġd iga
Ġcelebr ada
l ara
Ġnoc tur
Ġin cen
Ġqu eso
i Ã¡n
ĠDon ald
Ġdefin ir
Ġcomun ic
Ġdistin ta
ĠXV III
Ġdes vel
Ġvas ca
Ġrecorr er
Ġ1 20
ĠBuen os
Ġcomen tado
Ġoc ta
ĠJuven tud
Ġex ceso
ed e
ĠespecÃŃf ico
ĠSo fÃŃa
ĠbÃ¡s icas
ĠK ar
Ġaf r
ĠPR ES
l ico
Ġver des
ĠM Ã¡r
ĠÃŃn dice
d Ã³n
ĠTur quÃŃa
Ġcome tido
Ġdi aria
Ġsecre tos
ĠR T
ab as
Ġgenera ciones
Ġsosten ibilidad
ĠÃ¡rbol es
Ġdescubier to
Ġper pe
Ġes tando
Ġco ger
Ġdenunci ar
ĠLav adoras
ub e
Ġweb s
Ġdetermin adas
Ġa gra
Ġvay an
ti zar
ec re
ĠV ideo
ĠCur sos
iz ka
Ã©s ped
ĠE duca
Ġp ur
Ġcol on
Ġc eb
ĠAg us
ÃŃs trate
Ġdeman das
Ġadministra tiva
Ġe co
Ġp unta
Ġje je
Ġcom icios
xim o
ĠB ay
Ġcerc ana
Ġcabal lo
te a
s tica
til l
Ġm emor
ad illa
Ġp uro
Ġcrea tividad
orm es
Ġr urales
d icas
Ġvas cos
] .
Ġ4 6
Ġpelig roso
ĠB ru
e jas
Ġcom itÃ©
iz as
ĠR A
Ġdul ce
Ġsu puestos
Ġtor re
Ġtra e
Ġadolesc entes
Ġrelev ante
Ġins istido
ĠAz nar
Ġcon lle
Ġtuv iera
Ġdich as
P D
icios a
Ġtes is
Ġcin ta
Ġagrad ecer
Ġpud ieran
Ġapar ato
ĠRib era
br al
Ġab riÃ³
Ġ4 7
Ġdes pre
ĠR icardo
" ;
Ġhi per
C N
Ġab usos
er an
ĠSe lec
ĠM AN
Ġdibu jos
Ġacus ados
Ġclub es
Ã¡ ver
lam iento
Ġdescu entos
Â ©
Ġind ican
ĠTor ra
Ġesta ciones
ĠGir ona
Ġba Ã±
Ġar bi
Ġcur ioso
Ġcre ciente
gr ad
in cu
Ġterr enos
Ġcom posi
ĠC ro
Ġpar ado
Ġcr uc
Ġcon ducir
Ġdic tadura
C R
Ġtram itaciÃ³n
z ano
icios o
Ġlo go
Ġefec tivos
ĠIN TER
Ġcre emos
tus ias
ar quÃŃa
blo que
Ġvolun tarios
Ġaprob Ã³
Ġv id
ĠD IS
ĠS por
Ġrespal do
Ġhogar es
Ġcon tund
ton e
Ġcol ombi
Ġencontr Ã³
ĠAustr alia
Ġvir tud
T AR
Ġcu Ã¡les
D AD
Ġbra zos
c ara
ĠCon curso
Ġcre ciendo
an t
Ġre ti
ĠEs tra
ĠEs tre
ha us
ĠTweet s
ĠCOM UN
Ġas pira
Ġvac ÃŃo
Ġc od
tr en
l um
ĠIs las
Ġveg e
Ġreg istros
Ġr i
Ġem is
Ġcor on
ĠT el
Ġconci enci
ĠD in
x a
Ġacep taciÃ³n
OR MA
Ġguard ar
ĠAl go
OL A
Ġrelig ion
is teria
ĠM ED
ĠCon trol
Ġexpl icaciones
Ġafec tado
Ġconj unta
Ġconsider aciÃ³n
u ca
Ġllev ando
Ġrela tiva
Ġtermin Ã³
ĠO F
Ġvicepres identa
ĠÃºn icos
Ġvuel ven
Ġincorpor a
Ġc Ã³
Ġandal uza
- .
Ġviv a
A d
es tro
ĠT ab
ĠM UN
fer m
ĠS ud
Ġcl Ã¡us
Ġf rac
ci ano
ĠL una
Ġes encia
ad ra
Ġinsu fici
ĠAl quil
Ġca ch
Ġemo cional
l Ã¡mico
ri tos
ÃŃr culo
Ġir Ã¡
ĠPer iÃ³
ĠsÃ© pti
ĠN ada
Ġfacil ita
Ġilustr ada
Ġcad Ã¡ver
Ġdeba tir
Ġapar camiento
ĠmÃ¡ quinas
Ġafec tan
Ġpre car
Ġorien taciÃ³n
ĠDem oc
Ġempi ez
Ġtur ÃŃsticos
U RO
Ġcomenz arÃ¡
Ġ ,
Ġba ilar
Ġgig ante
al las
Ġdestac ados
Ġb arro
ĠC ic
po pul
Ġev olu
Ġale j
uc os
Ġcu idar
Ġcri tica
Ġinter venciones
Ġev id
j on
Ġexpl ican
Ġfin aliz
Ġnucle ar
tiv idades
ĠPubl icidad
ab ra
ch i
Ġfu i
Ġmes as
ĠO ri
Ġejempl ares
Ġvisi tante
Ġdeclar Ã³
Ġesper amos
ĠCad ena
ed as
M i
Ġcr on
ig h
Ġselec cionar
ĠTom Ã¡s
Ġdepor tivos
V D
Ġemo ciones
Ġcompar tido
Ġpond rÃ¡
bus es
Ġabs or
Ġfund ador
a Ã±os
Ġalum inio
Ġincl usiÃ³n
Ġfabr icantes
Ġprestig io
Ã©l gica
Ġconcre tamente
S ab
Ġf us
ped ia
Ġredu ce
P ar
Ġlis tado
ion ista
Ġins ta
ues o
Ġden uncias
ĠP ra
Ġc aj
Ã³g icos
Ġrefer encias
Ġba ile
Ġprof unda
Ġs entar
Ġrenta bilidad
ĠW al
Ġdirig ir
Ġfemen ina
Ġcuadr os
ĠGu ti
Ġapo ya
Ġprotes tas
Ġcomprom isos
ADR ID
ĠlÃŃ qu
ĠSecre tarÃŃa
Ġexpans iÃ³n
ĠAcu erdo
E A
Ġen tiendo
ash ington
Ġsa ga
Ġho jas
ĠE bro
Ġdim ensiones
Ġpod amos
Ġam antes
ĠT udela
Ġunivers itarios
Ã³s itos
fr ad
ĠV ÃŃa
ĠG ro
Ġemprend edores
Ġescon d
Ġmur iÃ³
Ġl ong
al ismo
C D
ĠfÃ¡ brica
Ġdispon en
Ġexisten te
Ġex Ã¡menes
if orn
Ġj oy
ĠCas as
da je
Ġen tusias
Ġinclu ida
ĠCor ea
Ġreac cion
ti po
Ġexcel encia
en tre
ĠPen al
Ġes quina
Ġjur is
ĠT arragona
Ġextraordin ario
Ġpin ta
ĠC AN
ĠFr ente
Ġpro puesto
ĠVillan ueva
iz adas
ĠbÃ¡s ico
re os
Ġges to
Ġr icos
p am
Ġins tante
ĠJun queras
Ġed il
Ġc Ãº
ĠAu ton
Cu ando
Ġprof undo
ti gos
lan os
cl ip
to ck
Ġinfraestruc tura
Ġcritic ado
Ġcapacidad es
Ġa qu
Ġfavor ecer
Ġhis p
if u
ĠPrim ero
Ġnie ga
Ġrepar aciones
Ġfir mar
tr ices
ĠBer lÃŃn
m ado
Ġtrans misiÃ³n
tu re
Ġdispon ibilidad
Ġcu yas
Ġretir ar
Ġcr imen
Ġentre vistas
Ġdefini tivamente
ĠRec ur
Ġ200 2
m y
Ġcob rar
ĠBa ch
ĠYo u
Ġro b
Ġb arra
ĠespecÃŃf ica
ĠUn ida
v era
ĠAs untos
Ġizquier do
ĠO fer
M u
Y a
Ġbr ind
ĠL eo
Ġconform idad
ĠBel Ã©n
Ġinv ita
Ġjuven il
Ġcal deras
ĠMar c
Ġsel lo
Ġcor reg
ar as
Ġsa que
Ġac ero
Ġpapel es
Ġesper aba
ĠI R
P ero
Ġbomb eros
eta fe
s or
Ġdin am
av es
om ina
Ġch ino
Ġsan ciones
CI AL
ĠTer uel
ĠIng lÃ©s
Ġasoci ados
ĠMar keting
Ġcumpl ido
Ġrom Ã¡n
ĠmÃŃn imas
. @
Ġdis fra
Ġelabor ar
Ġrecuer dos
i tiva
Ġpon ga
Ġcomen tando
ĠH el
ĠA T
Ġepisod ios
g adores
Ġregu la
tr ico
I TA
iller mo
Ġinten so
I ÃĵN
ti bilidad
ĠE MP
Ġfabr icante
Ġprotagon ismo
Ġepisod io
Ġa ca
Ġd amos
Ġl ine
ri e
ĠL l
Ġplan ificaciÃ³n
ĠD ur
Ġin a
ĠprÃ©s tamo
ĠtelÃ©f onos
Ġconte mpl
ten se
cer do
Ġco her
ĠacadÃ©m ico
ed ora
ĠVer d
Ġmag ia
Ġefici ente
Ġmedic amentos
Ġinter rump
Ġh und
Ġmach ista
ĠAn im
ĠAr quitec
ĠMujer es
Ġproto colo
ĠFor al
Ġdetec tar
ĠFin anci
i tando
T ICA
b ana
T RO
Ġmam Ã¡
ĠMin istros
Ġtes tigo
comun icaciones
Ġutil idad
ĠclÃ¡s icos
ĠF A
ĠN UE
Ġ4 3
ĠRe v
ĠCon ferencia
C Ã¡
Ġtras cend
Ġnorm almente
ĠS osten
Ã ²
Ġvideoj uegos
Ġigu ales
tr ica
Ġa tac
ĠG R
ĠC alidad
Ġren uncia
ĠaÃ±ad iÃ³
Ġrecha za
Ġanti cip
Ġrad ical
Ġe je
Ġs ent
Ġpreci sa
Ġp ea
Ġcuidad os
Ġal za
Ġros tro
Ġab ur
ĠEdi ciones
las h
ue z
Ġconserv a
Ġinteg rantes
id Ã¡c
Ġper segu
ĠgrÃ¡ fico
5 5
ĠW ashington
ĠCa ixa
Ġven tanas
Ġsol itario
ĠPeriÃ³ dico
Ġver emos
ĠA ri
que tas
Ġr osa
Ġcor tes
w ork
men tal
u til
Ġcom edia
ĠHer rera
Ġinvol uc
Ġcer tamen
Ġhech a
cl ar
Ġdepor tistas
f os
Ġmili tantes
Ġconoc en
s te
Ġem bal
ĠA tres
mon s
Ġser ia
ĠSi tu
Ġad mite
Ġpoten ciar
ĠNicol Ã¡s
ol as
Ġestable cidos
Ġind icÃ³
Ġaten tados
6 6
Ġsir ven
Ġpec ul
ĠespecÃŃf icos
eder aciÃ³n
Ġauto ma
T B
Ġcan ta
s car
ĠHo teles
Ġzapa tos
Ġob tuvo
que ta
ĠBo letÃŃn
Ġgra cia
Ġentre vis
Ġtemp lo
ig an
ĠComun itat
pues tamente
ĠC ity
P I
or ge
Ã©s ar
ĠdemocrÃ¡ tico
Ġinvesti gar
trÃ³ leo
G E
on das
Ġdim isiÃ³n
abell Ã³n
Ġmulti pl
ug ÃŃa
Ġabs tenciÃ³n
Ġexcep cional
ÃŃ v
Ġital iana
ig e
Ġdeba tes
bi ar
ĠprÃ©s tamos
Ġins iste
Ġim pre
ĠH al
Ġeleg ante
Ġten Ã©is
Ġlar gas
Ġin to
P ER
Ġidentif icaciÃ³n
Ġcontin ente
ĠC and
Ġapre ci
Ġorgul lo
ĠH TML
cep to
ĠJer ez
Ġsign ificado
Ġve ÃŃa
Ġca fe
a S
Ġdi je
ĠJ ack
ci Ã©ndo
Ġb ecas
Ã©r ida
Ġgu ardia
ĠUR L
Ġlle vo
ĠEx teriores
Ġind ign
Ġmo tores
B R
ĠA Ã±o
ĠmÃºs icos
Ġembara zo
ĠM I
ÃŃ das
Ġmar i
is to
Ġz an
Ġagr icultura
Ġ8 00
Ġcoordin ador
Ġsal arios
Ġsu ave
ĠMo to
Ġbara tos
aliz amos
Ġan si
Ġre a
Ġun if
Ġinstal ado
Ãĳ O
pol itan
h ara
Ġdes in
ĠCl ÃŃn
ĠT re
Ġan cho
Ġpermi tan
Ġperju icio
graf ia
Ġcon gel
Ġus os
Ġtelef Ã³nica
Ġcu Ã¡ndo
ĠH i
Ġsub e
Ġley enda
ĠVOL UM
Ġnacional istas
ĠDol ores
Ġac ome
Ġasigna tura
Ġafec tadas
Ġtarif as
Ġpre visiÃ³n
Ġr uso
ĠEm ilio
Ġdepend encia
ĠFeder al
ĠMar co
ĠS ello
d or
ue ba
Ġagu an
Ġamar illo
Ġpresentar se
Ġcomparec encia
ĠCam bio
ĠPre gun
a ta
Ġton eladas
Ġincorpor ar
Ġvo tado
ĠP uerta
Ġestr Ã©s
Ġg or
Ġna z
ĠUn os
Ġhos pitales
ĠDescu bre
ĠTecn ologÃŃa
Ġcuel lo
Ġutiliz ados
ĠRodr igo
Ġentr Ã³
ĠG or
Ġ( ...)
ĠIngenier ÃŃa
Ġto ler
Ġenfo que
G P
Ġfi el
ĠtrÃ¡ mite
Ġriv ales
Ġmod ificaciones
ig en
Ġin gen
Ġmadrile Ã±a
an ista
Ġform ada
an ismo
Ġpued as
ĠHIS TORIA
Ġbon ita
ĠW a
Ġinv itado
Ġpob laciones
Ġdic es
Ġpier das
Ġfacil idad
ĠGu illermo
ĠSan d
Ġej Ã©rcito
Ġex itos
Ġne um
g es
ĠSecre tario
Ġe usk
y endo
o to
ĠU b
Ġinforma tivo
ad Ã¡
Ġperf iles
Ġsal ga
Ġpractic ar
Ġcor rup
Ġsegu imos
ĠA U
Ġman eras
Ġo x
Ġhor no
Ġh ilo
Ã± al
ĠHen ares
Ġdiver tido
Ġdespa cho
Ġ5 2
Ġcre ando
Ġabier tos
Ġdesapar iciÃ³n
Ġr adi
o te
l s
Ġestadounid enses
Ġac titudes
Ġincertid umbre
Ġi tiner
ĠbÃ¡s ica
D i
b ella
la ce
tur ado
Ġmenti ra
Ġm ier
ĠL lam
Ġdestin ados
ĠAr ro
Ġmuch ÃŃsimo
ĠEnerg ÃŃa
Ġb ares
Ġofre ciendo
ĠA so
RE C
Ġtecn olÃ³gica
Ġg ris
Ġcin emato
ĠB ara
ĠDeleg aciÃ³n
ĠPubl icaciones
Ġcul min
Ġconstru ido
8 7
Ġproced ente
Ġintegr ado
ĠS OL
ko a
ĠIb iza
Ġtamb in
Ġrenov ables
Ġab us
Ġapar atos
tan os
i um
Ġcre ce
ĠA v
Ġre cep
Ġser ÃŃan
Ġsalud able
ĠAtres media
C ON
n ing
ĠV in
ĠdifÃŃ ciles
Ġgener ado
Ġmarc ador
ĠUs ted
m ita
aj aja
Ġinform Ã¡tica
Ġorden adores
ĠCas i
Ġna cionalidad
Ġa terr
TI V
Ġlabora torio
Ġof icio
ĠAl to
Ġgrav edad
Ġinter v
Ġimpres ionante
ĠC Ã©sar
Ġextre me
i torios
% ).
Ġsuced ido
ĠMuer e
ÃŃs imas
Ġofre cido
Ġcele bran
ĠCen tros
Ã³ tica
Ġj unta
Ġapoy os
ĠespectÃ¡ culos
Ġ4 1
Ġvis itado
ĠBB VA
ĠseÃ±al ar
Ġti r
Ġpilo tos
Ġadver tido
Ġba Ã±os
Ġresul tar
Ġcomun ica
av ier
ĠT aller
Ġlis to
ĠB Ã©lgica
ĠL am
izka ia
ĠA quel
Ġsatis fa
ĠIntrodu ce
Ġsir v
G ra
ĠB A
Ġesc Ã¡ndal
Ġexclus ivo
Ġdi as
al ista
Ġconven iente
ĠUn i
Ġcolabor adores
ĠCom paÃ±
Ġapar eciÃ³
Ġsupon en
Ġsob r
Ġ8 5
Ġen g
ĠLuc as
ĠCual quier
ĠÃ³r denes
Ġinstruc ciones
Ġproyec ciÃ³n
ĠEs tella
Ġart ÃŃstica
ho p
ĠRub Ã©n
ĠRec ord
Ġul tr
ĠSe x
Ġpaque te
Ġconstitu ciÃ³n
Ġa ves
ĠLa tina
Ġl Ã³gica
Ġfal s
Ġlo ok
Ġchocola te
P re
Ġinv as
Ġdiscrimin aciÃ³n
Ġsenti miento
ĠInd epend
tr ina
ĠSegu ro
ĠDoc tor
Ġempez ado
ws let
k u
ĠJ ard
m adrid
k is
ĠZ a
cu al
in adas
Ġb asta
Ġdesapar ecido
ĠA con
era ciones
Ġinstitu to
Ġbom ba
Ġmas co
ĠC OL
ĠS ig
an Ã©s
Ġpreci so
ĠWill iam
Ġvalor ado
gu ay
Ġautor a
ĠCoo peraciÃ³n
Ġdos is
Ġen cend
Ġcay Ã³
Ġpes ca
ĠCrea tive
grÃ¡f icas
ie te
Ãģ N
ĠS igu
ĠV ar
ĠPro gram
Ġo br
ĠtrÃ¡ mites
b Ã³l
Ġab uso
du lo
tan d
ĠT end
Ġded icar
Ġantigu as
IS TA
Ġacces orios
Ġregres ar
ba te
Ġsosp ech
AS A
Ġdue Ã±o
Ġguar da
s ung
Ġex istir
ĠCh a
Ġfutur os
Ġdesarroll ando
tar iado
Ġnega tivo
Ġdem ues
Ġre bo
im entar
ĠPubl icado
Ġhec tÃ¡
ĠEl la
Ã¡ndo lo
P F
Ġcu ch
ĠRober t
ĠmÃŃn imos
Ġexpl icaciÃ³n
Ġdis puestos
Ġh ielo
Ġviv imos
ih ad
Ġaumen tado
Ġdenomin ado
Ġaprob ada
Ġdef ine
Ġfr enar
Ġv ib
Ġextraordin aria
Ġofrecer Ã¡
. :
ĠPropi edad
lo gos
o tas
ĠG ri
w ay
201 0
Ġedad es
Ġmate mÃ¡ticas
c Ã©u
ĠCar n
es p
Ġpromo ciones
ĠDis fru
Ġprofes ora
Ġilum inaciÃ³n
Â ®
Ġpa tio
Ġencontrar Ã¡s
cular es
4 2
Ġdis cul
Ġop tar
ĠI rÃ¡n
Ġpelo ta
Ġllev amos
an ti
Ġun ido
ĠA venida
Ġinvestig ador
Ġh ice
van cia
Ġin capa
Ġg imnas
Ġgan adores
Ġtu ve
ĠÃļ l
an i
ĠCons istorio
ĠEntre vista
Ġca ÃŃdo
Ġprevis iones
esti ona
Ġt Ã¡c
ĠR ena
ÃŃcu las
ĠB od
ĠP U
Se villa
er es
Ġac aban
Ġman tuvo
Ġemo ciÃ³n
ĠnÃºc leo
gu era
as a
ĠAc ces
ord en
3 00
j Ã³
p ald
ĠC ola
Ġens al
Ã¡ u
Ġaband ono
Ġsu puestamente
ĠEn ferm
Ġdin Ã¡mica
cu a
m Ã³n
id able
Ġsig o
blogs pot
Ġpo p
cil la
Ġcul tivo
ĠCo lec
Ġbol sas
ĠMan ten
Ġcum bre
ĠCin co
Ġobs tÃ¡
Ġmon tÃ³n
id ane
UE L
Ġinten tado
ĠW i
Ġacord ado
Ġsa cerdo
Ġvuel tas
Ġencuen tras
ĠL ec
Ġsal arial
Ġver gÃ¼enza
Ġcam in
Ġd ada
Ġcar tera
ĠP Ã¡g
Ġc Ã©
Ġfor t
enci ado
an ia
Ġnorm alidad
Ġpared es
ĠJun io
Ġpregun tado
N I
Ġreg ener
Ġcar ro
Ġapun tan
Ġmal as
Ġcompro b
Ġtranquil o
tu a
re mo
Ġrespe tar
Ġextin ciÃ³n
Ġtra g
Ġdi arios
ĠFamil ia
Ġcalef acciÃ³n
cu enta
Ġacus aciÃ³n
Ġcap itales
Ġsu poner
Ġayud an
Ġun ir
ĠU l
Ġman dar
ĠmÃ© dica
ĠAma zon
Ġsens aciones
Ġdirec tivos
F i
T AL
Ġdisfru ta
Ġarti ficial
ch er
ĠE dad
ĠG am
ĠCom pe
ĠB Ã¡r
o p
Ġfamos os
6 8
ĠA pl
ĠT S
Ġten gas
ÃŃs imos
Ġindepend ientes
ĠTele fÃ³nica
ie ga
Ġadop tar
pu la
Ġtras pas
co pa
Ġbus cas
g encia
Ġinten tÃ³
Ġe cos
Ġhuev os
ĠcÃ³mo do
ĠsÃŃmbol o
g ro
d f
ĠO p
Ġauto buses
Ġlong itud
L u
A c
and ia
Ġpe trÃ³leo
it z
Ġind icar
id ro
Ġpar ques
ĠGu ÃŃa
Ġrum bo
Ġcap itÃ¡n
ĠJorn ada
Ġapor taciones
Ġmo tos
ĠG rado
TA M
ĠPer Ãº
Ġprecis iÃ³n
ĠX II
se Ã±
ĠJud icial
Ġdes eos
ol encia
gu as
Ġenerg ÃŃas
P ue
ĠCa teg
rec ciÃ³n
Ġatra ves
ifu entes
c Ã¡n
cion ista
Ġandal uces
ĠN adie
Ġsu ena
Ġemple os
ĠEn tidad
Ġreun ido
Ġpas arÃ¡
ĠAn un
AN O
ĠÃ©x itos
i ante
el aciÃ³n
Ġv ÃŃn
Ġcomod idad
ĠN ob
Ġfach ada
ĠPal encia
Ġconduc tores
Ġs ar
titu ciÃ³n
ĠCam pos
os ex
N E
ĠpÃ¡r rafo
Ġleg alidad
m us
b en
Ġimpl icados
Ġrecon oc
Ġcon tando
Ġmanten iendo
ĠCa tedral
Ġconven cido
onos tia
h esiÃ³n
Ġc able
ĠEstatu to
ĠA ten
Ġinform amos
ĠCON S
Ġanim aciÃ³n
Ġreg ionales
EN ER
Ġbru tal
Ġexpres ado
ĠinstantÃ¡n eamente
Ġmul ta
! ,
ter ales
ĠM O
ĠS IN
Ġgrab aciÃ³n
ĠCom mons
Ġcompar te
Ã¡ zar
Ġprofesor ado
Ġhom osex
Ġclar as
Ġadi cionales
Ġllu vias
Ġp echo
Ġderiv ados
rÃ¡ fico
Ġenem igo
Ġas amblea
Ġcon cil
Ġmon te
Ġfas es
ĠAÃ± ade
Ġprevis tos
Ã³ tico
ĠF uen
Ġdes tina
Ġfundamental mente
tÃ¡n do
id i
on y
Ġart ÃŃstico
Ġtes t
ĠPod er
Ġgo le
ĠS tre
ĠQu iero
f or
tos a
land ia
se t
Ġeta pas
Ġobliga torios
ER S
ici s
Ġreco pil
Ġcontrol es
", "
Ġcad enas
ed ras
s abilidad
B O
Ġsuje to
k el
Ġo este
Ġasturi ano
T RE
Ġadap tar
iv ia
Ġexcl usiÃ³n
ĠLea gue
Ġdepend iendo
Ġli tros
Ġmete or
Ã³m icas
Ġtom ando
on ado
Ġre pu
Ġa gencias
Ġesti los
7 7
Ġpas aron
ĠDes car
t za
Ġfalle ciÃ³
C ES
Ġcom edor
Ġrecord Ã³
cis tas
Ġcas tillo
Ġe ter
lan da
ly wood
ĠPD F
Ġfu tura
ĠMar i
Ġesc enas
ĠMon tero
Ġajus te
Ġub icada
Ġcompar a
Ġcon ducciÃ³n
ĠautÃ©n tica
Ġviv ÃŃa
Ġsustitu ir
Ġsim pa
Ġhier ro
Ġconoc ÃŃa
Ġahorr ar
Ġ4 9
Ġ11 2
ĠVOLUM ENES
Ġbien venida
ĠM end
ti za
Ġas cens
ĠS ha
Ġpul s
Ġmedi ter
Ġsan ciÃ³n
ĠmÃºs ico
Ġter ap
Ġadministra tivo
Ġhub ieran
es ter
Ġmed ias
Ġagr icul
Ġextra Ã±o
ĠR em
ĠEncuen tra
Ġtecn olÃ³gico
ĠCom pos
ĠfÃŃs icas
ez can
Ġparticipar on
Ġbos que
ĠA ires
ĠP LA
gar on
Ġentr ado
Ġdom Ã©s
ĠPA ÃįS
Ġcomba te
ÃŃs ica
Ġpermi tiÃ³
Ġd anza
" )
ĠAlcal d
tor ÃŃa
ĠJ uego
IL L
w ard
Ġc usto
ha cer
cas t
Ã©r rez
Ġindivid uo
Ġalred edores
Ġdesarroll adores
Ġrup tura
Ġpas ta
ĠmÃ¡s ter
se a
ĠF iesta
od e
Ġter a
Ġintrodu ce
ĠC ifuentes
Ġar ries
fre do
ĠF iestas
ĠG etafe
Ġimp ide
ĠDeb e
Ġsolici ta
ĠAlquil er
ĠOr iente
ĠAs ia
ell er
tavo ces
Ġv era
Ġpe ores
ĠCon ten
ĠclÃ¡s ica
ĠP O
Ġfras es
ul t
Ġdibu jo
oo oo
h h
Ġ9 5
Ġpar ad
Ġdil ig
Ġcen tra
ĠMich el
ĠOn line
Ġf ar
Ã¡nd onos
ĠG Ã¼
Ġejempl ar
ĠMas ter
qu eros
Ġtrans ferencia
Ġen ve
ĠIndustr ial
uev as
af as
ĠR ol
Ġproduc tores
Ġman io
ill ones
Ġh Ã©ro
ĠOl ÃŃmp
es es
i quen
men os
ĠespecÃŃf icas
en tamiento
Ġmor tal
Ġdes cripciÃ³n
Ġsuper mer
Ġinm ueble
Ġsu ya
Ġenerg Ã©tico
Ġbo letÃŃn
Ġconduc ta
ib lan
ĠseÃ± ora
obili ario
ĠSer rano
man n
ab o
Ġprev istas
Ġacus aciones
ĠM ADRID
ĠAB C
Ġar mon
Ġb er
ĠC oci
ĠXV II
Ġestu vieron
Ġre mar
ĠPr ado
ad era
Ġtal la
Ġpres erv
Ġparlamentar ios
Ġserv ido
ĠPad re
Ġcre Ã³
Ġpon emos
Ġdes bloque
ĠM emoria
Ġus ado
Ġher ido
Ġperson almente
ĠAlcald e
tif icado
Ġes tal
cri ta
Ġgig antes
ĠPo co
ĠImp ues
ĠÃ©s tas
ĠN Ãº
y l
Ġrepar acion
ĠÃĵ scar
ĠConce jal
Ġblan cos
ĠcÃ¡n ta
Ġdiscu siÃ³n
ĠIgu almente
... "
Ġrecha zado
Ġpes cado
Ġfil ial
ĠRecur sos
Ġfinanci ar
g io
Ġconven cer
ĠRe t
Ġfra cas
ĠT ÃŃtulo
Ġcompeti tividad
Ġdismin u
Ġindivid uos
ĠMar ÃŃn
Ġrele vancia
ĠH on
ĠViv ienda
Ġfuncion ar
Ġpar ados
Ġrecib irÃ¡
Ġbaj ada
? "
Ġsal idas
Ġfi jo
ĠO bras
r om
ta bles
Es tamos
Ġind efin
ĠB i
ĠU U
Ġdesay uno
Ġfu ga
Ġnav arra
Ġqued aron
Ġfin ca
Ġanunci ar
Ġacog erÃ¡
ĠGuti Ã©rrez
J a
pan y
ĠMÃ¡r quez
Ġconcur sos
Ġdiscipl ina
Ġestad ÃŃsticas
ĠCompr om
Ġdeleg aciÃ³n
in cesa
ien se
Ġmaqu inaria
Ġcomprome te
Ġpro xim
Ġimagin aciÃ³n
ĠhectÃ¡ reas
ĠG oya
Ġe mitir
ĠpÃºbl icamente
ĠV ida
en tas
illera to
Ġca ted
ĠG RAN
ĠCal vo
EN TA
Ġhab Ã©is
tÃ©r pre
tr aciÃ³n
ol la
he im
uy en
Ġfun da
T u
Ġfich ero
ĠM AS
4 00
Ġti rar
Ġreg la
il le
ĠLle ida
ed os
s ol
es pe
Ġindependentis mo
ĠT em
ĠIs lÃ¡mico
ge ci
Ġp ir
Ġh ÃŃ
Ġm ales
ec emos
Ġdev oluciÃ³n
ĠclÃŃn ica
ĠA G
Ġexcep to
Ġal berg
ĠA prend
Ġfavor able
Ġconv iene
Ġse min
Ġprim aria
ĠCan adÃ¡
Ġpecul iar
Ġd idÃ¡c
Ġconclu ido
Ġgus tos
ĠSam sung
Ġrecur rir
Ġacces ibilidad
in cl
cion an
vi ar
Ġpar Ã¡
Ġsus tan
ed io
Ġretras o
ĠDirec tiva
ĠV era
jer as
ĠEstu di
Ġescri tos
Ġsu ceso
Ġoc cidental
ĠB ri
Ġj er
ĠAs es
Ġdise Ã±os
Ġmig ra
ĠI ES
Ġfrecu entes
Ġnuev amente
ĠT VE
AN TE
Ġmu ro
Ġin cons
Ġpreten den
val u
Ġex tender
Ġfranqu ismo
Ġel e
Ġqued arÃ¡
per son
ĠR ich
Ġrecomend able
Ġres pald
Ġr id
aa aa
ĠFuer zas
Ġbor do
O r
ĠAnd re
Ġarro z
Ġtra er
Ġas imismo
201 6
bo x
Ġsome ter
Ġre duc
Ġpud e
ĠM ira
j anos
i ja
Ġmecan ismo
as es
Ġr ica
Ġapos tar
Ġdeci mos
Ġempiez an
Ġba u
l icos
Ġoscu ro
Ġtes tigos
Ġm ueve
Ġre pos
Ġbara to
Ġinten sa
crib irse
ĠA gua
b ara
ĠL orca
Ġcumple aÃ±os
Ġsentir se
Ġmin im
Ġger ente
cu ador
Ġin tu
Ġh ig
Ġdirec tores
Ġcal ificaciÃ³n
ĠEstud io
Ġinclu idas
Ġape te
ĠIn icia
gr as
Ġexcl u
Ġmon tar
Ġl una
Ġv ea
vis tar
ita ble
em ora
Ġag ro
Ġdirec ciones
Ġreclam ar
ĠP ens
CI OS
Ġsemifin ales
Ġaudiovis ual
Ġban quillo
Ġsus cripciÃ³n
D D
Ġsu yos
Ġg a
Ġjard ines
s erv
ĠFran k
Ġproced er
4 3
Ġmedioamb iental
Ġconoci das
Ġcerem onia
Ġescri tura
Ġalmacen amiento
Ġpre dic
Ġemple ado
ĠEsper anza
' :
ĠSu iza
Ġsa ca
Ġprecios o
Ġlim itar
Ġpol vo
iforn ia
ĠD VD
Ġabs ur
Ġes pl
Ġnacional ismo
Ġbusc ador
ci anos
ĠSER VI
ĠUsu arios
Ġmod os
Ġcal ific
Ġcompeten te
Ġguitar ra
ĠSus crÃŃbete
Ġdej aron
ĠVie jo
Ġa ulas
Ġesco g
Ġdef ici
Ġconm emor
Ġtrata ba
Ġy ihad
ĠacompaÃ± ada
Ġcar teles
te car
ĠMo tor
Ġnov ed
Ġalcal des
ĠVo z
Ġrecu pera
Ġexcu sa
Ġtrans fer
ĠW h
pe a
Ġvic torias
M on
Ġafec tar
se x
Ġplan e
iv idad
Ġus an
Ġobten idos
ĠMa Ã±ana
6 7
Ġim pone
Ġoptim izar
ma te
Ġhue co
Ġmus eos
Ġsal sa
Ġsorprend ente
di pu
Ġdesactiv ados
ĠSec und
ue ga
Ġtor o
Ġaven turas
200 7
Ġdes trucciÃ³n
Ġh ola
Ġtom Ã³
m od
Ġd ientes
Ġhis tori
tÃ¡n dose
Ġcuar enta
a go
Ġgu apa
ti ciÃ³n
t Ã©s
Ġdifund ir
ĠG uer
ĠL U
oci miento
Ġimpl icaciÃ³n
Ġobserv a
ĠMor ales
Ġde pos
Ġpien san
ĠPre cis
ard e
ĠmÃ¡ r
le to
ili tado
Ġllev aron
Ġor al
C re
Ġen tero
Ġsub venciÃ³n
Ġavan zada
ĠT U
Ġconec tar
un os
ĠV el
ĠBre xit
Ġvie ja
p ur
um er
j ados
d rÃŃa
Cu Ã¡l
ĠSegu ra
anim idad
ĠAb og
Ġver lo
Ġc e
C S
ĠSE G
Ġl ingÃ¼
Ġhabl Ã³
tos o
Ġconcej ala
cion adas
Ġtermin al
Ġca pi
Ġllam Ã³
Ġsus tancias
ĠG in
Ġdesaf ÃŃo
Ġcan tar
Ġinm uebles
Ġver tic
Ġutiliz ada
Ġf usiÃ³n
Ġpol Ã©m
Ġviv iÃ³
Ġcandida turas
id ia
ĠA ce
ĠJ ean
b on
Ġfom ento
ped al
dr ome
Ġportu guÃ©s
Ġcu otas
Ġcerv eza
enti no
ĠConf ederaciÃ³n
ĠR EC
s t
ili p
ĠS ac
Ġtren es
il er
Ġreconoci Ã³
Ġter cio
ches ter
Ġmin istros
Ġf ama
Ġt Ãºn
ter ias
ĠO pera
Ġdistr ito
Ġf icha
Ġsecund aria
Ġcontemp lar
Ġdep Ã³sito
Ġd ram
l iga
Ġs illa
ran a
ĠB izkaia
grÃ¡f icos
Ġbra zo
g ol
il do
ced e
Ġal ianza
V EN
Ġpeti ciones
ĠCom ien
Ġper si
r ados
Ġre loj
TR OS
ex o
p ada
âĢ ¢
Ġpos teriores
Ġcomenz aron
Ġfrances es
ĠVal verde
Ġnombr amiento
ĠEr re
AN DO
19 99
Ġcircuns tancia
?? ??
AD OR
b iles
Ġperd Ã³n
ĠRE G
Ġunivers itaria
ĠR stica
ĠF ol
8 9
v echa
ĠMa te
Ġad s
ĠC F
Ġsu ministr
Ġcarb ono
Ġte mÃ¡tica
Ġcab all
Ġter remo
Ġcuan tas
Ġal tamente
iÃ©n do
Ġbloque o
ĠB io
G RA
ba ck
Ġconstituy en
ĠSi tio
Ġinmig raciÃ³n
me jor
h ÃŃ
Es ta
Ġau la
ĠCa Ã±
ĠVal Ã¨ncia
ĠTrib u
Ġgol pes
Ġfa cultad
Ġpr iva
ĠSe lecciÃ³n
Ġproced e
Ġle gado
tra c
A y
Ġencan to
Ġestable cen
ĠLe vante
ĠEx isten
ĠM ik
Ġcoin ciden
Ġadjud icaciÃ³n
Ġex haus
u u
ĠPh one
Ġsec ciones
Ġm m
Ã ¶
ĠRE AL
rÃ¡ c
ĠPas eo
Ġpodr ÃŃamos
Ġrecog ido
ĠRe f
Ġconv ierten
ĠJ on
Ġmedio dÃŃa
ED AD
ĠÃ³ pti
Ġins is
Ġco pa
ÃŃ e
Ġex ci
ĠEncu entro
Ġf este
Ġmis terio
4 1
Ġacostum br
ci pa
Ġrefer ido
t ÃŃan
Ġ7 00
Ġdirec tos
Ã³ dulo
ĠS Ã©
ĠK en
Ġmovil izaciÃ³n
Ġcon tro
Ġdob les
ĠGonz alo
Ġpala cio
Ġ( +
Ġsien ten
Ġexpres ar
ĠRoc k
Ġver la
ĠPas tor
Ġdesemp le
ĠHab lamos
ĠG reg
Ġp ales
ĠRe laciones
tu vieron
Ġferro vi
tr ada
ĠEl che
ĠJ U
m Ã³s
gu er
E F
ĠF ra
Ġbiblio tecas
Ġex tend
Ġtraslad ar
ĠF an
Ġtri ple
tiv ar
Ġejecu tar
Ġdere chas
Ġconf und
Ġregistr arte
Ġencan tado
g icos
ra ya
Ġcompues ta
Ġgras a
ĠG ib
Ġenem igos
c Ã©n
Ġcu entos
Ġimagin ar
ĠCompos tela
Ġcomprome tido
Ġul tra
ĠIr landa
Ġameric ano
Ġex cur
ĠMon t
Ġsens ibil
Ġrevis ar
Ġlim itado
ĠAbr il
Ġtr ucos
Ġcompar ten
Ġcombus tible
te z
Ġten gamos
L ES
Ġdestin adas
Ġver Ã¡
Ġnombr ado
Val encia
Ġperten ecen
B a
Ġindis pens
ca v
Ġmon eda
er io
ĠJul iÃ¡n
Ġdescu bre
Ġequival ente
ĠReci bir
Ġch u
Ġes enciales
Ġinf in
Ġmens ual
Ġdescar ta
Ġin esper
Ġpin tor
Ġtitular idad
ĠCh ica
Ġprop ici
tura ciÃ³n
Ġdipl om
geci ras
Ġtr u
des d
Ġtra tando
Ġ199 9
Ġen cier
ib e
Ġcor tar
ĠVO X
Ġgener almente
f eo
ER N
Ġesca par
g od
Ġsold ados
Ġhabi tualmente
Ġgol f
Ġdirec tiva
z u
ĠEspa cio
Ġjuz gados
segur idad
r ad
Ġta x
Ġurb ana
Ġpro bado
Ġmier da
Ġac o
ĠI vÃ¡n
Ġide ologÃŃa
Ġin Ã©di
Ġsu puesta
Ġemo cion
Ġmon itor
Ġolv idado
Ġdirig idas
ĠElec toral
a ger
ĠCarm ena
Ġfru tos
Ã¡ v
Ġexig encias
Ġgan adora
Ġescu do
ĠE SO
Ġproduc tor
j idad
p ez
Ġhac ÃŃan
der ÃŃa
d era
Ġg afas
Ġ6 4
ĠO urense
Ġvi tam
Ġvoc aciÃ³n
ĠMon tes
ĠPerson as
ĠG us
ĠAl fredo
k ar
Ġbeb idas
ĠR og
Ġsal drÃ¡
ĠAcon dicionado
Re al
Ġgalard Ã³n
Ġlengu as
Ġofici almente
Ġpo quito
gu lo
Ġperman encia
Ġfas cin
ir ig
ĠF is
Ġcomerci alizaciÃ³n
Ġper cepciÃ³n
Ġpid iendo
Ġem ig
Ġs Ãº
ĠArch ivo
Ġpatron al
u an
Ġsim pl
ĠPrim er
Ġhi jas
Ġtarif a
Ġdeber es
ĠAs istencia
Ġtitu lado
Ġexpul siÃ³n
ĠTi empo
ĠEx pl
Ġsatisf echo
il iar
aliz an
Ġmin isterio
Ġhi pÃ³
Ġpres ta
ĠF orma
Ġca z
Ġdesarrol lan
Ġbord e
ĠF UN
g nos
Ġdi e
ĠQuiz Ã¡s
Ġequip amiento
desd e
Ġrelig iosa
l Ã³n
Ġrecib iendo
Ġran king
Ġvari able
Ã±a ki
Ã¡n eo
Ġl Ã³gico
cion alizaciÃ³n
ĠAl cor
d eb
ig or
Ġb y
Ġs end
ĠDec lar
ĠIra k
Ġprev ios
Ġse pa
Ġtra tan
Ġval enciana
Ġdetermin aciÃ³n
ĠH ombre
ĠHol lywood
Ġleg i
Ġllam ados
Ġacces ible
Ġjustif icar
ul ares
Ġdorm itorios
t le
Ġgas olina
ĠFron tera
Ġav iones
IN G
ĠG em
Ġqu ir
Ġrespec tivos
Ġcab ec
Ġnav arro
to m
ÃŃ genes
Ġlig eramente
Ġten is
Ġcon taba
Ġpor ta
Ġcorrespon den
ced entes
ĠÃº tiles
Ġmala gue
Ġfo co
Ġs h
ĠCar ta
Ġag reg
Ġi ra
gip to
AR IA
b ados
Ġcre adores
os idad
8 6
Ġis rael
Â ±
Ġc esiÃ³n
... ,
ĠI S
ĠPs ic
Ġileg ales
ĠSeÃ± ora
ib re
Ġprepar ados
Ġin yec
Ġh umo
Ġsur ge
Ġim pr
ĠV ila
as tas
Ġvis ible
Ġapartam entos
Ġclar idad
Ġrecuer dan
Ã³ x
Ġcre ador
Ġcos tas
cl ado
ĠCom pl
Ġrepar tir
Ġfal l
ĠSan tam
Ġtrad ucciÃ³n
se lo
Ġdim ensiÃ³n
Ġcompa tible
Ġp Ã¡
ĠCal der
Ġpis cinas
Ġpu ra
ĠGrand e
ĠVer dad
Ġfil as
Ġo ÃŃdo
Ġinici almente
Ġsig nos
te x
Ġvues tros
Ġconcre tas
ĠIN S
fin anci
Ġin ev
ĠBe tis
ud ÃŃ
Ġven gan
Ġposible mente
c amos
Ġde dos
Ġ tos
Ġque do
ĠEx cel
ĠLu z
ĠIma gen
uy endo
Ġne wslet
ĠB las
ĠPa ula
Ġrela tos
C am
Ġpud iendo
Ġra za
Ġd ona
Ġsepar aciÃ³n
an al
c Ãº
r illa
ĠBea triz
Ġmig rantes
Ġder iva
Ġl omo
Ġenfrentar se
Ġconcre ta
Ġverd uras
Ġat mÃ³s
ĠR Ã©gimen
Ġevalu ar
ĠN ar
Ġconsecu tivo
Ġanti gÃ¼
ĠA VE
Ġdes tro
Ġol ÃŃmp
Ġfemin ista
Ġpi edras
Ġla tino
ĠEmp rend
ĠseÃ± ales
h oy
Ġasum e
ta tiva
Ġalcan zÃ³
Ġunivers itario
Ġsue los
Ġflamen co
ĠMad uro
Ġcontinu o
ĠE u
ĠCuer po
Ġdispu ta
T or
Ġconcur s
Ġac tÃºa
Ġson d
Ġinf lu
IN E
Ġcam ar
Ġsu ple
Ġfalle cimiento
Ġtestimon io
Ġb esos
Ġda Ã±
Ġarquitec to
M AS
Ġen cla
Ġab o
ĠT orr
Ġcerr ada
ĠL ara
por que
Ġ5 7
Ġconf ÃŃa
Ġc emen
Ġtro pas
Ġtradi ciones
Ġconcur r
le os
Ġcrimin al
Ġfeder al
ĠperiÃ³ dicos
Ġque m
ĠCal deras
qu ita
ĠI MP
Ġun animidad
Ġfr ustr
Ġinter med
ĠM ana
Ġol iva
ĠI Ã±aki
Ġrec tificaciÃ³n
ĠseÃ±al an
Ġcre cido
Ġfron tal
Ġa gar
Ġentre gado
Ġh arÃŃa
ec ÃŃan
cip aciÃ³n
Ġcob r
ĠGar zÃ³n
ĠQuer emos
oc os
ĠCompaÃ± ÃŃa
Ġfich aje
Ġvisu alizaciÃ³n
ĠC I
ĠCos pedal
T ube
ues os
Ġcre ma
Ã© ticas
ĠB M
Ġsub ven
Ġcuan tÃŃa
Ġpropa ganda
gr ada
ber t
Ġ" Â¡
if a
Ãº d
tr uye
Ġdec ora
Ġcomer cios
Ġos cur
ARC EL
Ġfres co
Ġocur rir
Ġta baco
Ġaprend iendo
Ġacced e
Ġin c
Ġconlle va
Ġ5 6
Ġc Ã©n
ĠES TA
Ġpais ajes
Ġpens iÃ³n
Ġadv ir
Ġmu Ã±
Ġman ga
ĠPro yec
Ġfru tas
ĠenseÃ± ar
iz os
ines s
Ġado pciÃ³n
Ġdestin ada
Ġend e
Ġdel incu
C AL
b ien
Ġs tock
Ġcas ti
cin g
Ġ ida
Ġesta mp
ud encia
Ġauto mÃ¡ticamente
Ġregres a
ĠPubl icar
H oy
Ġenfer mos
Ġob tiene
Ġbrasile Ã±o
ĠPr ensa
Ġresul tÃ³
f iel
Ġencontr arse
ĠGu in
B o
Ġs martph
Ġaconse j
ob o
Ġ tac
ĠPue blo
Ġobten ciÃ³n
Ġdesf ile
ĠPrecis amente
Ġgu iÃ³n
ĠS el
Ġgra bado
Ġr aro
Ġes ter
Ġin cur
ĠImpues to
Ġre car
l ig
- )
in ho
Ġev acu
ĠPres entaciÃ³n
Ġre torno
Ġescri tores
Ġad mir
ch en
Ġcu lo
ĠA po
Ġrecon s
Ġfel ices
Ġsufici entemente
Ġdisfru te
uev o
Ġalcan z
ĠR ema
Ġesper ado
Ġprovoc Ã³
Ġandal u
ĠRub io
Ġmed ir
Ġcon fec
Ġcentr ado
F ran
Ġfrecu ente
ÃŃs o
Ġdesgra cia
Ġg iro
Ġcor e
Ġre en
Ġcin cuenta
Ġcar o
Ġmar ro
Ġregistr ada
Ġrepres iÃ³n
u tense
Ġprecios a
ol i
Ġv ieron
Ġcompon ente
Ġ5 4
re ll
ra ba
e termin
ĠP OL
Ãºm ero
Ġre pl
ic Ã³p
Ġsuper vis
Ġne uro
6 00
ĠcrÃŃ ticos
Ġhal laz
Ġlibertad es
ic ando
Ġ5 1
id ra
ie ta
Ġju gado
Ġafili ados
ĠA bas
vil Ã©s
er aciÃ³n
Ġad quier
L iga
Ġmex icano
Ġex al
Ġtar des
Ġagres iones
V er
Ġpele a
ĠAc tividades
Ġcompr ensiÃ³n
Ġdescubr imiento
Ġde do
6 9
Ġrap idez
ĠMan olo
Ġp enas
tu l
ĠR O
ti pos
Ġprohib ido
p us
ĠEs cribe
Ġbeb Ã©s
Ġaprovech ando
ĠG aran
Ġcostum bres
Ġpr endas
Ġinforma tiva
ĠUnivers idades
Ġmane jo
IS MO
Ġgal erÃŃa
ĠB omb
col as
cion ario
in an
Ġmo ch
Ġgar aje
Ġproduc tividad
Ġch is
ĠEm ergencias
Ġencar gada
Ġnorm ales
dol fo
Ġten ia
Ġfutbol istas
ĠDu ero
Ġcerr Ã³
ĠCom is
Ġsustitu ciÃ³n
ar los
ĠNe go
Ġarran ca
ĠIn forma
Ġprohib iciÃ³n
Ġplante ado
ĠD icho
ĠÂ¡ Â¡
e uro
Ġpatr imon
z ana
Ġcancel aciÃ³n
Ġpon go
ĠAgus tÃŃn
Ġfal so
ĠGre en
Ġabr irÃ¡
Ġb n
Ġdro ga
Ġluc ro
Ġmatr icul
ĠVerd e
r ios
y mes
bo a
Ġposi cionamiento
Ġtrad uc
Ġder rib
ĠSue cia
ĠAutÃ³n omas
Ġsub asta
Ġir se
Ġdes eas
an der
to les
Ġencan tan
ci tos
Ġsorprend e
. '
Ġcu ra
Ġpi ra
Ġal turas
Ġeduca tivas
Ġsub raya
Ġto man
C or
201 2
Ġdeb ut
ĠGlo bal
Ġpuer tos
ca u
Ġin al
f ac
Ġnerv ios
Ġes pon
Ġpa gan
IN O
Ġmonta Ã±as
ĠCaball ero
Ġor g
Ã³g icas
ud io
Ġdeb u
ĠB aja
Ġr usa
ĠGuar di
ĠBien estar
ĠT orn
Ġnov elas
ĠCOM O
all ado
ĠJav aS
Ġsub ido
ila teral
min as
Ġad en
Ġexplos iÃ³n
Ġvis ibilidad
Ġatre v
or gan
ĠÃ¡r bi
h asta
Ġintrod ucciÃ³n
ten er
Ġpus ieron
ĠJavaS cript
Ġsac ado
ĠTele visiÃ³n
c ero
Ġcristi anos
Ġaspir antes
ĠMed ina
Ġarran car
Ġconvir ti
Ġdem Ã³cra
Ġcabal los
y an
Ġcostum bre
Ġrec re
Ġsuperviv encia
Ġpens aba
eci eron
IC OS
Ġotor ga
f ord
Ġven ga
Ġo la
TE L
ĠFin al
Ġlic encias
Ġespec tador
Ġfarma cÃ©u
P L
ĠMon ta
ARCEL ONA
f ono
Ġne gros
ĠB lo
Ġpag ina
ĠAt lÃ¡n
Ġcurios idad
Ġins tancia
eg aciÃ³n
Ġdu pl
Ġro to
Ġsus cribir
ad y
Ġten ÃŃamos
ur ia
ĠC ru
ic to
Ġperd iendo
Ġparticip Ã³
ĠNÃº Ã±ez
Ġhab iendo
Ġcotidi ana
ĠS co
Ġrenunci ar
ĠA van
Ġf la
Ġa o
Ġvend ido
po ol
tas e
g ador
Ġlim ita
ĠS um
Ãĳ OS
Ġco le
Ġatra er
Ġpromo cionar
ĠQuiz Ã¡
ĠCola u
ĠES T
Ġdi jeron
Ġs eno
Ġch ef
in eo
Ġfru ta
Ġas istido
Ġfr ÃŃa
b el
ĠClar o
ci encia
Ġma pas
Ġadministr ador
Ġmarc Ã³
ĠGe orge
Ġcam iÃ³n
cu las
Ġbancar ia
ĠCamp us
Ġsa tÃ©
g inas
ill ado
pe ta
ĠMar k
Ġbols illo
Ġdes pues
Pod emos
Ġreporta je
Ġpal o
Ġplante ar
Ġm ÃŃo
ĠEspa a
C C
Ġcap ÃŃtulos
di e
Ġcom idas
Ġcompa tibilidad
ĠNa cho
tion s
E uro
N G
Ġo y
Ġcompon en
Ġven ÃŃa
Ġhid ra
Ġfu turas
y D
Ġaclar ar
ĠP UE
ĠPos teriormente
Ġpresen tamos
Ġex quis
ch an
Ġjue gan
Ġab er
Ġpatr Ã³n
tor o
Ġg ay
d ig
Ġestudi ando
Ġ6 8
Ġpla y
Ġfil m
Ġsenti dos
vo z
Ġau ten
Ġingenier ÃŃa
Ġir Ã¡n
x x
c ena
ĠcuÃ¡n to
Ġsup uso
ĠR eb
Ġcolum na
Ġfor os
Ġsex ta
e us
Ġinm ers
Ġpro poner
E O
Ġ7 2
Ġapas ion
Ġmol esti
qu in
Ġma il
Ġdes esper
ĠNeg ro
AR IOS
Ġdi arias
ĠA la
Ġcaracter iza
Ġsex to
tr ados
Ġconex iones
ĠLa tino
Ġn or
ĠInform e
ĠSantam arÃŃa
ĠDis ney
Ġre puestos
ta tivo
m ol
Ġfac turas
u ar
ĠObs ervatorio
Ġgu a
Ġlle ve
ER C
Ġmaes tros
Ġincumpl imiento
Ġinter nos
ĠEx tra
Ġch ina
ĠOb je
g il
ĠCal ifornia
Ġsufr imiento
til idad
Ã¡m icas
ĠRon aldo
Ġmed alla
Ġbron ce
Ġin tÃ©rpre
Ġaven ida
Ġmir ando
Ġinterpre tar
ĠMer can
ĠFl ores
Ġs pam
Ġtra te
Ġsatisf ac
Ġpoten ci
ten s
ĠatmÃ³s fera
Ġd oy
Ġelev ada
Ġfi jar
Ġsatisfa cer
Ġsig las
Ġdeterior o
Ġseman al
ĠT ienes
ĠN ombre
Ġcre an
Ġhel icÃ³p
e al
Ġguer ras
ĠL GT
A hora
Ġ5 3
ĠTÃ©cn ica
Ġimp id
5 9
Ġlan zÃ³
Ġreno var
ĠNo ta
ĠG om
ĠSO BRE
Ġreg lamento
Ġilus traciones
Ġacog er
ĠE gipto
Ġcomen tÃ³
Ġgra ba
ĠArt ÃŃculo
Ġf ri
ern am
EM OS
ch u
Ġdenomin ada
Ġgener an
Ġneces ariamente
Ġconven ios
Ġavan za
Ġauto mÃ¡tica
ĠelÃ©ctr icas
ĠLeg anÃ©s
qu Ã©s
Ġch al
Ġcom ar
Ġc eder
gr imas
ĠCa pital
Ġcono zco
jal Ã¡
Ġrey es
om en
ur cia
ĠIr ene
Ġcomple jos
Ġto cado
Ġrela tivo
Ġviol aciÃ³n
Ġdetermin ada
Ġtecn olÃ³gicos
ĠSecund aria
Ġar co
Ġdia gnos
Ġinmobili ario
Ġpresid entes
ĠestratÃ© gico
ĠM ON
ĠCond e
Ġlar gos
pol i
Ġpar t
lave ga
Ġg ato
Ġllam amiento
Ġdesp leg
Ġcomien zan
j ana
Ġpas adas
Ġag red
Ġsem estre
Ġagricul tores
Ġcomple mentos
Ġdir ÃŃa
Ġ9 9
Ġintegr ada
! .
f an
Ġcr Ã³nica
Ġdes alo
Ġcons ens
A P
Ġcons istorio
Ġensay os
Ġazul es
Ġm ÃŃa
Ġm ural
Ġc ese
ĠI B
c aciÃ³n
Ġgratu itos
E X
Ġ5 8
Ġapell idos
ez o
Ġeusk era
Ġimp uso
C omo
res a
Ġap p
americ ano
Ġhermos o
Ġmaravillos o
Ġcen tÃŃ
ĠCu ar
j ando
ĠC Ã¡n
Ġreun ir
Ġconfirm aciÃ³n
Ġequi par
ĠConven io
Ġsindic al
M C
im ento
Ġcapital ismo
tro p
Ã± an
c ÃŃas
ĠD ia
Ġpor terÃŃa
Ġref res
Ġc ro
Ġfib ra
Ġin cidente
ĠBus ca
Ġ199 8
americ ana
Ġcerr ados
Ġconform an
uc ar
Ġk e
Ġal iv
Ġdar Ã¡n
a cin
ald e
Ġor ÃŃgenes
in da
Ġacord e
Ġacom paÃ±a
Ġllev arse
Ġgan ando
Ġfr en
Ġreivin dica
y r
ĠF Ã³rmula
Ġrequier en
Ġro daje
Ġperfec ciÃ³n
ad ar
ipu z
Ġdesconoci do
ĠPER S
n s
tr ans
Ġentreten imiento
ĠP AS
" ...
ĠStre et
Ġatra v
M Ã¡s
Ġcons tancia
CION AL
ĠgrÃ¡ fica
ĠS m
Ġtrabaj adoras
Ġcul turas
es c
Ġcopi ando
lo w
ĠT IC
IZ A
ĠCar olina
Ġ5 9
z ob
ĠB ARCELONA
Ġdispon emos
ĠK o
Ġmadrile Ã±os
ĠT rÃ¡fico
Ġ( -
Ġconstante mente
C OM
Ġcomple jidad
Ġoblig ados
ĠRu ta
Ġacon di
Ã¡r ma
Ã©c do
Ġsimul tÃ¡n
Ġtr aje
ĠcÃ¡l culo
Ġp bl
Ġenve je
Ġdefec to
Ġarreg lo
ĠAn Ã¡lisis
ĠS ta
Ġven cer
ĠL ucÃŃa
Ġgra bar
Ġaprend ido
ĠL IB
ad ir
un e
Ġcomple mento
n ica
Ġindependiente mente
Ġ7 4
ĠRes erva
ÃŃn as
no ticias
ĠX III
Ġins piraciÃ³n
ĠescÃ¡ndal o
Ġfactura ciÃ³n
em e
Ġb is
d ero
Ġins trucciÃ³n
Ġinter ven
Ġjus ta
z ones
ĠPos i
ver tir
Ġansi edad
Ġbos ques
Ġcambi Ã³
Ġinten ciones
ĠPac to
Ġo posi
Ġcab ello
al caba
Ġvesti r
7 9
que o
Ġqued ando
Ġhipo teca
ĠMo vistar
Ġparti das
Ġre por
Ã¡s ico
er ica
Ġestud ia
Ġenfren tamiento
Ġdispar o
ĠLib re
Ġamp aro
ĠP ob
Ġre ino
ĠacompaÃ± ados
b ul
ĠSpor ting
ĠestÃ¡n dar
Ġex pone
Ġs ensa
AD AS
T UR
Ġsal va
Ġpaci encia
Ġconm emora
Ġlim pio
ĠC ues
f icas
no va
ĠE fe
ĠMa pa
j am
ĠEusk al
Ġplen amente
Ġata car
ĠRoc ÃŃo
Ġpantal las
Ġfun cional
ĠM iles
Ġadecu adas
Ġale manes
Ã³me tro
Ġdiver tida
ĠOc tubre
Ġen gan
ĠCompl utense
ĠRiv as
Ġimpar tir
Ġsin cer
Ġconvoca torias
ĠR in
O Y
Ġl Ãº
Ġver te
Ġsus crip
Ġamar illa
Ġmin is
ĠportÃ¡ til
Ġamb ul
M Ã¡laga
cla je
; )
ĠV idal
Ġdesped ida
w in
Ġt ÃŃo
ĠM ill
P R
U RA
Ġextra Ã±a
Ġloc alizaciÃ³n
Ġfort una
ĠZ idane
Ġmas iva
ub o
ĠTele cinco
l adas
iten ci
ĠBen ito
ĠF Ã¡
ab ar
Ġl ados
Ġg entes
6 1
I J
Ġreflex ionar
TU RA
ĠVald e
teg i
Ġadelan tado
Ġsuje tos
Ġpoli tica
al ba
Ġhipo tecas
Ġmuer tes
Ġobliga torio
Ġev ita
Ġen cam
ĠAz ul
F C
isten tes
Ġdisposi ciones
Ġguar dias
am Ã¡
ĠL leg
Ġbille tes
Ġp le
Ġo ch
Ġin ad
Ġpis to
Ġdes cal
ad es
Ġcambi ando
Ġhoriz on
Ġres pira
l en
l ite
Ġacercar se
8 00
Ġa rag
min os
ĠcontinÃº an
Ġencontr aban
m ala
ĠHol anda
ĠCab ildo
Ġmagistr ado
Ġofre ciÃ³
on Ã©s
ĠEmpres arial
Ġproducir se
ga ta
d ea
ĠCons igue
Ġsum ado
Ġcicl ista
Ġlimpi ar
ĠNeces itamos
ĠprÃ¡c tico
ĠÃ© tica
Ġrestr ing
ier ro
Ġalim ento
Ġsobreviv ir
Ġdeten er
ta cin
ĠBan kia
Ġdetal lado
Ġrazon able
Ġprove edor
ĠTerri torial
Ġte mor
Ġla mentado
@@@@ @@@@
ĠcÃ³mo da
gu ero
ĠBel las
ĠJav i
Ġjugue tes
ĠTr ad
Ġdes pro
Ġloc alizar
arr y
id ora
is sa
Ġvesti dos
Ġm obiliario
Ġdesp ido
log ÃŃas
Ġex puesto
Ġinforma cin
Ġdemues tran
ĠRema te
ĠFeder ico
te gr
Ġt ÃŃ
Ġviv os
Ġpro cur
fob ia
Ġinteres an
Ġrub ia
ĠS istemas
Ġdu cha
ĠDispon ible
ĠantigÃ¼ edad
Ġadap tarse
Ġmarro quÃŃ
Ġqu ie
ĠBor ja
ĠTribu taria
ip s
tr i
ĠBern ab
Ġdesarrollar Ã¡
ĠErre jÃ³n
Ġinter fa
ĠAso ciaciones
ĠIntrodu zca
ĠDin am
g et
ĠCh an
Ġar ru
if icos
ge la
ca te
id entes
qu erÃŃa
ĠRos ario
Ġcon tag
Ġfuncion ario
Ġper dida
Ġna tal
Ġclar os
ĠV olver
Ġper tin
Ġmer ecen
ĠgrÃ¡ ficos
Ġconfirm Ã³
Ġrealiz arÃ¡n
Ġro bar
ab ul
Ġsenti mos
Ġmetodo logÃŃa
Ġnov io
Ġdes mon
olog istas
ĠAud io
Ġsu po
Ġform al
ĠraÃŃ ces
Ġj ajaj
ĠV arios
Ġinv is
Ġarquitec tÃ³n
Ġfestiv ales
Ġl lan
Ġespeci alidad
Ġdesas tre
S ÃŃ
Ġres um
Ġespiri tualidad
es tÃ¡
pro pi
ar en
Ġsorpres as
Ġespectacular es
Ġse co
Ġaplic able
ĠF U
ĠUn as
ĠE c
Ġagru pa
ĠD istr
ĠMe j
tu oso
Ġc iencias
Ġmin or
ĠPol onia
ĠZ o
Ġqu ita
i tores
ĠAl b
Ġd uros
ĠInte lectual
Ġin timidad
Ġs how
et h
Ġsupon drÃ¡
ĠTi po
ĠNob el
Ġperteneci entes
ific an
Ġcal ifica
Ġinev itable
g ener
ĠLav avajillas
ĠPe ter
Q uer
E mp
ĠMar bella
ĠBar rio
Ġemprend edor
ĠPr ÃŃncipe
Ġurb anos
Ġque jas
ĠAr turo
Ġencuen tre
ĠN BA
Ġarran que
200 9
Ġvie jos
Ġincre men
Ġpresent adas
Cu Ã¡n
Ġcamp us
Ġ6 1
ga t
Ġherman as
uev en
Ġaf irmar
Ġocas ion
ĠEqui po
S in
Ġno ble
Ġrealiz amos
ĠMa x
Ġe f
ĠJo ven
e lec
ĠAD N
Ġactiv ar
w eb
ĠC V
ic arse
Ġta ur
Ġsober anÃŃa
C al
Ġsum erg
ĠH un
Ġlum inos
ĠIns trucciÃ³n
Ġmanifes tantes
Ġac ta
Ġhoriz onte
Ġterr ible
Ġbar cos
tro cer
m ÃŃn
Ġco ca
n ia
Ġun en
tur ar
ĠBa u
Ġroj iblan
ĠP is
ĠÃ¡ra be
Ġdesarroll ada
Ġex posi
Ġrealiz aron
ĠD onostia
Con s
ĠEs col
Ġ6 7
. ),
Ġvig encia
Ġgalle ga
Ġtranquil a
Ġreco gen
Ġequiv oc
Ġtrag edia
Ġatrac tivos
Ġma cro
ĠPes ca
ce lo
Ġoper adores
Ġpresentar on
Ġ199 7
Ġo lor
Ġreconoci dos
Ġ6 6
ipuz koa
Ġcir ugÃŃa
a ch
Ġfal sas
Ġmenti ras
Ġliber al
ĠPatr icia
Ġdel ic
g ru
and Ã©s
Ġan Ã©cdo
Ġmarc ada
Ġcon quista
ĠRo ca
Ġaer ol
Ġdes crib
Ġsu presiÃ³n
ĠInform Ã¡tica
in al
Ġestuv iera
Ġapartam ento
Ġre ple
Ġexcel entes
Ġrecaud aciÃ³n
ven ientes
ĠPromo ciÃ³n
Ġfal sa
Ġperspec tivas
Ġtor ne
Ġconsider ada
Ġsuger encias
Ġcre es
ĠMar zo
Ġhici era
on s
Ġreclama ciones
Ġincid entes
Ã©l ix
gues a
ĠESPA ÃĳA
p Ã¡
ral tar
Ġmotiv aciÃ³n
Ġdenomin aciÃ³n
Ġen tornos
Ġvend en
Ġcomien zos
Ġasoci ado
Ġ199 6
Ġpac tos
Ġecol Ã³gica
ĠYou Tube
Ġlim pia
Ġmis terios
is ion
Ġaqu Ã©l
ĠcompaÃ± era
Ġaf ortun
Ġis lam
Ġch il
Ġindic adores
L OS
Ġdes h
Ġbr illo
ĠMik el
ĠL lor
Ġencontr aron
per s
ĠE le
Ġjubil aciÃ³n
Ġaustr al
m un
Ġdej arÃ¡
d ro
con tra
Ġeleg ida
B en
ĠmÃ¡xim os
Ġpar ezca
ĠRub alcaba
Ġmanipul aciÃ³n
Ġex ista
ĠR ico
ĠE co
Ġescas a
Ġjoy as
Ġprepar ando
ac ciones
Ġas us
OL OG
por tivo
dic es
Ġconsigu en
201 5
Ġrela j
ĠDe tenido
ĠÃ ĥ
Ġc lan
ĠTh omas
ieg ue
Ġded icaciÃ³n
ĠMa ta
Ġexped ientes
ĠAm eric
Ġsim bÃ³l
Ġpres unta
ĠB all
Ġetique ta
ĠSil va
te m
Ġal ine
cul tura
Ġrod ea
Ġdu re
ad ell
Ġsobre todo
Ġposi tivos
Ġdes ierto
Ġp av
Ġjuris dic
Ġden omina
Ġdistingu ir
ĠAc ceso
Ġriguros o
Ġr ÃŃos
Ġabor to
Ġultr ader
ĠRepar aciÃ³n
Ġexig encia
Ġconserv ar
er ales
cul ada
di ciÃ³n
te ado
in ero
ĠMan chester
ĠPolÃŃ ticas
R eg
Ġparticipar Ã¡n
ĠGal le
Ġmon stru
Ġcontam in
Ġcorre os
dad es
Ġfortal eza
ros a
Ġfuncion an
Ġreconoci da
Ġempez ando
Ġpas aba
is t
ĠparÃ¡ metros
Ġflor isteria
ĠB ill
contr ol
Ġagrad ecido
Ġsigu iÃ³
Ġr ena
Ġgri ego
ĠR oy
Ġin ciden
ĠJ ac
ĠActu alidad
Ġcaus ado
Ġne ur
Ġinfer iores
Ġp p
Ġcu ero
Ġinform Ã¡ticos
Ġcaracter ÃŃstica
d Ã³
h r
ut m
Ġlim itada
ĠClÃŃn ica
Ã¨ s
ĠÃ©po cas
ĠFer ro
Ã¡l v
ĠdiseÃ± ar
ĠE fec
Ġtrans por
Ġdescon o
Ġcolec ciones
Ġtera pia
Ġson idos
iz ador
Ġob ed
ĠF ar
ĠenseÃ± anzas
Ġ9 00
Ġingles a
Ġtempor ales
rÃ¡ tica
Ġtrabaj adora
Ġmonum ento
ma go
ĠCl in
T EN
Ġentr an
Ġindemn izaciÃ³n
Ġllam aba
ĠAy uda
Ġrepas o
ĠO C
Ġactu alizar
Ġrom pe
Ġter n
Ġran go
ĠM ÃģS
ĠU so
ĠCon cierto
ÃŃ ticas
ĠAn tena
Ġrum ores
ĠB iblio
Ġen tera
Ġ- Â¿
Ġen vÃŃa
ĠJur ÃŃd
Ġen ormes
Ġprome te
Ġnutr i
Ġacep tado
Ġdis para
que das
Ġen cer
Ġdes cribe
Ġense Ã±a
ĠSo to
Ġcal ificado
Ġnave gar
V AR
Ġp ico
Ġf Ã¡rma
Ġbarr eras
Ġ7 8
Ġlim itaciones
tor e
co pia
ĠO P
unda ciones
Ġdirig idos
p istas
Ġprofesion alidad
erra t
Ġpreced entes
? ",
Ġcampe ona
ĠE M
al ar
ĠLa Liga
Ġrin cones
Ġdesapar ecer
ĠT Ã©r
Ġl Ã¡s
Ġconces ion
Ġregistr Ã³
p ados
Ġpul sa
E P
ĠAm or
Ã¡n s
Ġtransform ar
Ġl la
Ġescas os
ĠO pin
ĠD NI
Ġbel ga
ĠF IN
Ġespe jo
ĠL lo
Ġmi to
Ġcons igo
Ġs ienta
P u
Ġencar cel
ĠZ ar
Ġg ub
ĠE ibar
Ġhol an
Ġacab e
Ġam an
Ġfi eles
Ġhuel la
ĠM Ã©ndez
Ġam bi
Ġpl ur
no ticia
Ġre medio
Ġconcre tos
ten do
Ġfal tan
Ġseguir Ã¡n
c le
e amiento
Ġrecuper ado
Ġqued aba
A pp
ĠLa guna
Ġne gar
Ġterremo to
z amiento
ind e
Ġs ierra
at ch
Ġnacional ista
Ġexperim entar
Ġsu pl
Ġequ ivo
H A
ĠRo jo
Ġex teriores
Ġtabl as
Ġca tedral
Ġacad Ã©mica
Ġsens ible
Ġcru zar
Ten emos
Ġdese en
Ġca tÃ³
Ġbre cha
Ġindispens able
Ġfigur an
ĠAud itorio
ĠCS IC
Ġf idel
Ġextre mos
Ġinter an
Ġjapon Ã©s
": "
ĠfotÃ³graf o
ĠRe pres
To do
tar lo
Ġdi al
le tos
ĠO L
ĠMa teo
Ġvista zo
Ġpl ana
H emos
ta t
tÃ³ bal
Ġperman ece
Ġmens uales
Ġesca Ã±o
igu ero
Ġforma tos
ĠNuev as
ab il
Ġsig no
Ġâ Ĩ
ĠUrban ismo
ĠT emp
i Ã¡
rec en
Ġesco ger
ÃŃn guez
ĠS IG
ĠIb ex
ĠMed ias
Ġsorprend er
Ġn Ã³
ĠV II
Ġcul to
ĠF ac
ĠCalder Ã³n
em in
em o
g icas
tr icos
Ġpla ca
Ġapar iencia
ĠAlim entaciÃ³n
ĠMercan til
f ar
m el
Ġg loria
Ġincl us
Ġcercan as
Ġren tas
Ġconten er
ĠB aj
Ġme lo
Ġtr amos
Ġemi tido
Ġmod alidades
ĠComien za
ĠLi teratura
Ġmatr ÃŃcula
ier as
min utos
Ġexig en
d ares
ĠK im
Ġbicic letas
Ġselec cionado
Ġp iz
Ġreg istra
Ġhis torial
ĠP AL
Ġcomposi tor
ĠS om
Ġalcald ÃŃa
Ġperegr inos
Ġva ca
di to
Ġsolid aria
ĠbritÃ¡n icos
Ġalber ga
ĠCiudad ana
t ch
a co
Gran ada
Ġacces os
Ġdivers iÃ³n
Ġpenal ti
nes s
Ġgas es
Ġped idos
Ġpac tar
Ġmantener se
Ġinm ensa
te lo
Ġsol os
Ġconsol idaciÃ³n
Ġinforma tivos
s obre
valu aciÃ³n
âĢĵ ,
Ġameric ana
ĠJef e
Ġadquir ido
Ġrig or
Ġescu cha
Ġcal ma
Ġsenten cias
ĠEl los
Ġafec tada
Ġchar las
Ġrem un
Ġinten tan
ven tura
Ġcercan os
Ġad her
Ġves tuario
h es
T er
Ġch at
g obierno
7 6
Ġal arma
Ġdeleg ada
pla y
d y
Ġmal trato
ĠCel ta
Ġs ana
Ġcau te
Ġb end
Ġde can
Ġconce jo
Ġcob ra
Ġdefien den
EL A
Ġdecid ieron
ĠB U
r ic
Ġapoy ado
Ġadolesc ente
Ġapun tÃ³
Ġcam inar
ĠLiber tad
ĠInf raestruc
Ġhum edad
ĠE URO
ĠEdi ciÃ³n
s us
ĠC ri
Ġliber aciÃ³n
tu lo
Ġmas as
ĠLabor al
Ġso por
Ġrecom iendo
Ġdoc trina
Ġfin alizado
Ġcompl icada
Ġcertif icaciÃ³n
Ġab uela
v ir
Ġleg almente
Ġsig an
ĠEcon Ã³mico
ĠMon asterio
Ġreclam aciÃ³n
Ġtre ce
ier re
Ġsegu ida
ĠPen ÃŃnsula
ĠEs tÃ¡n
ĠhipÃ³ tesis
Ġconten to
ĠV uelta
Ã³m icos
Ġrefle jo
Ġapor tan
ici embre
Ġhos telerÃŃa
Ġpen ÃŃnsula
abe tes
Ġpens amos
ĠPre cio
Ġrode ado
Ġde partamentos
Ġcorreg ir
r um
Ġpref iere
Ġdisfru tando
Ġof f
Ġmovil izaciones
Ġam igas
ĠF Ã©lix
Ġescri tora
Ġinsul tos
ĠSin dica
s ion
Ġlig ero
ĠUnivers itaria
Ġabandon ado
Ġinte lec
ĠDepor tiva
Ġjun tas
Ġmen cionado
Ġno ven
Ġal ba
Ġpa gado
Ġas im
bier ta
Ġenti enden
ÃŃ rez
ï ¸
ĠL lu
Ġo pon
Ġpresid ido
Ġaumen tando
Ġcontr ibuciÃ³n
ĠL lev
ĠSe ptiembre
par encia
ĠRa quel
Ġinoc encia
ad eros
Ġidentif icado
en es
ĠComprom ÃŃs
ĠF abr
Ġespiri tual
ĠNie to
Ġautor izado
Ġpin turas
Ġde presiÃ³n
ĠIns pec
ĠHon or
ĠJ ar
Ġacud ido
Ġin olv
Ġimpro vis
ï¸ ı
ec k
Ġinmobili aria
ĠF RAN
dem oc
Ġayud arÃ¡
ĠB uena
Ġvari ables
Ġrepi te
ĠA mar
Ġamb ientales
ha ts
il s
Ġcam iones
ĠDel gado
Ġsignifica tivo
ĠB and
Ġrepercu siÃ³n
ol iber
ie ve
Ġde tecciÃ³n
Ġesca para
ĠCar rera
ĠW e
z ona
S I
Ġintelig entes
rÃ¡n ea
Ġreal ice
ĠCris tÃ³bal
ĠDisfru ta
Ġ18 0
ĠR i
ĠcrÃŃ menes
ĠP un
Gra cias
ĠtÃŃp ico
Ġenfren tan
m io
Ġsolu cion
Ġmejor ando
ĠGem ma
Ġdenunci an
7 8
m et
Ġrecog idos
Ġsindic ales
im entaciÃ³n
Ġcu a
tr abaj
ĠUS B
Ġirregular idades
Ġg l
Ġdispon drÃ¡
ĠHu go
ĠSon y
Ġan ul
Ġcatal anas
r tel
IC AS
Ġcre y
ur ado
ra te
Ġcompar ar
ĠE z
Ġtrans forma
Ġfirm Ã³
Ġconf igura
Ġtu ber
Ġverdad eramente
br ar
ĠDe pend
Ġan dar
ĠAl icia
d am
Ġincorpor ado
Ġatribu tos
Ġdepend encias
Ġrem od
gu Ã©
par se
Ġadministra tivas
ĠDI REC
Ġmi x
c ario
Ġquis iera
Ġdim i
Ġban deras
Ġ199 5
ĠAh ÃŃ
T IS
Ġexperimen tado
ĠSol ici
ĠE p
Ġsirv iÃ³
Ġ6 2
Ġtrabaj amos
Ġplante amiento
ÃŃ colas
ĠAbas cal
cu ando
z ul
Ġcar gado
ĠId enti
el le
Ġinteg ra
Ġv s
Ġreac ciones
Ġseme jante
Ġconj untamente
Ġcol ch
Ġja zz
Ġhin ca
ĠVillar real
ĠPos t
ĠO ne
Ġadecu ados
ĠToda vÃŃa
Ġexac ta
Ġre ta
Ġescul tura
Ġblo ques
ĠT Ãº
ĠMin istro
eg os
rim adas
in k
ĠCuen tas
Ġhay as
uer tas
Ã Ĥ
ĠH D
Ġproduci endo
Ġcons a
ĠT I
Ġlamenta ble
Ġac cionistas
Ġin icios
ci c
Ġsuced iendo
Ã³s toles
Ġvues tras
Ġperson alizada
Ġjug Ã³
Ġs era
ĠCons umo
Ġpublic arÃ¡
Ġab aste
Ġnub es
d ef
Ġale gaciones
ur ar
Ġe go
ĠT x
ĠSigu iendo
Ġmascul ino
Ġolv ido
Ġrelig ioso
ĠÃ¡n gel
Ġal u
t v
Ġcolo ca
ĠAustr ia
ĠCar me
Ġespa cial
Ġentend emos
Ġmu tu
ĠIn ma
Ġt onos
Ġcar gar
ĠF ab
âĢ ²
ĠOn da
Ġdesa hu
Ġsole dad
ti cidad
man ente
in fo
Ġperm isos
Ġrom ana
T odos
Ġch av
Ġpata tas
en tado
in z
Ġimpuls ado
Ġde udas
Ġhabl aba
Ġid Ã³n
ĠM y
Ġconf i
vi ra
ĠCar gando
Ġes tro
Ġeleg idos
Ġinter venir
Ġtra zado
te le
ĠOs as
ĠacompaÃ± ar
ĠCons orcio
CÃ¡ diz
h al
Ġdismin uciÃ³n
Ġinaugu ra
Ġmaqu illa
ed i
Ġmal tra
ĠPÃ¡g ina
Ġde ro
Ġti p
Ġmanten drÃ¡
Ġdej en
Ġvend idos
u ch
Ġrin cÃ³n
ci ana
Ġqued arÃ¡n
Ġcemen terio
Ġrefer entes
Ġestable cidas
Ġliter aria
Ġna ciones
lav Ã©s
Ġentren amientos
qu iv
Ġfur gon
G B
Ġin esta
Ġparro quia
Ġad or
ĠLe e
Ġserv irÃ¡
Ġflex ibilidad
R o
Ġmejor ado
ard ar
gr ados
Ġrespon diÃ³
cul ado
Ġp ilares
cel lo
ĠR ue
ĠTor o
Ġcontund ente
Ġquer ÃŃan
ĠRT VE
Ġreduci da
ĠEs co
Ġsocial ismo
ĠPR IM
Ġcontes tar
Ġpas es
Ġsorprend iÃ³
ĠComer cial
Ġrela tivamente
Ġpor quÃ©
em s
cional mente
N a
Ġcar dio
Ġagre gar
200 8
Ã³d ulos
ĠSec tor
Ġfal los
Ġcapaci taciÃ³n
Ġre emp
ĠSosten ible
g ente
ia t
Ġjugar Ã¡
ĠMos cÃº
Ġconf ort
ĠA do
ur ÃŃa
Ġinstal acion
Ġbomb ard
Ġdo tar
ĠPer e
Ġal m
te in
Ã³lo ga
Ġante cedentes
gen as
Ġnav ar
bl an
Ġter res
Ġmill on
i Ã±os
Ġle e
ĠJul ia
Ġcabec era
Ġac Ãºs
c ord
ĠIn ici
Ġten iente
Ġcorr ientes
Ġrad ic
Ġher encia
ĠÃį Ã±igo
Ġproteg ida
Ġpres untos
lamentar io
h ÃŃa
er ez
Ġano che
Ġdes l
Ġacum ula
ri ta
H e
Ġbel la
ĠIgu al
Ġpa pe
ĠM aj
ĠMar gar
u i
ĠOr questa
Ã¡ndo la
tÃ© tica
c adas
Ġpar cela
ĠOsas una
ĠinstantÃ¡n ea
Ġnarra tiva
ĠPa u
Ġlo cura
ĠTecn ologÃŃas
Ġpres ide
Ġentend ido
pro duc
Ġcoincid e
Ġpel u
ti an
di ta
o pin
or s
ĠC ub
ĠFerr ari
Ġprof un
ĠEstra teg
Ġm ara
Ġinspec ciÃ³n
ĠM Ã©rida
P V
Ġtranspar ente
Ġinten tos
Ġconclu ir
Ġdese an
G R
ĠO cas
Ġpres untamente
Ġbeb er
Ġoptim izado
is tÃ¡n
Ġdepend iente
Ġrefug io
Ġsan cion
Ġ7 3
Ġmis a
ĠG im
ĠEu gen
Ġpa to
ĠOrden aciÃ³n
Ġrev al
Ġcrea tivo
Ġinv itaciÃ³n
c s
Ġcoincid iendo
Ġreclam ado
is tic
Ġacab o
Ġes quÃŃ
Ġvincul ados
S on
Ġpar eciÃ³
Ġaso cia
Ġtri pul
Ġcal zado
Ġmin i
ĠB ob
Ġfon tan
ĠNi Ã±o
Ġped imos
in arios
ĠN UES
ĠPla ya
Ġ6 3
Ġnos o
con f
tr ales
E I
Ã¡ Ã±ez
Ġtu yo
Ġempez aron
Ġas ciende
Ġoc Ã©
ĠP I
Ġmostr ando
Ġlo co
Ġbio grafia
ec t
ES A
ĠTim es
Ġcu id
ten tes
ĠC asta
Ġex ced
ĠR um
Ġactu alizado
Ġo le
Ġauto mÃ¡tico
Ġrealiz arse
Ġencar ga
ĠRam ÃŃrez
eb ra
g ino
ĠDeb ido
Ġhabr ÃŃan
Ġval iente
ĠAl z
Ġflu jo
Ġcaus ar
Ġpresen tados
Ġdes gas
Ġimpres ion
Ġmun diales
Ġinform Ã¡tico
as t
ĠD ÃŃ
Ġprom esas
ĠR an
Ġj ajaja
Ġvin culaciÃ³n
Ġhinca piÃ©
Ġhuev o
ĠConcejal ÃŃa
Ġintegr idad
' )
ĠH am
Ġmonum entos
Ġprogres ista
ĠQu ien
Ġlider ar
Ġpoten ciales
Ġinter iores
ĠEspe ci
Ġcamis etas
Ġcomple ja
ĠTRA BA
ĠHab rÃ¡
IC ADO
cor e
le ce
ti era
Ġher ida
Ġfores tal
eci das
Ġh ero
j ol
Ġpin tores
Ã³ so
ÃŃf icos
Ġconven cional
ĠAm igos
aliz Ã³
ĠAnd rea
ĠdÃ©ci mo
Ġp ymes
ĠF OR
Ġdesper tar
Ġpersi anas
Ġdo taciÃ³n
ĠPas cual
8 4
ĠTer cera
Ġresul tan
Ġrep ente
Ġbur bu
Ġr am
Ġfemin ismo
ĠN um
j unto
ĠÃºn icas
le m
a hora
L AS
Ġmarav illa
Ġinteg ran
Ġm ante
Ġcas ta
8 2
Ġc itar
ĠU C
ijo te
Ġcor tos
ĠI sa
Ġrelig iosos
Ġadap tado
Ġm uros
Ġna tur
ir iÃ³
Ġfores tales
ĠRich ard
Ġbel lo
Ġne utr
h ar
V amos
ild e
ĠOr tiz
tu ar
Ġcor ona
ĠVal lec
Ġgub ernam
ĠA Y
Ġcer ra
ĠEn seÃ±
Ġoch enta
ĠTrans porte
Ġorganiz adores
Ġque ja
Ġgimnas io
Ġfres ca
ĠM am
ĠJ an
c y
Ġconced e
Ġcan to
Ġac or
Ġperteneci ente
Ġw hat
ĠRen fe
ĠSO CI
Ġtele comunicaciones
Ġt witter
). -
Ġsol ares
ven idos
ĠTo tal
ĠO bra
ĠMad re
ĠT O
Ġg am
ĠRec on
Ġconfigur ar
ĠG AL
v esti
Ġinteres adas
Ġnub e
s ec
Ġvid rio
Ġto p
Ġrela tivos
Ġmar gin
ti enda
ĠO cio
Ġavis a
Ġespeci alidades
P r
ĠMon toro
Ġflo ta
ĠCono ce
Ġases ino
ĠIb ero
Ġaf irman
Ġind icios
ob endas
ent adas
x e
ĠNo u
ĠFran ces
ĠDom ÃŃnguez
Ġses enta
Ġ199 2
s ub
v eda
AN D
Ġandalu zas
Ġor iental
Ġrespond ido
Ġpol lo
Ġsuspend er
Ġse vil
Â ·
t ter
Ġpres um
z aba
Ġacu diÃ³
Ġsen tado
Ġfich eros
Ġm Ã³dulo
ÃŃ tima
Ġun idos
Ġc iber
ĠE cuador
ĠAg ru
Ġdesemple ados
U B
Ġab d
ones es
Ġcump la
Ġfi jado
car ril
Ġmul timedia
ĠProduc tos
Ġprodu zca
Ġserv idores
Ġobliga toria
Ġb onos
ĠAra bia
ĠlÃ¡ grimas
ĠJ en
Ġexpl ÃŃ
ĠestratÃ© gica
ĠfÃŃs icos
ĠF O
ĠM Ã³nica
Ġan Ã³n
ĠestÃ¡n dares
lan es
Ġ6 9
Ġg atos
Ġmen ciÃ³n
ci entos
Ġagrad ecimiento
ĠGran des
Ġneum Ã¡ticos
Ġau ge
201 3
Ġind ifer
Ġtecn olÃ³gicas
Ġmor tales
Ġp abellÃ³n
ter nidad
dad ura
Ġdepend ientes
n d
Ġab uelo
ĠAl geciras
Ġluch ando
Ġrec orte
ig Ã¼
in to
ĠIn di
ER R
Ġhid ro
ĠD Ã©
ĠOc cidente
Ġgr adu
f el
Ġlici taciÃ³n
Ġob tend
Ġarreg lar
so e
ĠBach illerato
Ġoblig ada
ĠProyec tos
Ġsal ieron
Ġbo tella
ĠT C
Ġdes vi
Ġtoma te
Ġconsum ir
ĠP OD
Ġrebel iÃ³n
Ġpas ados
ĠPeriod ismo
ĠO S
Ġelig e
ĠAl co
Ġculp able
Ġsolid ario
ĠProfes or
ĠPol it
Ġins ec
ĠPro f
Ġazul gran
ĠprÃ³ r
________ ________
cl es
Ġel og
Ġdefens iva
ĠIn Ã©s
Ġdescan sar
ĠNin tendo
et ales
Ġc av
Ġencontr arÃ¡
hats App
Ġefec tivamente
Ġp ÃŃ
Ġidenti fica
ĠG ipuzkoa
Ġcar gas
ĠHor nos
Ġca ud
ĠAdministra tivo
Ġinnov ador
u k
and al
Ġcas ualidad
Ġmoder aciÃ³n
ĠW EB
m ero
Ġcump lan
Ġpe ga
ĠF ÃŃsica
ĠCol or
Ġcel da
ĠGib raltar
Ġprom esa
uer as
Ġcos m
ic ula
ĠTrans iciÃ³n
Ġapre ciar
Ġex tiende
Ġescuch ado
Ġhab ilidad
Ġreun irse
ĠTecn ico
Ġmoder nos
Ġcorred ores
Ġprior idades
Ġefectu ar
Ġcap tar
Ġrecib ieron
A V
ĠH AB
ĠAlcal dÃŃa
Ġjustif ica
ĠGÃ¼ rtel
Ġcoincid ir
ĠAlcor cÃ³n
te gui
Ġascens or
ĠS p
P o
Ġnorteameric ano
ĠF i
ĠCen ter
ĠA vilÃ©s
Ġgri tos
Ġrela ta
Ġro bos
Ġide ales
Ġad mitir
Ġpier den
Ġfes tivos
Ġdep Ã³sitos
Ġfalle cidos
Ġreb aja
7 00
Ġcompr ado
Ġmercan cÃŃas
a k
cl as
ĠEcon om
cial mente
ĠSÃ¡ enz
Z O
Ġedi tor
Ġcre d
T ON
Ġbus co
B an
A m
ĠautÃ³n omo
it b
Ġco tizaciÃ³n
Ġmanifes tÃ³
ĠVe cin
Ġfa cebook
Ġfal la
ĠMan zan
Ġin capacidad
ĠInterna tional
Ġalf om
Ġdenunci Ã³
tiz ada
Ġadjud ica
Ġvol ante
Ġinter nas
ĠC arÃ¡
Ġar gentina
Ġbu que
Ġpresupues taria
Ġapla ud
Ġan t
ĠCar ras
ĠG P
ĠVal enci
al tad
ĠÃģ lava
if i
Ġb la
ĠDes cripciÃ³n
Ġco pias
Ġrelig iosas
Ġplan os
Ġtras lada
ĠProvin cia
Ġconsigu iente
Ġpublic adas
Ã¡n icos
ĠCl ara
Ġfal lado
Ġau tÃ³
Ġsub idas
Ġsac Ã³
Ġtrans vers
Ġba il
Ġc ÃŃrculo
Ġdeci den
Ġmagn ÃŃfico
g i
itan a
Ġmane jar
b uen
ĠAgu ilar
Ġl lave
Ġselec cionados
ta ca
vie ja
Ġmodern izaciÃ³n
ĠVal l
J C
ĠH ora
ĠImp res
ĠRecuer da
ĠInter Ã©s
l im
AR R
e k
ĠJa ume
Ġblan cas
ÃŃ z
us s
ĠcientÃŃf icas
Ġde cep
ĠAtlÃ¡n tico
Ġprofund amente
Ġg Ã©n
Ġacep tando
Ġparal elo
Ġson ora
Ġdivul gaciÃ³n
Ġmaravillos a
ĠR enta
G EN
Ġconsigu iendo
Ġvolun taria
pany ol
Ġclaus ura
pi ro
5 7
ĠGreg orio
Ġac lara
Ġconcluy Ã³
Ġmoch ila
ĠPro ced
us as
ĠMar ea
ĠS US
D S
Ġh im
ĠaÃ© reo
Ġcu alidades
Ġex poner
Ġal b
Ġlab ios
Ġocta vos
Ġres ide
ĠDi ana
Ġpros per
Ġcumpl iendo
ĠTen ÃŃa
Ġsupon go
Ġalimentar ia
D EN
ĠcÃº pula
Ġan ima
Ġps ico
ĠMar cel
Ġproces iÃ³n
Ġsal tar
ĠCarÃ¡ cter
ad uras
ĠC lo
Ġd iera
ieg os
ch el
Ġvan guardia
Ġprote ÃŃnas
Esto y
Ġale gr
9 2
t ti
Ġv ientos
Ġgus tÃ³
ĠG ENER
tr io
Ġaval an
ĠobstÃ¡ culos
5 6
Ġpermi tiendo
pue d
Ġg estiona
Ġcompeti ciones
tr y
Ġaleg ro
ĠF ord
ĠdiseÃ± ador
Ġre trato
Ġconced ido
Ġenm iendas
Ġvol ar
Ġdedic an
Ġretr ibu
Ġre af
Ġurg entes
ĠInte gr
Ġsobres al
u le
ĠMedias et
Ġal ud
Ġpi ano
Ġ* **
pued e
D el
Ġrecomend adas
Ġaerop uertos
Ġhacer nos
Ġser lo
Ġdig no
oc k
Ġti ra
gu ar
Ġcan s
ĠdÃ© bil
re y
ĠTar je
Ġdiscur sos
ĠUP yD
Ġsepar ado
te Ã³
ĠVi olencia
Ġtor menta
b ord
ĠW hatsApp
Ġsolu ciona
ĠES P
Ġcu char
Ġcu bre
ĠBomb eros
ĠAc cede
Ġll enar
Ġorganiz an
Ġinvesti gado
pon es
Ġoper ador
ĠE P
qui cia
Ġlider ado
Ġemprend er
Ġmusul manes
Ġne oliber
ĠÃ³p era
Ġrec ta
Ġconvoc ada
Ġven ced
Ġdig na
ĠF arma
ĠMan u
Ġneg ado
m icas
Ġsir va
Ġcarr il
Ġenvi ados
Ġpl us
ur t
icidad es
Ġband eja
Â °
I ES
Ġo ÃŃr
70 3
ĠLis boa
Ġpon gan
Ġocul ta
Ġsen da
Ġdue Ã±os
Ġasigna turas
Ġconvoc an
rig or
idad os
ted ra
Ġa cierto
Ġcal dera
Ġconf iesa
ĠB ull
T ra
Ġdel e
Ġse des
tel aciÃ³n
Ġestar emos
Ġcam as
Ġdefin ido
8 3
Ġl ento
ĠCo leg
Ġnega tivos
ĠIber ia
ĠAl um
Ġdestru ir
ĠC IS
ĠMer kel
Ġmolesti as
Ġhum anas
Ġca os
Ġdeb idamente
in c
Ġpu ta
Ġprev ias
Ġsu av
ĠCab e
Ġfranqu ista
Ġhermos a
ĠSab adell
Ġse t
Ġcorr iendo
Ġcorred or
em ent
ĠUnivers al
Ġprecar iedad
z uelo
Ġhacer le
fl ix
Ġx D
ĠCarn aval
den al
Ġil ÃŃ
ĠEn desa
ĠD ragon
Ġca tas
z uela
Ġsome tido
ĠBan k
Ġsuced iÃ³
Ġconden ados
h os
ĠX avier
ma y
il os
Ġal iados
Ġad emas
us al
Ġdedic ados
Ġcorpor al
ĠDeclar aciÃ³n
Ġam ante
Ġperson alidades
ĠO cho
Ġlog ro
Ġmaquilla je
Ġgri to
Ġ zo
P la
Ġas ientos
Ġpres iones
ĠRe publ
Ġch e
P ed
Ġas tr
Ġno tar
Ġdo tado
ĠTrabaj adores
Ġn eo
Ġ199 0
Ġd ila
Ġpan eles
Ġin ci
Ġigles ias
Ġase qu
ri te
Ġp si
ib era
Ġab ar
Ġtras tornos
amb ur
ij Ã³
Ġdic tador
el los
Ġen com
Ġaver igu
ĠA dolfo
Ġreper torio
Ġvein tena
Ġpo ema
Ġpresent ador
Ġins critos
Ġacu den
Ġarm ario
Ġprim as
er ador
ĠA lavÃ©s
Ġllam as
Ġcred ibilidad
Ġinf o
Ã³d igos
Ġcons is
Ġtra tarse
ĠFoto grafÃŃa
h uela
direc tor
Ġaud itor
Ġcoloc aciÃ³n
ĠF ire
ĠPre venciÃ³n
Ġsencil las
Ġaf Ã¡n
ĠfÃ¡ ciles
Ġa ra
Ġpatr ia
Ġan g
Al icante
ĠsÃŃmbol os
D T
Ġf le
Ciudad anos
ĠFerr er
Ġla c
ĠE RE
t ona
v ill
Ġinfl uy
Ġd uras
izca ya
Ġtra yecto
ĠIn telig
Ġra tif
Des d
aliz ando
?? ?
oro este
z al
le tismo
Ġsurg iÃ³
in arias
Ġba tal
ĠV iernes
Ġb eca
Ġliter ario
Ġpan el
te ar
Ã³rm ulas
Ġtuv imos
i anas
Ġfil tros
ĠH ierro
Ġtercer as
ĠMUN DO
ĠbÃ¡s icamente
Ġform ando
n an
Ġpo emas
Ġmon e
ĠTOD O
Ġred onda
EN TO
Ġrev Ã©s
e u
Ġmulti nacional
es en
ĠRe un
ecre tario
Ġin min
TU D
b s
Ã© p
k ers
Ġced ido
Ġbas tantes
Ġpar to
Ġrepubl icano
ĠI Ã±igo
M V
pa je
ĠRed es
Ġeuro dipu
ÃŃs mo
ur ce
ros s
ĠAbog ados
Desd e
ĠOri ol
ĠAndal uz
Ġfir man
Ġmod ifica
Ġvincul ado
i us
ĠOlÃŃmp icos
Ġ14 0
ĠNo viembre
Ġsufr iendo
ĠV ino
Ġimprescind ibles
Ġesta bil
gu ra
Ġcul tivos
Ãī S
Ġretr ans
Ġsus ten
Ġde grad
Ġcru ce
ĠcÃ© le
ĠLib ros
ter ror
Ġcos ech
Ã± Ã©s
Ãį N
l lano
Ġsuel dos
Ġmi el
ĠCom Ãºn
Ġar d
Ġsegu ÃŃa
Ġob ispo
Ġem ergencias
Ġcos tado
ĠclÃ¡us ula
cri tas
Ġrell enar
ob ed
ĠM AL
y mar
Ġarre ba
Ġinv itar
Ġ3 50
ul s
ĠseÃ± ores
Ġencar gados
Al m
Ġincom pa
Ġexpor taciones
i toria
Ġtej idos
Ġg ab
com unidad
T IN
Ġdeb o
Ġinser ciÃ³n
ĠE ven
y un
ĠO B
ĠEx p
ĠautonÃ³m icos
ac en
Ġocu pado
F el
Ġlogr os
Ġcon tienen
Ġcolombi ano
Ġprotagon izado
Ġve cina
Ġllam ando
Ġjef es
Ġru tina
Ġcontr arios
Ġsol v
Ġcristi ana
Ġde biÃ³
leg as
Ġabr en
gas e
Ġjapon esa
ĠM ala
J ER
Ġdiagnos tic
Ġdispu tado
Ġac aso
Ġre mitir
ĠE QU
âĢĶ ,
ic arÃ¡
Ġtr Ã¡ns
la go
Un iversidad
gu o
am ing
ĠjurÃŃd icas
Ġedi tado
Ġgastron Ã³mica
Ġres pir
Ġescond e
ĠInfraestruc turas
Ġmens aj
ĠRe la
Ġcontinu ado
Ġla men
Ġv ial
entar io
Ġcubier tas
Ġ3 60
mÃ¡ genes
Ġal imen
ĠP rÃ¡c
TE C
Ġtras ero
ĠE FE
ĠcÃ³m ic
Ġpod io
ĠEr nes
Ã³ fob
Ġras gos
Ġre estruc
Ġparticular mente
Ġin und
ĠQu ijote
Ġcoci nar
Ġgas tar
capa ci
Ġlleg aba
ex iÃ³n
ĠR onda
Ġper ÃŃ
Ġbas ados
Ġres oluciones
Ġo ve
Ġap el
x y
al imentar
ĠPala u
Ġadi Ã³s
Ġsalv aje
amil ton
Ġcentro cam
and ra
Ġm Ã³dulos
Ġais lamiento
on to
ĠNo v
Ġbeb ida
ĠMus ic
f uer
Ġsof istic
Ġinto ler
Ġpuntu aciÃ³n
ĠâĨ Ĵ
ĠAutor idad
ĠcontemporÃ¡n eo
v ado
Ġofens iva
ĠA V
Ġlibre mente
ĠÂ¡ Â¡Â¡
ĠEs pec
Ġt Ã©
americ anos
Ġsorprend ido
Ġbod as
Ġcr ia
Ġcal cula
Ġhech as
ig er
Ġgr amos
Ġla zos
bi ta
Ġcated rÃ¡tico
s ter
Ġganan cias
tr il
Ġdirec torio
ĠEn v
ĠA erop
ri tas
Ġej es
Ġbar rera
b aciÃ³n
C at
ĠfantÃ¡s tico
Ġurban izaciÃ³n
ĠM EN
ĠHuman idad
Ġpens amientos
ĠSE O
ĠJohn son
tel las
Ġpresenta ciones
Ġge ografÃŃa
Ġcic los
ĠV ara
Ġob vio
god Ã³n
Ġreconoc en
Ġjam Ã³n
ul la
ĠRec om
Ġdig an
Ġar oma
ĠfenÃ³m enos
ĠS un
Ġevi tando
Ġdescu b
Ġconta bil
Ġhisp ano
ĠL ÃŃnea
ĠBa z
Ġpre ju
Ġapoy an
ĠGus tavo
k ari
ĠAlma cen
ĠT ol
Ġacud ieron
Ġreclam an
Ġbus que
Ġas iento
Ġcas tigo
br ico
Ġcaracter es
ĠE tx
ĠD al
Ġpred omin
CA T
ĠSegun do
Ġpul so
ĠSil via
ĠCh ico
ĠC is
Ġro jos
ĠA qu
Ġsalud ables
ĠProfes ionales
ĠEx iste
ĠDeb es
ĠO fre
Ġproduc tivo
ĠIR PF
Ġdud e
ĠES TE
Ġimper io
Ġrel ieve
ĠCa tÃ³lica
Ġca pr
Ġresponsab il
H ab
Ġterap Ã©u
Ġsan tos
Ġestre cha
c adores
Ġreivind icaciones
es idad
ĠC RE
ĠEMP RES
Ġfil Ã³so
og Ã©n
ĠH as
Ġmasco tas
Ġrecha zar
ĠSex ta
Ġle ve
Ġdis per
Ġcomb inado
tÃ¡ r
Ġ> >
Ġcin tur
abr ada
Ġlleg amos
Ġhici mos
ĠC ano
Ġfin aliza
Ġjud ÃŃos
Ġcontinu arÃ¡
Ġs ender
ora ya
Ġnav es
Ġcusto dia
Ġenmar ca
tam biÃ©n
ĠJ ord
Ġsom bras
Ġab an
Ġcab ezas
Ġrequis ito
ijÃ³ o
Ġen horabuena
Ġper ci
Ġcas tell
ĠAdri Ã¡n
d ado
ĠWar s
Ġr isa
Ġexhib iciÃ³n
ĠP E
pon go
Ġdiscipl inas
Ġobserv aciÃ³n
Ġconten edores
Ġgalle gos
Ġcompar tida
Ġdesem bar
Ġsuced er
Ġmater nidad
Ġdetec tado
Ġespal das
ĠH it
Ġprom edio
ĠResta urante
Ã³n icos
Ġasoci adas
le d
Ġev olucion
Ġcol ocado
ĠDinam arca
te os
ĠG es
cu s
Ġsinies tro
Ġlin k
Ġso portar
ĠC ero
ĠC ay
ĠEx posiciÃ³n
ĠHistÃ³r ico
Ġsuscribir te
tor y
Ġfr igor
Ġnar co
cer ÃŃa
Ġfu imos
y u
ĠMar ch
ĠAn na
ob a
Ġrestr icciones
Ġre util
Ġinnov adoras
ĠhÃŃ br
Ġocul tar
Ġrec tor
Ġcontr aria
Ġtur ÃŃsticas
ĠArquitec tura
Ġagr ÃŃcola
T ICO
Ġprotagon izada
Ġsim ples
Ġpropor ciÃ³n
Ġs ano
Ġha ble
ĠTo k
Ġapar tados
ĠS ky
Ġ28 703
ĠPlan eta
Ġo v
ed es
p ad
Ã©cn ica
ĠC UR
Ġcir cul
Ġsob ra
ĠUni ted
Ġproteg ido
iz amos
Ġsab iendo
ĠBo u
Ġbr oma
B ur
Ġsuper aciÃ³n
Ġ199 4
Ġel diario
Ġex terna
Ġprob abilidad
ue ta
Ġcr uel
Ġfal sos
Ġor questa
Ġb ola
Ġele va
Ġfil me
Ġcome ter
Ġacab aba
Ġcenten ario
Ġto mo
ĠdiseÃ± ada
ĠAl ar
Ġase ver
c ran
Ġhig iene
Ġdes com
AR ES
ĠK iko
Ġrele vo
Ã© tera
Ġcontr ibuye
Ġinici ales
Ġneces ito
ke y
ĠP ho
Ġcelebra ciones
qu io
ĠmÃ© rito
Ġconse jeros
ĠC AT
Ġdul ces
ĠAr tur
Ġreci claje
Ġfor al
ĠJ ueves
Ġreflex iones
ĠY A
Ġvari edades
ĠHis p
Ġcubier to
Ġan s
mad amente
Ġ um
Ġacud e
c ador
ĠParti cipaciÃ³n
Ġma tan
av i
ĠPar k
ĠBernab Ã©u
Ġmin orÃŃa
Ġperson alizado
CH A
Ġex ager
ris to
Ġprom ueve
ĠBan da
Ġli toral
8 1
ĠAr que
ĠD iciembre
Ġve la
Ġinn eces
l abrada
ĠPir ineo
ĠL ÃŃ
Ġocu pan
Ġprovoc ando
ĠAm bas
Ġve an
ĠH ond
Ġten ista
ĠMil Ã¡n
Ġpers ecuciÃ³n
Ġpregun tÃ³
Ġcap illa
ĠVia jes
ĠEuro copa
Ġauton om
ga z
Ġme tido
Ġsig ues
ĠBar tol
ĠMi quel
ĠS y
Ġseg mento
no w
Ġf Ã³rmulas
Ġgener ando
Ġafron ta
ĠN I
Ġrepubl icanos
Ġejer ce
Ġborr ador
rec tor
oc as
Ġperju icios
7 4
ĠHab ÃŃa
Ã©r icos
Ġdespl iegue
Ġe cha
Ġtea tral
Ġbod ega
Ġsal iendo
Ġ0 9
Ġvi abilidad
Ġayud ado
ĠSa int
Ġvas o
ĠAg entes
ĠcontemporÃ¡n ea
Ġtestimon ios
Ġaprovech ado
x ia
Ġ7 6
TI VO
ĠMan if
Ġconsider Ã³
IS A
Ġe mite
Ġprepar ada
Ġsen ador
ĠCompr ar
Ġbus cado
Ġvulner ables
dro la
ĠBÃ¡r cenas
ĠLim pi
ĠB ig
ĠBl ue
P AR
Ġor to
Ġmagn itud
Ġespa ola
ĠHern ando
Ġsignifica tiva
Ġentusias mo
ĠcentÃŃ metros
Ġsens or
Ġda ta
ĠNav al
ĠLo u
Ġperd on
Ġid Ã©n
Ġso is
ĠG Ã©nero
ĠEscu cha
m amente
ĠSo ftware
t to
ta tion
Ġel abora
ĠFe ijÃ³o
r r
Ġalterna tivo
ĠMan uela
ĠDis e
ĠW all
Ġatro pel
Ġsan to
Ġvi Ã±
Ġresal tado
Ġsu biÃ³
Ġtemp rano
In s
Ġcondu ce
Ġarch iv
Ġexis tÃŃa
Ġhum il
Ġf Ã³s
ter idad
ĠMic ro
EM P
ÃŃ tico
Ġlle guen
ĠEs taciÃ³n
Ġilustr ado
R es
p ica
Ã± ones
Ġcomb inar
Ġatr ibuye
tar le
Ġreun iÃ³
ĠCons trucciÃ³n
ĠPatr onato
ĠB es
Ġerr ad
ĠBus iness
ĠEs crito
O B
Ġmili tancia
Ġexpl orar
ĠhistÃ³r icas
Ġlevan ta
Ġhu ir
Ġagru paciÃ³n
ens or
Ġg em
ĠprÃ³r roga
CI N
ĠAd el
el les
ĠEstad ÃŃstica
j adas
ĠM OD
Ġsi tÃºan
Ġinter acciÃ³n
iz arse
Ġindustr ias
Ġflex ible
ĠU SA
Ġ13 0
U r
ici l
d Ã©
Ġlogr aron
ĠT ienda
Ġdis im
Ġman us
Â «
M ed
ĠYo utube
Ġbille te
ĠH amilton
ta te
Ġcomis ario
ĠNet flix
Ġrecomend aciÃ³n
Ġlig era
ĠNe ymar
Ġmod ific
fici ales
Ġes tancias
ĠmÃ© ritos
tal o
Ġconsider able
5 2
c ano
Ġb e
ĠFil osofÃŃa
M as
Ġed icin
ĠsatÃ© lite
Ġmagn ÃŃfica
ĠJ ane
tu lia
Ġop ina
ig ada
Ġpl ural
ĠJ A
ef ici
Ġcompeti tivo
con se
Ġa tes
I TO
esti ma
cas a
Ġcomprend e
ĠCor rea
Ġpro hÃŃ
el diario
Ġpar king
ĠTÃ©r minos
Ġm ama
R a
Ġex cav
ĠhelicÃ³p tero
ĠP om
Ġbar cel
Ġas fal
ĠsÃŃn drome
ar s
Ġgraba ciones
Ġcontras te
ĠFuer te
Ġcarb Ã³n
Ġregener aciÃ³n
Ġbr illan
Ġsuper visiÃ³n
ac as
Ġdilig encias
Ġcorrec ciÃ³n
d ele
ĠB AS
Y A
Ġprev al
Ġcob ro
Ġmul tim
Ġreco p
ĠestÃ¡ bamos
Ġbar bar
ĠF rigor
Ġadul to
Ġcercan ÃŃa
ĠSm ith
Ġasisten te
til los
Ġdirec tivo
i u
Ġhal lar
ĠlÃŃqu ido
Ġdi abetes
Ġrefuer zo
ĠLo pe
du ce
ĠConf idencial
Ġpos tre
Ġinaugur ado
tiz ia
ĠU ru
ĠD ice
Ġbio d
ĠF P
it ÃŃa
Ġpos tal
Ġrom ano
ĠEN TRE
ĠT ru
Ġmec Ã¡nica
g Ã©n
tempor ada
Ġhab ÃŃamos
ĠDirec to
V ER
Ġ 00
Ġdestac adas
Ġinciden cias
Ġhabi ta
IV ERS
Ġreivin dic
ĠsÃ©pti mo
Ġ $
Ġapro vecha
frad ÃŃa
Ġpar adas
Ġfa una
ĠGro up
ill Ã³n
ĠEjecu tiva
con tin
ĠM Ã¡
ig ma
Ġpresenta ba
Ġc Ã©sped
Ġ //
Ġinteran ual
S oci
cal le
Ġvincul adas
Ġrefle jan
ĠMo da
Ġcoca ÃŃna
T T
ĠL ab
Ġproced encia
od as
Ġpers igue
Ġvisu alizar
Ġconstru ida
ĠEstudi antes
ĠSer na
ĠLuis a
Ġextra c
Ġcan ario
Ġavis os
ica ja
M urcia
Ġ7 7
Ġmen cionar
Ġvar Ã³n
Ġrela tivas
ĠG loria
Ġrecog idas
ID OS
Ã©s imo
ĠB CE
Ġlec ciÃ³n
ĠMi em
Ġn arr
c ron
ig il
ĠMar ca
og ÃŃa
Ġincapa z
er na
ĠV III
Ġlav avajillas
Ġinver tido
Ġfavor ita
t adora
ĠMov imiento
Ġa ve
rÃŃ amos
Ġcertif icados
Ġpul gadas
ĠI m
ĠÃ¡rbi tro
Ġcur va
Ġagu jero
Ġingenier o
Ġinterpre ta
e ado
ÃŃ genas
heim er
ĠÃ©l ite
Ġadap ta
Ġsola pas
Ġaudiovis uales
Ġta pa
id ge
ine os
ĠA za
Ġmul tas
Ġtr on
Ġproteg idos
Ġdistin ciÃ³n
er t
Ġca ÃŃdas
Ġbenefici arios
den as
Ġhi p
Ġadop tado
Ġacer camiento
ĠN er
tx i
Ġau tos
Ġarti culo
Ġtrans curso
Ġconj untos
ĠLo zano
ĠIb Ã©rica
Ġsuperfici es
Ġdis tancias
Ġenveje cimiento
Ġbas adas
ez co
ĠT ech
zco a
tor ce
Ġmales tar
? ".
Ġderiv adas
Ġdese e
Ġsus cep
ĠCaball eros
J os
wa gen
Ġdese ado
ĠConse jero
Ġresul te
ĠDu que
itar iamente
Ġedi toriales
Ġca ta
Ġtras era
Ġliqu idaciÃ³n
Ġproduc ciones
Ġenv iÃ³
Ġpr ÃŃncipe
Ġch inos
ĠP ok
Ġpas amos
ĠCa pa
Ġrenov ado
Ġinter venido
Ġco financi
IF A
ĠB ib
Ġconf ron
ĠC le
Ġrespon den
Ġveg etales
t m
Ġcal entamiento
ĠN ico
Ġs lo
Ġinfrac ciÃ³n
P e
p ell
dal ena
Ġjuz gar
popul i
Ġinver n
Ġpos tu
Ġneg Ã³
Ġcorrespon da
Ġlav adora
Ġembaj ador
Ġges tora
Ġactiv ista
Ġenfer mo
Ġg re
Ġrad icales
Ġdej aba
. Â»
ĠQu ÃŃm
Ġsus crito
gan tes
ĠCam br
Ġaloj amientos
h enda
Ġfer ias
no c
ĠT A
Ġrec rea
Ġdecir lo
ĠCon gresos
B us
U A
Ġecol Ã³gico
ĠDÃŃ ez
ĠV ers
Ġbon itas
Ġhab lo
ĠprÃ¡c ticos
Ġdef ra
Ġla terales
ĠUnivers o
Ġpa tente
Ġcob ran
Ġarre p
Ġcan ad
Ġinstitu cionales
ĠT ron
Ġcu pÃ³n
Ġpropon en
ĠResul tados
Ġactu aliza
ĠCon cha
Ġapar entemente
u ga
Ġcrea tiva
Ġcorpor aciÃ³n
Ġaprovech amiento
ES TI
ĠG ay
ĠquÃŃm ica
Ġcom and
Ġalberg ue
Ġpla cas
Ġconec tado
Ġjef a
R ec
6 4
ĠB oy
Ġ199 3
g na
Ġ ^
Ġinterna utas
Ġim primir
ĠW ol
ell era
ĠAn tÃ³n
ĠP unto
Ġincorpor ados
! "
ER M
Ġam able
ĠEn tra
ĠSeg uros
Ġur gencias
Ġdeber ÃŃamos
Ġdetal lada
ĠP ep
ĠespecÃŃf icamente
Ġc Ã³digos
ws er
Ġdirig iÃ³
Ġsus tra
Ġnoso tras
Ġ197 8
ĠArro yo
Ġextre m
Ġpa utas
Ġhom ici
Ġanterior idad
Ġprev ar
tur ismo
Ġadministra tivos
Ġa porte
Ġvir tuales
Ġfin anzas
ĠClin ton
ĠFer mÃŃn
Ġdefend iendo
Ġinf laciÃ³n
Ġtriste za
Ġvir gen
Ġpier na
Ġbo tas
ig Ã³n
ĠGR UP
ĠAnun cio
tz ale
7 2
ĠMus ical
ĠR as
s ÃŃ
Ã¡s tica
Ġsub ter
Ġexped iciÃ³n
ĠReg ÃŃstrate
Ġmonum ental
ĠPar do
k ul
Ġlla ves
Ġcere bral
X X
Ġapor tando
ĠR ay
ĠA ula
Ġcomun itario
Ġpas tel
Ġca pas
hu ana
ĠPe la
cran ia
ĠIN D
Ġencuen tren
ĠV ista
ĠAr rimadas
Ġmon asterio
ĠjurÃŃd icos
Ġatend iendo
Ġmin erales
Ġaj ena
Ġlec turas
H O
ĠT j
Ġre an
Ġpregun to
ĠTorn eo
fec to
tic ano
Ġvertic al
in ando
Ġven til
C ul
I s
Ġcons ola
san chez
Ġfis c
... ).
Ġa ur
ĠLe tizia
Ġse mi
Ġexpl or
Ġdis puesta
Ġpref ieren
ÃŃ l
Ġcine asta
Ġpaque tes
Ġan ualmente
ĠBus car
Ġjeje je
Ġadecu adamente
ti ces
Ġver Ã¡n
Ġsus tancia
Ġta xi
Ġdon aciÃ³n
l amente
o a
Ġfal tar
Ġcompor tamientos
Ġâ ĸ
Ġsuper an
zar ote
d etermin
Ġ( @
Ġdemostr Ã³
Ġital ianos
ob os
Ġmodern as
Ã± Ã¡n
ĠPu jol
ĠTorre lavega
w ell
Ġconce b
Ġdesaf ÃŃos
Ġbom bas
is s
Ġllor ar
An dal
Ġfe ed
Ġenca je
5 4
rec emos
el ia
Ġrobo t
Ġregistr ar
l ib
Ġ( '
ĠActu aliza
Ġgri pe
Ġaconte cimiento
ĠOl iv
Ġentend imiento
am ado
Ġfamos as
ĠJu ana
Ġm ide
Ġva por
Ġas ilo
Ġconsigu ieron
Ġan to
ĠAy untamientos
Ġr icas
ĠRena ult
ĠP ay
ĠL L
Ġgus taria
Ġfin alizaciÃ³n
ĠEs cal
Ġexten sa
ĠRa cing
ks wagen
ĠA un
ĠM ob
Ġdetermin a
ĠNatural eza
ĠSem inario
Ġefica ces
Ġca tÃ³lica
Ġintegr ar
Ġest n
ĠT os
ĠPS E
AM OS
Ġquer ella
Ġcolabor ador
Ġtelef onÃŃa
Ġplante an
Ã¡ menos
ĠME J
Ġfortal ecer
ĠJ x
Ġapl icado
CI S
Ġdiscu tir
Ġreivind icaciÃ³n
Ġproto col
ĠDe tec
Ġpar cel
Ġdesplaz amientos
Ġbusc adores
ĠDirec torio
Ġna cer
Ġul tima
tic s
ĠS w
Ġvis itan
EN S
Ġmover se
Ġmuer e
G AR
Ġdel icada
Ġfi anza
Ġcuadr ado
Ġvia ja
ien d
Ġra cha
Ġposib il
Ġbl ind
Ġcambi an
Ġg adi
Ġt ÃŃm
do le
Ġprefer ido
Ġdeb ilidad
Ġafi cionado
Ġco j
Ġres ign
Ġejecu tiva
Ġdedic adas
Ġpan car
Ġconf iar
Ġrepro ducir
ĠGra ciosa
ĠCam biar
Ġreivind icar
Ġespec tro
C AR
ĠPar te
ec Ã©
ĠSal e
Ġaband ona
ĠmÃ¡xim as
Ġcre encias
ĠGuer rero
Ġmor ada
tiz ados
Ġcontra tado
Ġlim itaciÃ³n
ĠSe is
ĠSer ena
Ġabs ten
tÃ¡s tro
Ġ--- .
Ġsan itarias
Ġcelebr arÃ¡n
Ġped ÃŃa
ĠRom Ã¡n
ENT OS
Ġconduc tas
Ġanal istas
Ġneces ite
Ġ7 1
ĠEn horabuena
Ġexpres iones
ĠArt ÃŃculos
Ġactiv istas
ich os
Ġab arca
ĠB ell
Ġmis iones
ĠI mÃ¡genes
Ġentr aron
Ġtitu laciÃ³n
ĠA cer
Ġpropon emos
c ÃŃ
Ġbod egas
Ġmemor ias
Ġdesf avor
Ġconsol idar
ĠAl ca
Ġreal icen
Ġin undaciones
Ġinvestig adora
Ġexper ta
ci udad
Ġcons tantes
Ġcomple tas
Ġretir ado
ĠMu cho
Ġacome ter
las encia
Ġex tr
ĠIber drola
si empre
Ġ8 2
Ġrespec tivas
Ġencar go
Ġvalenci anos
Ġfuncion e
Ġestu ve
Ġrespec ta
i tis
Ġp eces
Ġsab ores
d ec
Ġs tand
x is
IDAD ES
Ġdona ciones
ĠÃŃn dices
Ġexpul s
Ġorden aciÃ³n
. ).
l ing
Ġdesplaz amiento
da f
Ġcomerci antes
ĠEmp ez
cu ito
Ġep id
Ġcentrocam pista
ĠsÃ©pti ma
Ġconcep ciÃ³n
Ġmus cular
Ġp ido
Ġpar lamento
200 6
Ġreun irÃ¡
UN A
ies en
Ġrecibir Ã¡n
in Ã³
6 2
Ã¡ndo les
Ġadvir tiÃ³
Ġh alla
Ġatrac tiva
c Ã©
Ġadmi tido
quer ido
Ġmedioamb ientales
Ġma ta
Ġcur s
Ġllam o
Ġpen ins
Ġafirm aciÃ³n
Ġcris tales
ĠMul timedia
Ġmanten ga
Ġvera cidad
ĠF ed
-------- --------
Ġdispu tarÃ¡
ad erÃŃa
laz amiento
b Ã³n
ĠL y
ĠJus to
Ġpas ear
Ġdecir le
ÃŃ geno
ĠkilÃ³me tro
Ġv ÃŃs
ĠN ier
ĠH onda
Ġapete ce
Ġres uelto
Ġinclu irÃ¡
ĠGal lar
Ġhar ina
ĠK ing
ĠÃºlti mamente
v ersiÃ³n
Ġdescon oc
ĠOr igen
D UC
Ġa eron
S ol
ĠPue bla
ĠLatino amÃ©rica
Ġconserv ador
Ġdes obed
us ieron
Ġprop uso
utr iciÃ³n
Ġposi tivas
Ġre lo
TI VA
per tura
Ġpose en
ĠMi ami
Ġad misiÃ³n
al ta
Ġd aban
Ġcicl istas
ca t
Ġcruc ero
ĠGol f
Ġapos tado
L aren
ĠS port
ĠautomÃ³vil es
e do
Ġpara ÃŃso
ĠEstre lla
ĠCon tamos
D Ã³nde
O n
ĠW il
Ġbo tellas
Ġinf lam
Ġhom olog
C ol
Ġa zar
ĠpolÃŃ gono
ĠAerop uerto
ĠÃį n
ĠTerri torio
ĠtÃºn el
Ġa tas
n ada
ĠpolÃŃ ticamente
Ġges tos
Ġgu ÃŃas
Ġpas illos
Ġso Ã±
Ġcorpora tiva
Ġcin es
Ġdecis ivo
K A
Ġprecis ado
ĠD A
Ġconstruc ciones
Ġfund ada
Ġtendr ÃŃan
opin ion
ĠO TAN
ĠS EC
Ġpresen cial
Ġan alizado
Ġgaranti zado
ĠInterna cionales
Ġdispu tar
Ġreflex iona
Ġazulgran a
ĠtÃŃp icos
ĠRed acciÃ³n
Ġcap tura
ĠT EC
ĠA us
Ġpas tor
Ġins cripciones
ĠMov ilidad
ĠMa ur
D ÃŃa
ĠLeg isla
te ur
ĠOpin iÃ³n
Ġapar ecido
ĠP icas
Ġre pÃºblica
Ġvir al
ie bre
ĠV IDA
Ġpart ÃŃculas
Ġelimina toria
5 3
ĠB ul
ĠTi tu
Ġrecor re
Ġcontinu amente
Ġco gn
ĠA da
D is
ĠEs panyol
Ġo posiciones
ĠM S
ĠL ola
cu bierta
ĠJard ÃŃn
Ġb ando
Ġproduc tora
Ġemerg entes
tegr amente
Ġperio dos
Ġdisminu ir
Ġan gus
Ġh aremos
Le Ã³n
ĠBos que
Ġnecesita ba
ĠA F
Ġse tenta
ĠmÃŃ tico
Ġvideoj uego
Ġmascul ina
ĠS ON
Ġimpor tan
Ġconv ierta
Ġex puestos
g g
Ġatrav iesa
Ġ ÃŃ
ac tiva
ĠJer usal
ĠSan ti
tron omÃŃa
ciden tales
Ġampl ÃŃa
Ġ Ð
Ġfavor ece
Ġmur ieron
ĠT ema
Ġs illas
ĠPo wer
Ġsub mar
l ismo
Ġescal eras
Ġque den
j ur
ĠBol ivia
Ġti ros
Ġra yos
ĠPsic ologÃŃa
Ġ8 4
Ġcritic ar
Ġto me
Ġ9 1
Ġrenta ble
Ġaguan tar
ĠJ OS
Ġar ra
fer encias
ĠV elas
Ġse amos
ĠNier ga
ĠA bo
ti ta
Ġpag ando
ad el
ĠA man
Ġab ono
Ġhos tel
Ġpu entes
ĠaÃ© rea
ĠR el
Ġdar les
ĠPERS ON
ĠT IEN
Ġembara zada
S oy
Ġadel anto
land Ã©s
AN OS
Ġsosp echa
ĠautÃ³ c
th an
ĠV ersiones
Ġpre cep
Ġquir Ãºr
Ġsmartph one
f ol
m icos
ĠEntidad es
Ġcontrol ado
Ġr Ã©
Ġfuncion alidad
ĠS ede
Ġper if
ĠCoci na
ĠCara cter
Ġsitu ados
Ġten siones
Ġan telaciÃ³n
Ġmul tid
ĠcontinÃº as
Ġha ciÃ©ndo
Ġges tor
ĠA mp
v oc
Ġconced er
ĠAf gan
Ġes car
yo utube
ĠMir anda
Ġconf irman
Ġinmin ente
Ġgran ad
ĠAr ena
Ġos ci
Ġe Ã³l
I r
ho o
Ġres tantes
ĠMar te
Ġpres tado
Ġpro posiciÃ³n
Ġescrib iendo
ed ero
ĠRog er
Ġextran jera
Ġinter ro
Ġ9 2
Ġdi ariamente
Ġin Ãº
Ġsab Ã©is
Ġes til
Ġfinal istas
I AL
po le
Ġautor iza
Ġsensibil izaciÃ³n
Ġrecal cado
ĠAu x
G aste
B C
Ġdestac ando
Ġmercan til
Ġfran quicia
ĠG Ã©n
Ġse p
5 1
ĠWilliam s
Ġdocumen tales
Ġv ice
Ġreserv ar
ĠCl ima
Ġinal Ã¡m
Ġcoci nas
r in
ĠL ED
cal d
ĠreÃºn en
ĠpÃ¡ jar
Ġparcial mente
ĠUP N
Ġre ed
Ġexig ido
Ġmic rÃ³
Gaste iz
Ġasesina tos
ĠSpa in
l ido
Ġpe trol
Ġgalard on
ĠSitu ado
Ġan da
Ġrepu taciÃ³n
ĠacadÃ©m icos
Ġincre mentado
Ġk ilo
ĠRue da
Ġlic enci
Ġexci tante
Ġmol d
cu te
Ġes tiv
Ġasoci ada
henda kari
ĠtÃŃp ica
a gu
S omos
an gel
Ġmoder ado
Ġescal era
ĠFe brero
Ġdiv orcio
Ġ1 000
Ġhuman itaria
ĠBartol omÃ©
ĠVol un
ĠE van
Ġba terÃŃas
ĠC res
ĠL abora
Ġaban ico
lo cu
Ġabor da
E FE
ĠImp erio
ĠHerman dad
Ġver ificaciÃ³n
ĠR ies
ss ss
ĠTo p
ĠCon tr
Ġinm or
ag ro
ĠEscol ar
ĠCic lo
u ci
Alm erÃŃa
ĠGuardi ola
ens ible
Ġbal cÃ³n
ĠVer ano
Ġamb ien
m undo
Ġd Ãº
par te
ĠAgru paciÃ³n
xim a
ĠParti cipa
Ġind eb
Ġimple mentar
Ġim posiciÃ³n
Ġhor ror
cho ol
Ġefici entes
Ġweb cam
ĠCon cepciÃ³n
OR M
Ġgras as
Ġpor tales
Ġenm ienda
Ġavan zando
l ista
OL U
I U
ĠAri as
ĠSE M
ĠC ord
Ġingenier os
ĠAl ianza
Ġmari huana
ĠMag dalena
ĠMU Y
ĠConsell eria
ĠEnferm erÃŃa
Ġl on
are la
nis tÃŃa
ent ÃŃn
ĠAb ierto
p ios
Ġtr Ã¡g
ĠRe alizamos
ĠPan amÃ¡
' ;
G ir
Ġre tor
Ġtras torno
Ġesta fa
Ġdetal la
ĠT ajo
Ġfantas ÃŃa
ĠU crania
tic or
Ġen te
Ġar rend
ĠUru guay
Ġtur ista
ĠFrigor ificos
Ġpermitir Ã¡n
ĠclÃ¡us ulas
ĠFuen labrada
Ġhipo tecar
ĠCO PE
Ġg estiones
Ġobs es
Ġbal ear
Ã¡ frica
Ġprofund izar
p to
Ġproxim idad
Ġcon gresos
z or
ĠMed iante
Ġes paÃ±a
ĠClas es
Ġte mÃ¡ticas
Ġb ul
Ġllev ada
ten ario
cad en
ĠB eb
te za
ed icto
Ġart ÃŃsticas
Ġauto movil
Ġimpu tado
? ...
. ;
9 8
F ES
al go
Ġ11 0
Ġintelec tuales
al ÃŃa
ib a
esp ana
Ġcompeti tiva
Ġexperimen tando
Ġ199 1
Ġan cianos
ĠIngenier os
ĠCientÃŃf ica
mo ciÃ³n
Ġextre madamente
d in
ĠPer manente
ĠH y
Ġenga Ã±
a cia
Ġutiliz adas
ĠDo Ã±a
ĠEm baj
Ġs oc
Ġmer cad
Ġmol es
un ar
Ġa mo
Ġaprovech Ã³
cr imina
Ġsuces os
Ġpon ÃŃa
Ġasal to
L le
ĠdiseÃ± adores
ĠGalle go
Ġsem illas
d onde
Ġsug iere
Ġanti ci
Ġpopular idad
tell Ã³n
Ġbaj ado
Ġabo ga
ĠM ila
Ġgalard ones
aj al
P ON
Nav arra
Ġemp eÃ±o
entar ia
ti er
ĠMac ron
ĠD ic
ab ras
tr icas
Ġdefend iÃ³
Ġob esidad
H uelva
ur g
ĠP ino
allado lid
Ġfuncion ando
Ġsubray Ã³
ĠUn icaja
ĠhÃ©ro e
un t
ob s
Ġmanio bra
Ġb ono
le a
Ġdesarroll Ã³
Ġanal ÃŃticas
Ġcondi cion
g am
Ġampl ias
ic ara
Ġdes vela
Ġposi cion
Ġdem on
Ġactual ices
Ġden s
ĠGRA TIS
Ġdi alo
Ġconsider ados
b all
Ġconsider e
h orra
id Ã³
ĠeconÃ³m icamente
Ġges tores
ENT ES
Ġescas o
Ġencu es
ĠA genda
Ġzapa tillas
Ġb uro
Ġen ci
Ġm em
Ġmedi aciÃ³n
Ġtrabaj Ã³
Ġn on
id ent
ĠMar quÃ©s
Ġh ard
ĠEcon Ã³mica
Ġc itados
Ġmed allas
Ġcoleg as
Ġplan tillas
ĠD or
pro yecto
Ġme ga
ec os
i cion
Ġtr ajes
Ġcampe ones
Ġa ragon
ch ando
Ġper u
Ġtana torio
Ġs tar
ĠBM W
7 3
ĠES C
Ġentre gas
ĠLe tras
Es tÃ¡s
Ã¡nd ome
Ġd ados
bro wser
Ġro tura
ĠNav as
Ġsa co
\ /
ĠMar vel
j ug
Ġorgullos o
ian zas
Ġexp and
Ġconf usiÃ³n
Ġesque ma
ĠR ED
ĠVol kswagen
Ġrecib ida
br icas
Ġac ar
Ġclas ificado
ues tro
ĠDirec tora
Ġ198 9
Ġes tir
F u
cor por
Ġcuer da
Ġv aria
Ġexter nos
ĠO br
Ġvideo clip
ĠÃ¡ cido
Ġh uesos
Ġp ez
Ġha gas
ell i
Ġdesm ante
Ġfich ajes
Ġcer do
Ġpublic an
Ġatend ido
Ġd ÃŃg
ĠMon ts
ĠÃŃn tegramente
di tos
ĠEd ificio
Ġest ÃŃm
Ġesc Ã©n
Ġmom ent
Ġdeci da
Ġpoderos o
Ġcontr ola
rie to
ĠInstal aciones
ĠtrÃ¡ns ito
ĠVar gas
iki pedia
Ġop tado
6 3
ĠSala zar
h onda
Ġcomp u
Ġpon encia
Es tÃ¡
Ġfra ud
ĠG PS
tiz antes
Ġcolum nas
Ġorganiz adas
end or
Ġreiter ado
Ġc Ã³n
ĠInvesti gaciones
Ġne gras
Ġdes bord
car se
Ġrecon stru
fran ca
Ġman dos
ĠC ajas
tu osa
Ġref iero
ĠsÃ¡ bados
ĠDi ez
Ġro ca
Ġpea ton
Ġsacr ificio
ĠdÃ© cima
Ġv imos
Ġco hesiÃ³n
Ġcomun itaria
pro fes
er no
ER RA
ven tar
z i
Ġatrac ciÃ³n
Ġadj unto
Ġr ond
ĠJ Ã³venes
Ġver Ã¡s
Ã³ f
Ġarquitec tos
Ġpretend ÃŃa
u gu
Ġtu ya
Ġcre ciÃ³
Ġagre gado
S o
Ġabon ar
ĠVil lam
tÃ© tico
Ġcatal og
Ġconseguir lo
es pa
ĠCE O
Ġaleg re
ĠW est
ĠR ayo
Ġconcil iaciÃ³n
Ã¡ til
fi tr
ĠS iete
Ġpreocupa ciones
ĠN ASA
ER IA
ec erÃŃa
Ġrobo ts
ĠBas ket
Ġbara ta
EN O
av en
ĠLen gua
Ġhum ilde
ĠI D
olÃ³g icamente
W eb
Ġemprend imiento
ĠA gosto
G AL
Ġch ir
Ġdiscul pas
ĠCam ar
Ġimplan tar
Ġnar iz
Ġwhat browser
Ġclas ificados
J uan
ĠEstrateg ia
ĠSand ra
Ġvenezol ano
Ġpres ion
Ġ8 8
Ġjustif icaciÃ³n
segu ida
Ġir respon
pre cio
Ġfil a
ĠS erÃŃa
ĠPor tada
5 8
ĠResul ta
Ġtradu ce
ob laciÃ³n
Ġesta tales
iz arÃ¡
Ġsencil los
s ica
Ġselec tivo
Ġm io
Ġpre temporada
Ġdepor tista
Ġa zo
ĠPol o
G AN
ta je
Ġinser tar
Ġpla tÃ³
ĠLle ga
Ġpor tadas
as iÃ³n
Ġprecip itaciones
S L
z aron
vers aciÃ³n
ĠPe que
ĠH arry
t te
par tid
Ġpens Ã©
ĠM IN
Ġan tis
Ġpronunci ado
Ġabr irse
cald e
Ġver ti
Ġestup endo
ĠProgram as
Ġrom anos
ĠAr ran
ĠEn ero
cier tos
Ġresid encial
Ġceb olla
Ġa ba
Ġproporcion an
cam pe
ĠB ab
Ġholan desa
Ġcomple tos
Ġcal cular
Ġer mita
Ġenfren tamientos
ĠCol abor
ĠXI V
ĠU D
Ġfin a
ĠEs ther
Ġtoler ancia
ĠS imon
Ġgen Ã©tica
poli tica
Ġque j
ĠG AR
ĠAnd orra
Ġinterrump ir
g ÃŃa
onos ti
Ġllev aban
Ġende ud
uc k
Ġoscu ra
ĠvÃŃn culo
ĠGu ad
om ba
Ġpresent adora
Ġpreven tiva
Ġhim no
Ġd uer
ĠCol Ã³n
Ġlav ado
r enda
ĠÃģ lex
Ġcor do
Ġcir co
Ġsan gu
ĠCor tÃ©s
enti do
D ES
Ġpin cha
u ts
Ġhallaz go
Ġborr ar
Ġmon edas
Ġvari ada
ĠRe villa
Ġpen itenci
f ÃŃn
ĠT oy
graf ÃŃas
ĠManzan ares
Ġaf oro
Ġsan eamiento
ĠEsper amos
Ġtra tÃ³
ĠT ienen
ĠD ay
Ġverdad eros
Ġgratu itas
Ġrecib o
ĠCarras co
Ġproble mÃ¡tica
Ġpa pa
Ġcoti za
ĠM enos
ĠIs idro
er ta
Ġreform ar
7 1
ĠÃģ r
Ġeleg ancia
Ġtitu lada
ĠGab inete
Ġe cu
Ġ ...
ĠE uros
Ġo las
Ġnov enta
Ġpremi ados
ĠCar ibe
ĠCues ta
ĠBre taÃ±a
ĠPor t
ran d
qu ismo
ĠMil itar
cis iÃ³n
uel le
sen al
ol anda
s ab
eg an
lam o
ĠA re
Ġnewslet ter
Ġoport uno
ĠSo le
Ġproteg e
Ġanim ado
un tas
Ġconoci Ã³
ĠA QU
ĠC ele
ĠT EN
ĠChar les
el sea
Ġforma tivas
Ġnum ero
ĠLo terÃŃa
ĠSa udÃŃ
Ġdefec tos
ĠCo in
Ja Ã©n
in er
Ġfach adas
Ġpre l
ale jo
gul lo
ANT ES
Ġocur ra
Ġus ados
Ġhu Ã©sped
Ġlibr erÃŃa
ĠF ru
ĠCon cello
Ġal godÃ³n
Ġorden ado
cil lo
Ġcompr adores
ĠP L
cu er
Ġtrans mite
re querido
Ġdipl oma
Ġrom p
ĠJ ones
Ġ zar
ON ES
Ġdesarroll ados
ĠBra vo
Ġaprob ados
Ġinfec ciÃ³n
ĠVelas co
ĠI C
ĠÃ³p tica
ĠINF ORMA
Ġpor tavoces
Ġpr incesa
Ġrod illa
Ġsupermer cado
Ġefec tividad
Ġconcienci ar
Ġprohib ir
Ġin tim
Ġsur gen
Ġm ero
Ġsupon drÃŃa
ĠAmb iental
ĠAndre u
Ġfum ar
ĠSan cho
ĠO peraciÃ³n
Ġtram itar
ĠMetro politan
om ar
ĠD anza
Ġimper ial
Ġdirig irse
Ġrod ean
Ġargu men
Ġterri toriales
Ġun ilateral
ĠO x
ĠA di
Ġases ores
gul ares
Ġpantal ones
as is
ti ga
ven iente
ĠS oraya
u th
ĠbÃºs quedas
Ġcau tiv
ĠPa txi
bi to
g aba
Ġestro pe
Ġarm ado
Ġintercam bi
z y
tis te
ĠIn ten
Ġte orÃŃas
Ġc il
" ?
Ãį DE
iv era
Ġbol as
Ġdefra ud
O s
ĠEnseÃ± anza
Ġal a
kul lu
Ġoscur idad
ÃŃn eas
enti na
ĠEmpres arios
ĠESPA Ãĳ
Ġmil en
Ġgobier na
In ter
qu o
Ġgu ionista
Ġub icaciones
Ġte les
Ġelev ar
Ġsent ÃŃa
ĠCh am
gor it
Ġbancar ias
Ġcamp amento
ĠC eb
ĠPir ineos
Ġcontra c
Ġfal tas
Ġconvir tiendo
Ġconsider arse
on mano
Ġsin ton
iver pool
ĠQu ienes
ĠJuven il
Ġde vo
al s
Ġtum ba
ide portivo
Ġval idez
IS TAS
Ġisrael ÃŃ
ĠBuen as
9 3
ĠC ora
Ġenf oc
Ġremi tido
in f
Ġcons ecuciÃ³n
em pres
ĠZ an
Ġpa ck
Ġcompeten tes
Ġbol so
Ġle o
ĠB ase
P U
Ġelimin ado
Ġllev arÃ¡n
Ġoper ar
Ġ8 3
Ġconvertir Ã¡
Ġtin ta
Ġbac terias
Ġajus tar
iz aron
Ġoptim ismo
s olo
tim amente
Ġe gip
ĠF lamen
Ġhermos as
" ),
ĠAfgan istÃ¡n
ĠF IFA
Ġpa tin
eno v
Ġdar te
Ġestad ÃŃstica
C reo
ĠPar lamentario
Ġpreocup ante
IT OR
Ġconserv adores
Ġjard in
Ġestup enda
Ġh ones
Ġemocion ante
Ġmar can
Ġmil agro
20 20
Ġprevar icaciÃ³n
ho use
Ġla go
Ġjue za
ĠB ir
ER OS
Ġagr ÃŃcolas
ĠVecin os
Ġglob ales
ĠNi Ã±os
Ġsobre pas
Ġ16 0
Ġal iado
ĠGRUP O
ar ti
Ġinnov adora
ĠdÃ© biles
Ġro t
ĠApro vech
Ġder rum
Ġg lor
ĠTrans parencia
, "
Ġaplic ando
Ġcontamin antes
Ġtom ada
Ġcardio vas
Ġreemp la
Ġder bi
id era
ver dad
ĠOf recemos
Ġvia jero
Ġmex icana
Ġle v
Ġdomin gos
Ġbon itos
daf one
Ġin tes
ĠCons erv
ĠB Ã¡s
Ġpeligros a
ĠHer ria
Ġnavar ros
ĠR y
Ġcul tiv
Ġvein ti
Ġactiv ado
P C
uel ven
Ġr amas
ar to
Ġases inado
Ġapos tando
Ġclas ific
Ġos ten
Ġpa Ã±
Ġapun tar
Ġse gn
Ġr isas
ĠEs cor
ee k
Ġtraslad Ã³
val o
ac Ã³n
Ãī N
Ġsim p
Ġestable cida
Ġta pas
ĠPi quÃ©
Ġmedi Ã¡tica
tu aciÃ³n
Ġch or
Ġto l
ĠEs crib
Ġ9 8
ĠVa ticano
Ġindic ando
ĠC y
ti Ã³n
ĠSig lo
ps ia
p ensa
Ġcompeti d
ĠAg ro
Ġcristi ano
ten as
ĠDemoc racia
ĠE che
ĠLin ares
ĠCor ona
Ġcompartir lo
ie la
Ġir an
Ġdescub riÃ³
Ġpresen tando
ĠA mpl
ĠA ur
ĠLan zarote
Ġdescon ec
Ġdegus tar
esti m
Ġman zana
Ġeng lo
Ġrecord ando
om er
g reg
Ġca tÃ¡stro
ĠVI H
Ġloc alizado
Ġven go
Ġelabor ados
o C
o f
ĠIndepend iente
Ġfom en
Ġpeligros os
ĠMc Laren
Ġfes tivo
Ġvisi tando
Ġconsid ero
Ġped a
Ġ198 0
Ġentre gÃ³
ĠZ ara
ĠHo gar
Ġdese quilib
ĠTrans portes
Ġcan on
D eb
Ġpromo tores
ĠCr Ã³nica
Ġdedic Ã³
Ġvincul ada
Ġexter no
Ġprogram ado
u alidades
ĠFal lece
Ġes par
que te
ĠQuin tana
ĠE C
ĠAN D
Ġro jas
p ido
ĠLic encia
Ġa tiende
Ġconf id
Ġpreserv ar
Ġnega tivas
ĠSol er
es tra
Ġcorto me
Ġestim ado
ĠFlor ida
Ġ8 6
ĠV aya
GU A
ĠT itan
Ġvig entes
Ġganad erÃŃa
Ġcar rito
Ġconcen traciones
Ġs tre
Ġ19 36
rÃ¡ ul
Ġrecord amos
ĠCAS T
Ġan fitr
H E
Ġcompens aciÃ³n
ĠM endo
Ġag il
per cib
ĠSol id
ĠP ic
Ġah orros
Ġhistori ador
Ġp ilas
Ġsegu idos
Ġdeb ÃŃan
Ġsus crib
icios os
Ġc ig
n av
Ped ro
Ġe itb
ĠL ive
Ġentren ar
Y O
ĠCON TRA
Ġdetermin ante
ĠMo ham
Ġinvestig ados
uel tos
Ġnucle ares
Ġsign ific
ĠNor uega
di que
Ġgrab ados
r erÃŃa
ĠCer ca
Ġlar g
tÃ³r ica
Ġingres ar
ĠLib ia
Ġpercib ir
Ġestim ul
cen tr
Ġr amos
Ġcas ino
ol is
Ġtra uma
ĠPl us
ĠSal va
ĠPolit Ã©cnica
Ġzan cad
qu adra
ÃŃ lica
Ġcre ÃŃa
A quÃŃ
ĠC ela
id urÃŃa
ir os
ĠÃŃn teg
Ġsenti mental
ĠT OR
Ġsa cu
ĠElec ciones
Ġdec ÃŃan
ĠAr ti
ili ares
Ġasegur ando
ĠDis pone
ĠaÃ±ad iendo
Ġdirig ÃŃa
Ġmedi ano
Ġc Ã¡p
ĠPre par
ĠInspec ciÃ³n
Ã¡ logo
ĠEs cri
Ġcarn aval
Ġhabr Ã¡n
Ġasturi ana
Ġtar ta
ĠW ood
Ġimple mentaciÃ³n
Ġmedi Ã¡tico
ED IA
ĠPar is
Ġestudi ado
Ġqued Ã©
Ġme tas
Ã± iz
ĠEn contr
Ġdej es
ent ÃŃa
an ces
Ġne u
ĠCom isiones
ĠCam ps
N e
Ġambi ciÃ³n
Ġseleccion ador
Ġajus tes
Ġaumen tan
Ġterra zas
Ġprogres iva
lan tes
Ġc enso
ĠnÃºc leos
Ġca en
ĠUnivers itat
OO OO
b eda
Ġpar rilla
Ġimpul sa
-- ,
ĠL and
Ġvengan za
Ġc is
C Ã³rdoba
Ãºd anos
Ġcopi ar
ĠQu im
ps ol
Ġvo ta
ue bl
Ġesc la
Ġliqu idez
Ġmagistr ados
Ġsitu Ã³
Ġca torce
Ġsolici tada
Ġadelan tar
ĠFer rol
Ġetc Ã©tera
!! !!!
Ġexclus ivos
Ġprodu jeron
Ġinspir ado
ĠD onde
Ġacumul aciÃ³n
g ob
b ri
Ġesp ada
eci r
ĠTex to
c m
Ġl lo
ĠB O
Ġse quÃŃa
Ġaux iliar
Ġabur r
ĠCOMUN ICADO
ĠsÃº per
Ġelec tro
Ġcre aciones
f ix
Ġma tices
Ġp gina
Ġima gino
ĠVir tual
Ġpa tas
Ġdi etas
idad a
ĠF lash
Ġveter ano
r ica
ĠBa t
ĠI G
Ġhorizon tal
Ġrefuer za
r adas
Ġdesempe Ã±o
Ġub ica
G al
Ġfabr icar
ĠCor r
Ġapoy ando
go Ã±a
Ġrecib idos
Ġcar ece
Ġ7 9
ar os
ĠquÃŃm icos
Ġpes etas
Ġotor gar
ĠmÃ¡g ico
Ġmi tos
Ġponer me
ĠRe pas
Ġtorne os
ĠAn al
Ġnorteameric ana
Ã³r mate
ord s
Ġutiliz Ã³
Ġconstitu ir
ĠRob in
Ġsan ta
Ġabund ante
ĠG od
go o
Ġ12 5
pol o
Ġtre m
Ġestruc tural
Ġbio grafÃŃa
Ġacre edores
men tas
o va
u tor
es is
Ġsim bol
Ġin ac
ĠV izcaya
Ġcafe terÃŃa
Ġinterfa z
ĠI X
Ġconsecu tiva
Ġaden tr
ĠS MS
Ġte clado
Ġat letas
ĠOfer ta
per as
Ġprov iene
ENT RO
Ġll Ã¡menos
Ġaumen tÃ³
ticor rupciÃ³n
Ġmen cion
Ġsub je
Ġb orra
Ġprivi legio
ĠT erra
Ġsuced en
n el
Ġfurgon eta
ĠProduc to
ĠAn g
Ġdesp ide
im ia
ta Ã±o
ĠsÃ³l ido
ano va
Ġ197 7
ĠEntr adas
Ġi OS
Ġparcel as
Ã³g icamente
ĠBos ch
Ġregul ares
par tito
Ġ8 1
Ġmol esta
ĠCh i
A G
Ġta quilla
Ġescuch ando
Ġord inario
ĠN Ãºmero
Ġindis cu
ĠEL EC
Ġocta va
Ġdemoc ra
Ġdes cribir
Ġcompl icaciones
Ġelector ado
Ġc lam
Ġform Ã³
ĠP ri
Ġra cional
ĠCro acia
Ġobten ida
Ġa jo
ĠIntegr al
ĠUr kullu
ĠVal entÃŃn
Ġlec ciones
um as
Ġedi tora
Ġha ci
ĠF res
Ġprepar an
Ġll enos
Ġes clar
Ġord ena
ĠConse jos
Ġr usos
Ġresca tar
Ġcompues tos
Ġgeo grÃ¡fica
ĠCab o
Ġimpar te
re la
teri ales
ĠestÃ¡ is
cul tural
ĠInter venciÃ³n
Ġor aciÃ³n
âĤ¬ .
B uen
Ġasi Ã¡tico
d ios
Ġsign ificar
Ġinvers or
Ġdoc encia
Ġelec tores
ĠC OS
Ġal ican
Ġultrader echa
tra jes
Ġs ta
ĠR ecu
Ġinter locu
Ġconf luencia
Ġpal os
fo x
Ġres idente
ĠCR IS
Ġtradicional mente
popul ares
c f
Ġgu iadas
j uez
Ġal usiÃ³n
ĠgÃ©n eros
ill on
Ġesc ru
Ġlo bo
ĠfÃ¡rma cos
Ġre ten
Ġvir tudes
ĠJa zz
poner se
ĠHis pan
Ġvege taciÃ³n
Ġrebaj as
Ġdemostr ando
Ġfil os
v s
i piÃ©
ĠM ec
Ġprivileg ios
is on
Ġdescar gas
Ġescas ez
Ġdeclar ada
Ġpos turas
Ġpud imos
Ġaf luencia
l us
ĠS ime
Ġc ueva
r ista
ĠHa cer
Ġcar pin
ĠCatal ana
ĠO ff
Ġdesa percib
ĠT us
CH O
Ġox ÃŃgeno
ĠLu x
Ġescri torio
ĠS ob
ĠOfre ce
ĠG obier
ĠP OS
ver g
pa tr
ĠEsta ba
Ġpros tituciÃ³n
ĠSha k
gu enos
if ique
Ġgen io
Ġimpu tados
Ġor gÃ¡nica
ĠZ el
Ġe man
Ġg oma
Ġdar ÃŃa
S a
Ġconvirti Ã©ndose
ĠRe psol
Ġes lo
Ġpubl ico
Ġrad ica
Ġaj eno
) -
Ġcam pes
Ġdi Ã³
Ġespeci alizaciÃ³n
ĠE valuaciÃ³n
Ġf ic
Ġ ora
Ġcar os
Ġimpu gn
ĠD IA
ĠJur ado
Ġemple ar
Ġofre ciÃ©ndo
Ġinforma cion
es co
Ġac tÃºan
Ġinf ierno
ĠRespon sable
Ġabsur do
ces is
Ġna cidos
Ġsegu iremos
Ġalquil ar
em bol
id orm
Ġto pe
Ġorganiz ados
ĠA no
n ico
Z aragoza
Ġc ep
Ġargu menta
ĠPul sa
Ġnav idad
ĠF R
ĠC amil
Ġinmedia ciones
Ġingres ado
his toria
Ġpr orro
Ġr iego
ĠPin to
Ġsuper Ã³
ĠDis tancia
Ġgusta ba
es h
ĠsÃ³l ida
ĠEsc uelas
Ġtermin ales
Ġarmon ÃŃa
ĠintÃ©rpre te
Ġpens ionistas
ĠinstantÃ¡n eas
Ġdel im
I MA
Ġganad eros
em i
ĠH ac
Ġdud es
olv iÃ³
ter n
Ġdescon f
vol ta
Ġcoher encia
ĠV egas
Ġaband one
ĠB R
las ka
IEN TE
Ġex ilio
Ġbre v
ĠacompaÃ± an
Ġinolv idable
ien a
ĠI bar
Ġconven cionales
ĠTecn olÃ³gico
ĠV ene
ĠAndal uza
Ġre ÃŃr
ĠP iz
ĠC av
ĠJerusal Ã©n
ĠHos tal
Ġin seguridad
Ġcorr en
P ol
Ġcor ro
Ġayud e
201 4
Ġp im
Ġempez amos
Ġdefens as
ĠSud Ã¡frica
Ġmar ÃŃtimo
ĠPu tin
Ġor illas
g ante
Ġcicl ismo
Ġadquier e
ĠED U
Ġvari ar
enta ble
ci adamente
ÃįDE O
su per
eg al
ĠDispon emos
voca toria
Ġvolun tario
ada honda
Ġcab ida
ĠAr n
Ġtrabaj aba
ĠÃī ste
ĠSa inz
ĠO tegi
in forma
Ġexperim ento
ĠVER DAD
ĠVir gin
Ġtur co
an istas
Ġmon tes
Ġinsufici ente
io terapia
Ġindic ador
is cipl
enci ar
ĠMod elo
ĠV icepres
ĠN OS
H as
ĠD ON
Ġmas ivo
ĠMargar ita
ĠD ÃŃas
ortun adamente
n eces
ĠNuev os
Ġregistr adas
Ġfr eno
ĠBau tista
ĠGru pos
z e
ĠHer mano
Ġpresentar Ã¡n
Ġespeci alizadas
i tamente
Ġal gorit
ĠMa gos
ĠBal les
icis mo
ti es
Ġop inas
Ġerr Ã³n
Ġdesprend e
M OS
Ġperd ieron
ĠCoordin aciÃ³n
Ġopin ar
u rez
Ġrevel ado
ing er
Ġamb icioso
Ġestric tamente
Ġcoher ente
ĠvÃŃn culos
ĠRev oluciÃ³n
Ġprestig ioso
a ci
ce o
Ġregal ar
Ġameric anos
n ea
Ġelabor ada
ĠI ker
ĠMe te
soci al
Ġpen ales
z arse
ed rez
Ġdefens or
h en
ĠcÃ¡l culos
Ġauto pista
ĠSte ph
ĠX ab
Ġsolici tÃ³
ĠSec ciones
gus to
Ġpremi ado
Ġhab ia
Ġconsens u
Ã ¤
Ġrecomend ado
Ġvis tos
Ġrend ir
Ġacostumbr ados
cion ismo
ĠPre cios
icul ares
Ġconten tos
Ġpion ero
Ġdescono ce
Ġpe gar
ĠAb ad
ĠN ev
ĠAnton i
Ġmal lor
Ġcons istente
Ġnerv ioso
G C
ĠD ob
ĠS tan
Ġsacerdo te
ĠEs tar
Ġespecif icado
Ġconf or
Ġprol ifer
lo t
Ġsospech oso
ĠP LAN
Ġanaliz an
Ġcom pone
: -
ĠAb el
Ġmas aje
Ġmar ino
Ġaus teridad
Ġver an
ĠIdenti f
Ġdomin ios
Ġcentr ada
Ġcu ente
Ġitiner ario
ĠvÃ¡l ida
Ġr ara
Ġdese ando
ĠT ir
ĠMer cad
Ġpro gen
in go
Ġenfr ente
Ġv ano
Ġcar nes
ĠG eo
im entos
Ġdispar os
Ġburbu ja
Ġconsecu tivos
Ġdisfru tan
ĠL um
Ġpasa porte
Ġpr isa
ris as
B E
ĠD OC
ĠD ra
Ġrealidad es
Ġdorm itorio
Gir ona
ue ces
ĠWi Fi
Ġlle ven
Ġab uelos
Ġfeder aciÃ³n
ĠPaÃŃs es
ĠMendo za
Ġley endas
Ġcolabor ado
v ales
tur bios
Ġmayor itariamente
Ġpin tar
Ġinquie tudes
end i
vers a
200 2
Ġeter no
H H
ĠK m
k as
ten cias
ĠAr enas
Ġres istir
pa tÃŃa
om ia
Ġpatr ones
ĠCor reos
Ġparticipar Ã¡
Ġinfl uencias
Ġcono zca
ĠCons um
ĠR ita
ĠI M
Ġdar nos
Ġsub en
Ġsub iendo
Ã©s ima
Ġ9 3
Ġrepro duci
ĠSim ple
Ġver ificar
Ġpara je
Ġdoc ena
Ġinvas iÃ³n
Ġincor rec
ĠExpl or
Ġcuch illo
Ġpsic ologÃŃa
Ġcor o
ĠX box
Ġapre cia
Ġj oya
Ġbo x
Ġfron ter
Ġra bia
Ġsus ci
Ġpob la
ti enden
Ġotor gado
L TI
ĠDocu mentaciÃ³n
Ġdepend erÃ¡
ĠLin ux
vi al
Ġpasar ela
Ġg all
Ġlog ÃŃstica
Ġna cion
imen ea
Ġsole m
Ã©r icas
Ġcos tÃ³
ĠI ceta
is tes
Ġre ga
Ġvend edor
pul os
Ġcristi anismo
Ġfil tro
ĠCam paÃ±a
Ġembar caciÃ³n
Ġsatisf echos
du la
j anza
Ġco yun
Ġregistr aron
Ġto mas
ĠTam bien
ĠInter pre
Ġeste mos
ĠC ER
ĠCi U
pi Ã³
Ġemis ora
Ġc obre
determin aciÃ³n
ĠHit ler
ĠGENER AL
Ġse as
Ġan illo
Ġfavor itas
Ġesper anzas
Ġaleg ra
Ġcircu itos
ĠOF ICI
ĠA ro
ĠPue den
Ġsobre cubierta
Ġhom bro
Ġvers os
Ġdis crimina
Ġespl endor
ĠRo que
Ġalma cÃ©n
Ġbo le
Ġdiv ide
cam ientos
Ġliber ales
Ġreestruc turaciÃ³n
Ġacab aron
Ġrepar tidos
Ġinfrac ciones
ĠP isos
Ġle jano
ĠGe org
ph p
ĠMay ores
Ġpsic olÃ³gico
Ġextra cciÃ³n
Ġampli amente
P lan
Ġtern ura
Ġacer can
ĠAd ver
Ġolv ida
all y
Ġconocer se
ĠbaÃ± era
Ġexplo taciones
Ġencla ve
Ġperman ecen
Ġhol andÃ©s
Ġrol lo
Ġad entro
Ġperson alizar
ĠDe ja
ĠP rieto
Ġor ejas
Ġresta ble
ĠF erra
Ġregul adoras
Ġdec ena
k en
mo v
cre tamente
Ġfi abilidad
ĠAN TI
Ġto b
Ġver b
B il
ĠTecn olÃ³gica
Ġmatr imon
ĠOl ite
tud io
ĠBar re
ĠMa tt
Ġmon arquÃŃa
" ).
H er
Ġbrillan tes
ir us
Ġban cario
Ġexplo tar
re f
Ġquer Ã©is
ĠPas a
ĠLe w
Al c
Ġgaranti ce
ĠFun ciÃ³n
ĠCateg orÃŃa
) ...
Ġintrodu cido
ĠE A
Ġres istente
Ġemple a
Ġcenten ares
Ġlevan tado
ĠM ens
ĠArm adas
Ġinv ad
Ġnutr iciÃ³n
Ġingles es
Ġpod cast
se y
ĠL iverpool
ĠTra tado
Ġopera tiva
Ġestatu tos
Ġ8 7
ĠC Ã³
Ġdepend en
ĠTal avera
ies to
Ġpatrimon ial
Ġinnov adores
Ġautonom ÃŃas
V AS
ĠS chool
Ġaragon Ã©s
Ġtu it
l ie
ĠrÃ¡p idos
Ġsosten ido
Ġsof Ã¡
Ġfa cul
Ġmanda tario
ĠE TB
Ġoc cidentales
Ġmed iciÃ³n
ĠR ica
Ġescal ada
Ġtable t
UD AD
Ġinstitu tos
ĠcÃ³ mpl
ĠMar celo
Ġsemin ario
Ġvecin as
ĠF L
Ġch i
Ġvaria ciones
Ġfin cas
Ġcocin ero
Ġzancad illa
Ġ8 9
Ġquer idos
ĠAnti guo
Ġequip ada
pon a
ĠS erra
Ġsecund arios
D OS
ĠRespon sabilidad
t ÃŃsimo
Æ Ĵ
Ġrepe ticiÃ³n
ti empo
Ġenv idia
qui Ã©n
ĠC ama
Ġinm un
Ġincid ido
Ġre habil
Ġtem bl
ĠM ix
Ġexces ivo
Ġgab inete
Ġob viamente
Ġcanad iense
ĠRepres en
Ġb esti
Ġf lash
Ġtor res
Ġinv itamos
Ġsolv encia
Ġactu alizada
ĠT in
ĠMÃ© dicos
ad eras
d ones
ĠAgu as
ĠMen or
ĠE ur
ch ÃŃs
Ġte l
Ġin cau
ĠAud i
pi to
tar iamente
ĠSoci edades
b ablemente
Ġurban as
tar ra
Ġpo zo
ĠP ien
tina cionales
Ġvulner abilidad
Ġcompro bado
ĠCo lecciÃ³n
Ġcome tidos
Ġpron Ã³stico
Ġcomun ista
Ġbiod iversidad
Ġde tiene
ĠRa p
n ie
ĠdÃ©ci mas
Ġadelan tÃ³
ul idad
Ġcontribu ido
ĠPicas so
Ġactu ado
Ġmicro ondas
ĠF emen
Ġcan tera
Ġ9 6
To ledo
Ġalcan zan
ĠSal as
Ġpres cind
ues a
dem Ã³cra
ĠL G
R OS
Ġras tro
ĠZ u
Ġtrav es
zob ispo
Ġembar caciones
ĠC ÃŃrculo
Ġsome tidos
ĠMar s
Ġind u
Ġag lu
ĠK id
ĠEstad io
Ġesf or
Ġagres or
Ġcelebr ando
Ġten or
Ġpre co
los a
ch ada
ĠlÃ¡ mp
Ġestr enos
M T
Ġpatr io
Ġferro carril
Ġcancel ar
Ġmun dos
Ġdis capaci
Ġlo gran
G o
bl as
ĠCom arca
Ġprem isas
pre ma
Ġdesign aciÃ³n
Ġsuper ando
Ġal as
Ġh ura
ĠAn ni
Ġcru do
Ġtu tor
Ġactiv amente
Ġacog ido
ĠdÃŃg itos
ĠQu ir
Ġt Ã³x
ĠCh elsea
Ġadecu aciÃ³n
Ġtermin e
as en
Ġinstal ada
Si empre
Ġdefens ores
val les
ĠI di
Ġencontr Ã©
Ġped ag
Ġevidente mente
Ġan dadura
Ġextran jeras
ĠlÃ¡s er
ĠAlmacen ado
Ġpreju icios
ĠV IS
ien dan
Ġseman ales
Ġbusc amos
ĠQ a
Ġfue gos
ĠMen Ã©ndez
ĠT ay
Ġprovin ciales
Ġcur iosa
ĠMonts errat
Ġrepresen tado
ĠSer ie
ĠRet weet
Ġcompr ador
Ġcru cial
Ġen con
Ġrecib idas
Ġsegu ÃŃan
Ġsosten ibles
ĠBal oncesto
Ġque br
Ġsentar se
orm emente
eg em
Ġpues tas
ĠAudio vis
ĠDi pl
le te
Ġfavor ables
Ġaparecer Ã¡
Ġvie jas
ĠB NG
Ġviol entos
Ġdol ores
Ġrep un
c ante
Ġagrupa ciones
Ġace ites
uer zo
ĠCon tempor
ĠV oy
ol in
Ġvar ones
Ġatr ibuy
Ġignor ancia
M or
Ġconte x
ĠBar cel
Ġopera tivos
Ġso portes
ug h
p adas
cas te
gu ard
ĠI ru
Ġped irÃ¡
va tar
Ġavan zadas
Ġsal ÃŃa
ci tas
ĠSERVI CIOS
Ġc recen
Ġunif orme
Ġforma tiva
ĠSu pongo
Ġp Ã³
Ġacces ibles
Ġrepresenta ciones
Ġcol gar
pos icin
fer rada
cas i
Ġdor ados
Ġcoordin adora
Ġr ama
Ġpoderos os
Ġexclus ivas
Ġadolesc encia
Ġtermin an
Ġdens idad
Ã©s el
Ġconquis tar
Ġpas en
Ġap oder
Ġob tienen
Ġtr ac
ĠProced imiento
Ġagrad ece
Ġoblig Ã³
Ġespon tÃ¡n
IT AL
Ġoper an
A le
Ġhorm igÃ³n
Ġap unto
Ġexitos a
s olu
Ġexter nas
v ada
Ġg ros
Ġsencil lamente
Ġlu chas
Ġcintur Ã³n
ĠprÃ³xim amente
Ġinsis tiÃ³
Ġsien tan
Ġconec ta
V en
V alladolid
Ġdesactiv ado
Ġcompar ecer
Ġmostr aron
ĠAra gon
Ġmad urez
ĠcÃ©le bre
ĠSte ve
Ġsupermer cados
amb la
Ġa vi
ĠOc cidental
Ġins ign
ĠAlz heimer
Ġacord Ã³
Ġdesp us
Ġpromo cional
min o
Ġmostr amos
Ġfi jos
Ġenvi arlo
ĠCampe ones
icul ar
Ġpal iar
ĠaÃ±ad en
Ġll enas
ĠP AC
ĠIl ustr
ĠEs par
ĠS ci
qui al
fr on
Ġante mano
Ġpresid ent
Ġimpos ibilidad
Ġmil lar
EL O
imin ar
Ġampl ios
Ġlegi timidad
b ero
Ġtra ÃŃdo
Ġdej arse
Ġcomar cas
ĠJ ona
Ġsuici dio
Ġconv ersiÃ³n
ĠB is
ĠH AC
ĠDo wn
in ch
Ġtr ono
Ġlim Ã³n
ĠIn fo
Ġmis eria
ĠSERVI CIO
ĠquiÃ©n es
Ġorgullos os
Ġmal versaciÃ³n
Ð ĥ
Ġsurg ido
ten siÃ³n
Ġsing le
Ġconcurs antes
co pio
Ġvol vieron
Ġre cesiÃ³n
trocer am
Ġhacer la
Ġfa tal
if t
ĠF echa
ĠÃ¡ra bes
T ienes
id io
Ġforma tivo
Quer emos
ĠCom en
ĠEs os
Ġprotocol os
ĠPala cios
Ġafec tarÃ¡
Ġinesta bilidad
quil las
ic on
C l
ĠLGT BI
Ġtal entos
Ġoptim ista
Ġestruc turales
ĠEvan gel
Ġart culo
Ġsuel ta
tx o
ĠTok io
vil le
Ġvege tal
Ġg itan
Ġempez arÃ¡
com paÃ±
Ġatro pell
les s
Ġcruc eros
Ġref rig
Ġpac tado
Ġmod el
Ġderro tas
ĠF unda
Ġle altad
ĠCap ÃŃtulo
Ġfidel idad
Ġacog edor
us ia
200 3
Ġha ba
Ġexcur siones
Ġimp unidad
Ġreg idor
Ġanim ar
Ġfi able
Ġb ec
An d
ĠIn trod
ĠVic tor
Ġk g
Ġre h
9 6
Ġins tancias
Ġne to
Ġta b
ĠPre mi
Ġfoto grÃ¡fica
Ġester eo
ĠBB C
Ġgobern ador
ĠA cepto
ĠV EN
Ġconten ida
Ġextra er
Ġgastron Ã³mico
ĠRob les
ĠH aro
ĠHistÃ³r ica
Ġinf r
Ġn oroeste
Ġescrib o
Ġmir adas
Ġan taÃ±o
Ġincre menta
Ġconstitu ido
Ġsur f
Ġpol ar
Ġpion era
Ġpresupues tario
Ġcual ificados
Ġmod ificado
Ġalim enta
Ġhom bros
Ġestr enar
Ġmostr arÃ¡
ĠBar ber
Ġreserv ado
m il
Ġun irse
pl as
ĠMa estro
Ġcal orÃŃas
ĠAn der
Ġf ed
Ġincen tivos
Ġrid ÃŃculo
ĠIntelig encia
Ġad iv
ĠCh ic
ĠS TOR
Ġconta bilidad
ĠES PE
ĠA partamento
gun as
ipiÃ© lago
Ġcad era
Ġprome tido
Ġdem ol
ĠJack son
Ġdomin ante
y y
Ġon das
Ġpec ado
ĠDeb emos
Ġres ume
is pos
Ġgri ega
Ġofre cidos
Ġp ginas
Ġan trop
igu en
Ġdeleg ados
Ã¡ndo los
Per mites
ĠdemÃ³cra tas
ĠConten idos
Ġinterna cionalizaciÃ³n
ĠPro ducciÃ³n
Ġat leta
tan to
ĠEstra tÃ©
ĠNin gÃºn
is ma
Ġdis oluciÃ³n
ĠSim Ã³n
F er
Ġacog iÃ³
Ġtes oro
ĠVo dafone
ĠD J
ĠNe ws
Ġrean ud
Ġtras pl
g ido
ĠCar bon
Ġcon table
ĠnÃ³ mina
Ġcer teza
tan g
j un
Ġsab idurÃŃa
Ġquie bra
Ġpenins ular
Ġarti ficiales
dic amente
Ġextin gu
ques a
gu erra
ĠportÃ¡ tiles
A ran
Ġacondi cionamiento
l Ãºcar
ĠGu ate
ĠKe vin
Ġsecu encia
Ġexig ente
Ġvari ado
Ġdes v
E H
** **
Ġeconom ÃŃas
Ġrecons trucciÃ³n
Ġsender ismo
Ġalim enti
Nav egaciÃ³n
ĠH ijo
Ġmul tinacionales
Ġl enta
Ġvolver Ã¡n
Ġ198 5
Ġmediter rÃ¡nea
Ã± anas
fiel d
9 7
ĠO este
B adajoz
Ġprotagon iza
cas ts
Ġu Ã±as
ĠR ece
Ġconven to
Ġquer ida
ĠP ur
Bur gos
ĠN ick
Ġcuen ca
gram as
Ġya cimiento
ton io
Ġde ca
Ġimpor tar
Ġ197 9
Ġrevolucion ario
ĠSab emos
Ġbusc aba
Ġconces iones
la ces
Ġdisfru tado
Ġreal ista
Ġen ten
Ġauto vÃŃa
ĠErnes to
us h
Es quadra
ĠSOCI EDAD
Ġal ianzas
Ġpartid arios
ĠD irig
ĠNUE VA
Ġcompens ar
San ta
ran ge
Ġcomprome tida
Ġselec ciones
ĠDe ad
Ġm ueven
ĠH ome
Ġprovoc an
cu entro
Ġecol Ã³gicos
Ġrecaud ar
lo ta
ĠCono cer
ĠPas o
ĠNo tificar
pe Ã±as
Ġsecu estr
Ġpoderos a
Ġdesper d
ĠPa ch
Ġecos istema
ĠK ir
ca ja
ĠTron os
Ġsepara tistas
ĠApo yo
so urce
Ġdocumen t
Ġdistribu ir
Ġremon ta
ĠEl iz
ĠCU L
j i
in gu
Ġvoc al
Ġvitam ina
Ġespec ula
TR AS
Ġpre ma
Ġcambi e
ĠN E
Ġtrans portes
cu atro
Ġencier ro
tin al
ĠM ex
Ġsal do
h el
entis ta
Ġindign aciÃ³n
K I
ĠBen idorm
Ġproyec ciones
v iciosa
Ġcons ig
Ġbo te
ĠCl iente
tam ento
Ġsorte os
ĠMon um
an cias
Ġtrans acciones
Ġcontrol ada
Ġdelan tera
AR D
ĠCo ches
Ġacumul ado
mu jer
Ġc ima
Ġconf l
t he
ab ilidades
ĠCer tamen
Ġpoten tes
Ġest Ã©s
ĠIl us
Ġenv ÃŃos
ĠP IN
Ġim pec
j ala
re ci
Ġcoopera tiva
Ġcontribuy entes
Ġcal ificaciones
. (
Ġllam amos
Ġintegr ados
Ġti ende
ĠSol ar
Ġsuspend ido
Ã©di to
ĠAgr ad
Ġmen tales
ĠM IS
Ġadmi ten
Ġapor tado
T arragona
tar d
F F
Ġbo tones
M IN
ĠEx terior
Ġdespa chos
N i
Ġabr iendo
ĠMaj adahonda
Ġvolun tariado
cip es
ĠCoo pera
c Ã¡r
ĠTorr ent
Ġins in
ĠIn gres
Ġmen Ãºs
Ġal mend
tÃº e
GA E
Ġlu jos
ĠhÃ©ro es
f Ã³n
Ġvari aciÃ³n
ĠCab rera
ĠE res
ĠUN IVERS
Ġmo tiva
Ãł s
ĠF ro
Cul tura
Ġinsufici encia
n in
ĠCar d
Ġavan zados
Ġolvid es
Ġfilos Ã³
qu ias
Ãļ l
Ġtex tura
OR TE
Ġimpres o
ĠVene cia
Ġtor ero
. Â¿
ĠA itor
Ġcons eller
ĠOl iva
Ġt Ã³p
Ġextend ido
ĠReg al
Ġacuer da
ĠVan guardia
ĠSam uel
h ama
Ġsitu arse
Ġarbi tr
Ġauto determinaciÃ³n
ĠD GT
Ġabandon Ã³
Ġconcienci aciÃ³n
fu ente
ĠZapa tos
ĠV A
idal go
Ġin co
ĠD OS
d Ã¡n
Ġproduci da
Ġsignifica tivos
ĠArm ada
Ġaf ines
ĠAnti gua
om an
Ġmar x
ĠPe k
Ġpromov ido
ĠG ram
ĠTÃ©cn icas
ĠD ado
Ġa ir
Ġco pas
Ãº jar
Ġrespe ta
l iber
Ġd rÃ¡s
Ġencues tados
ĠOfer tas
ĠJ e
ĠPela yo
ES CO
Ġse ces
ĠTrabaj amos
ĠP ers
ĠNorm as
Ġdirec trices
Ġre t
Ã³g n
Pal ma
Ġse pul
Ġam uebl
ĠM ez
ĠCorpor a
Ġprotes tar
res te
ĠÃŃn dole
ĠVal ores
Ġreti ra
Ġind icaciones
Ġgestion ado
Ġpro vech
Ġah og
Ġc esta
Ġfas cismo
ĠMe tal
!!!! !!!!
Ġaerol ÃŃnea
ĠFin anzas
Ġexplic aba
Ġautor izados
Ġentr ando
ina ciones
im ir
Ġincon di
AD ORES
ĠSTOR E
As turi
Ġcru da
Ġtra tamos
Ġburo c
Ġprac tica
ce a
Ġdemostr aciÃ³n
ĠhuÃ©sped es
Ġre cip
ĠT AN
Ġsens ibles
te mos
Ġinteres ada
ĠAd am
Ġguer r
if f
Ġescapara te
Ġat mos
Ġcan cha
an ca
ĠLA B
Ġaprend e
ĠPo zuelo
Ġabaste cimiento
Ġemp ecÃ©
Ġmultid iscipl
Ġsober anista
Ġgratu itamente
Ġpres a
Ġ- >
Ġc ÃŃv
Ġf Ã©r
Ġcre ÃŃ
ĠM US
ĠJU AN
cur s
ĠCamp ing
des es
Ġbr inda
ĠSime one
Ġn ad
ĠC AB
ĠGas set
Ġcompetid ores
ĠHab ana
Ġactu arÃ¡
Ġtru co
ĠM OR
Ġan cha
ĠTEC N
ĠUr bana
en al
i tivos
Ġcivil izaciÃ³n
ĠBe goÃ±a
Al cal
ĠInma culada
lam entos
Ġbre ves
Ġind ÃŃgenas
bas e
Ġpref iero
pa c
Ġtre in
Ġenv ases
Ġtex til
U T
Ġadquir idos
ĠPER O
Ġlabora torios
ĠR ÃŃos
Ã³s ticos
mon te
ĠOl iver
ministra tivo
Ġcen ar
Ġconsol id
ci edad
Ġh egem
Ġpas arÃ¡n
Ġcal do
Ġesc lav
Ġmon arca
Ġconsul tora
Ġdes truy
Ġev angel
Ġaspir ante
P onte
an ge
ĠteÃ³r ico
car n
Ġsu cesiÃ³n
Ġr Ãºs
S er
olu cin
Ġhacer te
Ġn u
Ġa ires
Ġcin tas
Ġimpuls ada
Ġac ento
Ġdistribu idores
Ġvalora ciones
ĠCarm ona
ĠMo ur
Ġtro feo
Ġto cÃ³
Ġpreocu pado
Ġfemin istas
Ġapues tan
ĠTa ur
ĠBr uno
Ġdoc tora
Ġse pan
H o
Ġcoopera tivas
D on
Ġrebo te
Ġqued arÃŃa
Ġdif icil
Ġcel ular
Ġpertin entes
Ġliter almente
Ġas en
Ġenrique cer
Ġh ur
enti r
ĠAr gÃ¼
Ġpea tones
CA A
b is
et ti
ĠRE F
Ġ198 8
ĠElectr Ã³nica
ĠH OR
ĠRe forma
Ġestren Ã³
Ġexpres Ã³
ĠAl terna
ĠL ista
y er
cu en
ĠD IC
Ġne vera
ĠDI ARIO
Ġtu bo
Ġestim aciÃ³n
Ġex hum
Ġbel las
ic aba
ne te
ca tal
Ca tal
Ã² n
ĠD ie
Ġcos echa
ĠI tur
.... ...
ĠD icen
ĠGra cia
Ġmasco ta
Ġejerci tar
ĠCI UDAD
V IN
Ġnaz is
Ġgan e
Ġan exo
Ġestable ciÃ³
Ġima gina
igu al
re am
Ġci elos
ĠNa talia
Ġladr illo
Ġdur Ã³
Ġactu ando
ĠC ra
uer te
Ġsurg ir
R I
Ġrod ar
Ġposi tivamente
ĠMar ÃŃtimo
Ġ198 6
ĠC Ã¡r
UR OS
s em
ĠEl lo
Ġcol ap
Ġpo tes
ĠCol men
ĠH OM
ĠautÃ©n ticos
voz populi
Ġreto mar
ĠBo ok
Ġviol enta
Ġmortal idad
Ġo pa
Ġalter aciÃ³n
Ġhab ilitado
Ġedi tar
ĠCo ca
ĠMon taÃ±a
ĠocÃ© ano
ĠSebasti an
ĠB AR
Ġdure za
ĠChris tian
Ã¡n icas
Ġsex ualidad
Ġpas eos
ĠQuÃŃm ica
Ġalber gar
iv ado
Ġpresid ir
ĠMan comunidad
am en
al les
Ġcomenzar Ã¡n
Ġdesarroll adas
Ġch imenea
Ġdesgas te
Ġexten so
Ġ198 7
uc risto
ber to
Ġrevel aciÃ³n
ĠÃ Ĥ
ĠAr cos
com pr
Ġfelici tar
Ġt wit
n chez
Ġira quÃŃ
ĠF ir
ĠFin landia
f un
Ġproced erÃ¡
ĠH ubo
amble as
ĠBay ern
ĠD icha
Ġmuer ta
Ġben Ã©
ĠcompaÃ± eras
Ġpresid ida
J o
Ġsa turado
Ġreporta jes
ĠCl im
Ġgo ogle
Ġaler tas
ĠprohÃŃ be
Ġsond eos
Ġcomunic arse
j antes
Ġdefici encias
Ġpun tuales
ĠF en
Ñ ĥ
Ġmeter se
ĠD im
i tera
Ġtro pic
ĠR ell
ic aron
te xto
Ġaplic arÃ¡
, .
Ġescul turas
Ġh ito
Ġconcentr ado
TA C
Ġbols illos
e h
Ġse vill
Ġcor tas
Ġhaber lo
ĠZapa tillas
Ġra tÃ³n
ĠCons ider
Ġmodern idad
ĠIra ti
Ġcos to
Ġenferm erÃŃa
Ġfarma cia
m b
ĠAlc Ã¡zar
Ã©s tico
ĠSÃ¡ bado
[ ...]
bo ard
Ġadelan ta
Ġmetro politan
ĠPRO FES
Ġexcep ciones
Ġ^ ^
Ġinc Ã³gn
ÃŃ en
Ġfelicidad es
Ġfor zar
ĠN orma
s el
ĠCon cretamente
ĠR ick
ĠCa fÃ©
ĠFel iz
Ġaverigu ar
gen os
n orm
Ġtrein tena
Ġmar ina
Ġmil a
Ġpier da
Ġinflu ir
? Â¿
Ġsimpa tizantes
et tel
qu erra
Ġmis er
ĠCor red
mi ra
ĠO ce
Ġdigital izaciÃ³n
Ġaconse ja
ĠApar te
Ġtra tarÃ¡
Ġpublici tario
Ġcar encias
Ġres uelve
ĠP unta
b anos
or ias
ĠRE V
ĠJef a
Ġdios es
IJ IJ
Ġproces amiento
ĠCon ocimiento
H asta
Ġutil ice
T al
r ÃŃan
Ġlu cir
ĠEsco cia
Ġfestiv idad
Ġsalud os
ec edor
ĠM mm
ana ir
ĠNotificar me
Ġprivileg iado
Ġdetec ta
Ġind ul
Ġllegar Ã¡n
ĠCres po
H uesca
Ġvari antes
ĠPU BL
Ġun ida
Ã¡ndo te
Ġfacultad es
ĠL ima
gu ita
Ġmec Ã¡nico
Ġdese amos
ĠJ oy
Ã± ada
caste jon
Cu Ã¡les
Ġmay Ãºs
Ġcontro vers
Ġhuel las
cam bio
Ġa ero
ier tan
form e
Ġsalv aciÃ³n
ĠBan g
pu ch
ĠdomÃ©s tico
ĠRam on
m ada
Ġremar cado
Ġrom Ã¡nico
Ġper noc
Ġres eÃ±a
ĠL amb
y en
U Z
Ã¡r qu
tÃ¡ c
Ġcaball ero
Ġelev ados
ĠSecre taria
Ġalfom bra
bi as
Ġen seguida
amb io
mos o
ĠFu era
ĠBien venido
ĠE ras
ĠT EL
ĠLin k
Ġplan ificar
ĠV esti
ĠO range
Ġen du
ĠAr is
Ġrequer imientos
Ġcan san
Ġlin ea
Ġr inde
ĠMu cha
ĠSindica to
ĠA H
ĠGuate mala
â ĸ
Ã³ ticos
f on
Ġretro ceso
sanchez castejon
ĠRos si
Ġhid rÃ¡ul
Ġreduci endo
ĠOcas iÃ³n
we en
ĠPo zo
Ġcre ados
Ġimpres a
ĠPek ÃŃn
9 00
ĠmÃºs culos
enci alidad
t ha
ur recciÃ³n
Ġdo Ã±a
Ġescon der
Ġcontinu Ã³
P OS
Ġcorrespon der
Ġinvis ible
ĠDef ensor
is imo
Ġentren adores
ĠCuer pos
Ġcab les
Ġdivid ido
ĠpolÃ©m ico
Ġrecon cil
ĠP aj
Ġdepend er
Ġhomosex uales
ĠInvesti gadores
ĠON CE
Ġmer ecido
Ġfuncion alidades
B ER
ĠDescu br
Ġprim or
Ġcomun istas
Ġvic es
ĠplÃ¡s ticos
ĠlingÃ¼ ÃŃstica
S C
u co
ĠE mail
ra fos
Ġpr enda
Ġgr ad
ĠId eal
erg ias
ĠIn iesta
Ġenga Ã±ar
Ġaceler ar
Ġpermanecer Ã¡
Ġpato logÃŃas
R ivera
ĠNie ves
ĠPon emos
ĠAl can
Ġalter aciones
ĠCas tel
Ġinform aron
Ġvis ibles
ĠCompar tir
Ġin quil
I VA
ĠaÃ© reas
Ġconsol idado
ĠUr gencias
Ġapas ionante
Ġliber ar
Ġ198 2
ĠHun grÃŃa
Ġsitu ar
Ġp use
ĠBen jam
Ġta p
Ġconsider ablemente
Ġsemifin al
Ġplan cha
ĠReg istr
Ġgus tar
Ġdesp ierta
Ġsuf ra
et x
Ġdue le
Ġinm enso
Ġlevan tÃ³
E res
Ġexces iva
ĠCir cuito
Ġretro ced
ĠJuan ma
Ġrecha zÃ³
ĠTex as
ĠFuer on
Ġlo ca
ĠChica go
ig uer
Ġperten encia
ĠR IO
j ect
ĠPr Ã³
Ġsal gan
Ġimpresion antes
Ġalmacen ar
Ġrom piÃ³
Ġm Ãĥ
Ġsiste mÃ¡tica
Ġdic cionario
ĠPl ana
Ġfin o
Ġadmi raciÃ³n
ĠMar y
Ġcompar timos
Ġcar tÃ³n
em ento
ĠSegu ir
ĠEn lace
Ġconstruy endo
ĠMete or
Ġrad ios
Ġes gr
... '
w atch
Ġbatal las
Ġcamp ing
ĠI ba
Ġn ef
eg ro
Ġlo cos
Ġpresid encial
Ġtitu laciones
Ġdesigualdad es
Ġofrecer le
ĠPrim avera
ul ce
Ġmensaj erÃŃa
ĠSegu imos
Ġagro alimentar
ÃŃf icas
Ġmalague Ã±o
Ġher Ã¡l
ĠAnun cios
Ġexperimen tal
Ġterres tre
Ġpond rÃ¡n
ver tido
Ġapl icada
Ġsol as
Ġ `
Ġglob alizaciÃ³n
ĠBen z
p uso
Ġtram pa
ĠY O
Ġvari ante
Ġfundam ento
Ġayud arte
ĠI na
Ġfinaliz Ã³
Ġcal cul
S tation
ĠMul ti
Ġtom aron
ĠRecuer do
ĠNo va
Ġadop tadas
dic al
ĠSon ia
ĠLeon ardo
Ġsu izo
Ġgener osidad
AL L
Ġauditor ÃŃa
ĠEx tran
Ġinfl uen
ĠIn vi
Ġec olog
B B
ĠD O
ĠBaj os
Ġn ick
a ca
P on
Ġayud en
Ġperson alizados
Ġvac un
Ġcer Ã¡mica
Ġpon entes
c res
ĠAlc obendas
Ġre ba
Ġcron ologÃŃa
ĠN UM
Ġrequer ido
ĠAprend e
us amente
Ġsum ando
Ġsu d
Ġo ut
ili ano
ĠCoordin adora
Ġargu mentar
s im
H is
fer as
Ġfich as
Ġru inas
if icios
ĠDav is
ab Ã³n
Ġdesped ir
Ġaj enos
Ġtor mentas
ĠCh r
ĠMa il
Ġfabr ica
Ġinjus to
ĠBern ardo
Ġvas cas
ĠCan tÃ¡
Ġluch an
Ġconsum e
Ġinstrum ental
Ġpatrocin io
k es
Ġtraspas o
ĠacompaÃ± amiento
Ġlarg ome
/ ?
Ġdiver tir
ICA CIÃĵN
Ġte mer
en cio
ĠCol um
Ġfinanci ado
Ġarres tado
Ġmono pol
Ġinter rup
Ġter tulia
Ġconcre tar
Ġde no
Ġdivers a
ter es
Ġmi tin
ĠCaracter ÃŃsticas
ca o
ci f
ĠIN G
Ġesper aban
Ġle hendakari
ĠInstitu ciones
Ġinter n
Ġsal ones
ĠVill al
Ġinad ecu
ĠB erg
B LE
Ġactiv as
Ġacredi taciÃ³n
ck er
ĠU m
Ġpo etas
Ġartes anal
IG O
Ġt ÃŃos
ĠAses or
ĠP abellÃ³n
ĠS es
Ġcar peta
ĠCÃ¡n cer
Ġjurisdic ciÃ³n
Ġ( Â¿
Al ba
Ġsometer se
f onos
Ġdespe ja
Ġasum ido
ĠBro wn
ĠincreÃŃ bles
Ġher ir
ub er
Ġvelocidad es
ĠCÃ¡ ritas
Ġb oc
Ġmus ica
Ġ4 50
Ġtu tela
ĠPr ueba
Ġgarantiz ada
Ġre e
Ġpun tual
ĠC uevas
Ġle ves
Ġmon tado
Ġpol la
Ġvuel van
Ġcontribuy en
Ġaprob adas
Ġba tir
Ġcuer das
m ante
ĠAuton omÃŃa
Ġdel iber
qu istas
F O
Ġconcen tra
Ġestar ÃŃan
ĠVilla viciosa
ra ciones
ĠS AB
ĠCo aliciÃ³n
h Ã©ro
Ġvis itÃ³
Ġale jado
Ġnaz i
Ġvi able
ĠExplor er
b ulo
Ġpreced ente
Ġpresid enciales
Ġases inos
ĠP De
cil ler
Ġoc tavo
ĠWeb s
G OS
ĠD y
Ġconsul tadas
Ġestiv al
Ġilus tra
Ġar cas
ar ch
ĠInm uebles
Ġtemp rana
Ġa ran
Ġremod elaciÃ³n
ĠT y
um ado
ĠPe Ã±
esti no
Ġsum Ã³
ĠJun ts
ÃŃcu lum
E TA
ĠA bra
Ġprevis ible
Ġvoc ales
ĠAlim entos
po tencia
ĠGal erÃŃa
Ġrecl u
Ġmach ismo
to o
Ġu va
Ġembal se
Ã¡r selo
is san
ĠP ales
................ ................
ĠS mart
ĠmÃ© dicas
Ġajus tada
ĠPra t
Ġnutr ientes
tx e
Ġlle go
Ġdefin en
ĠG ara
Ġinyec ciÃ³n
Ġinsec tos
il y
Ġretras os
Ġbi partid
Ġib Ã©rico
Ġinfec ciones
ĠmÃºlti ple
Ġbarro co
Ġnombr ar
Ġasis tieron
Ġcompar tiendo
ÃŃ no
Ġta tu
Ġparticip ante
ĠV ÃįDEO
ĠPo p
Ġbaj Ã³
ĠSO CIAL
Ġrecurr ente
Ġurban ismo
Ġen ormemente
Ġo di
Ġpun tero
ĠfantÃ¡s tica
Ġencar garÃ¡
Ġfeste jos
ĠGol d
Ġra cismo
ĠRel ig
tu v
ĠT oma
ĠVI P
Ġmental idad
Ġ197 5
Ġnoctur no
Ġdimi tir
ĠInstitu ciÃ³n
ad ia
ĠFuerte ventura
w rite
ĠT her
Ġreg lamentar
ĠPr incesa
Ġpres tan
Ġe clip
9 4
C er
Ġimpres iones
R ed
Ġprecios as
ĠT RAN
ĠPosi cionamiento
Ġju icios
Ġoportun as
pu ma
ĠE col
Ġinjus ticia
Ġconv icciÃ³n
ion ados
ĠCam is
Ġsin gulares
Ġsustitu yendo
ĠPal oma
Ġmen cionados
ĠJes ucristo
ĠMarcel ino
r Ã©
Ġcompa tibles
segu ra
od ia
Ġcar iÃ±os
Ġtelevis iones
Ġru idos
Ġah i
Ġfantas ma
ĠO ut
Ġleg ÃŃtimo
im ar
Ġrelo jes
ĠImp or
Ġaspira ciones
Ġras tre
Ġ198 4
Ġfus il
Ġma f
Ġest Ã³
Ġapar ente
Ġcap taciÃ³n
igil ancia
I X
Ġapl ican
ĠY olanda
Ġurban ÃŃstica
ĠC B
Ġor illa
Ġsosten er
ĠM P
Ġnov el
Ġsin cron
ĠPolÃŃ gono
ĠTe am
IT OS
Ġesta tus
cu erdo
t ta
Ġaf ueras
Ġase o
Ġre embol
ill ero
Ġf iebre
Ġdelincu entes
Ġelectrodom Ã©stico
oc aciÃ³n
ĠP arro
L M
un den
b ola
as cript
Ġgen es
Ġproced en
Ġutiliz amos
Ġdis tra
Ġr al
ch or
ee ee
Ġc una
ĠÃįn dice
Ġincorpor an
a ga
Ġorden Ã³
Ġapro x
Ġblan queo
ĠS H
ĠdemocrÃ¡ ticos
ĠN aciÃ³n
ĠVis itas
Ġabier tamente
Ġexcep cionales
Ġsec os
Ġ9 4
ĠHer rero
ur des
ĠCur ios
p ie
Ġsevil lano
ĠRo jas
ER ÃįA
Ġprior i
ip Ãº
Ġsolici tante
Ġgr ueso
ĠAran da
ĠHaz te
Ġcuar tel
ĠC ier
je je
Ã©c tor
Ġfacil itan
Ġhis tor
Ġre vertir
ĠOr ig
b in
g y
Ġamb ientes
Ġpr ud
Ġmel an
Ġpres o
Ġtrascend encia
Ġque ma
ĠSEG UN
ĠA ÃĳOS
fer min
Ġcar am
te to
Ġtom amos
I OR
ĠUr dan
ĠS as
Ġorien tado
Ġtr il
Ġto men
... ),
Ġcon gre
Ġparticip ando
Ġindiscu tible
ĠLic enciado
Ġcompa c
Ġaber tzale
ĠPS G
ĠBod egas
Ġj aja
? :
Ġord inaria
tn am
Ġdeten ciones
ĠPro hib
U AL
ĠSelec ciona
ĠNet work
s Ã³lo
Ġinter min
Ġcontinu ada
Ġvac una
Ġresid encias
ĠV end
Ġestren arÃ¡
Ġsuger encia
Ġbu ques
Ġacep tan
Ġqu im
tr ando
Ġquedar me
Ġinici arÃ¡
Ġafr icano
Ġintegr ales
Ġdesplaz arse
Ġide olÃ³gica
Ġreac cionar
can os
Ġrecor tar
Ġgener alizada
Ġeven tual
ĠaÃ© reos
tur ados
Ġpel os
Ġcumpl iÃ³
Ġdesconoci dos
ĠDES DE
Ġconten cioso
Ġrit mos
ĠDe bate
Ġfoto volta
Ġconced ida
ĠViv ir
Ġcr Ã³nicas
Ġcam isa
Ġcal ado
ĠPro ces
ĠTarje ta
ĠC od
ces valles
Ġdespre cio
Ġequiv ocado
ĠTele comunicaciones
Ã¡v ez
ĠautÃ³c ton
Ġhard ware
Ġayud ando
ĠMa h
ga te
Ġexpor taciÃ³n
Ġla van
Ġpond remos
ce tas
TR UC
Ġpasar ÃŃa
Ġto d
ĠPrincip al
ad illo
ĠAbo ga
ĠA dap
Ġbu zÃ³n
ja te
pa in
am on
ĠV ettel
Ġculp ables
Ġencar gÃ³
Ġcur vas
Ġauten ticidad
ĠNav a
Ġindivid u
Ġfabr icado
ĠGu a
ĠC umbre
Ġocup ados
adr Ã³n
ĠGas ol
ĠGala xy
Ġcons tar
ĠMa gn
Ġguitar rista
T j
Ġindirec ta
Ġdeci mo
u ters
pro ducciÃ³n
lar se
ĠF MI
Ġrojiblan co
p ino
Ġse ca
igue z
ĠDistr ito
Ġrefer irse
Ġ9 7
uel tas
Ġ198 1
ĠmÃ¡g ica
Ġintermed i
ĠMen orca
e ira
Ġextreme Ã±o
Ġinaugur Ã³
gru po
Ġvari ados
ĠVirgin ia
Ġmas ac
Ġexperim entos
ĠOfici nas
ĠTer min
y ar
Ġmedic amento
ĠRin cÃ³n
P as
Ġul timo
Ġma tÃ³
can es
Ġaud itorio
ÃŃf eros
Ġdi Ã©sel
ÃŃ qu
Ġaplic ables
ran co
f ri
Ġar bol
ĠManten imiento
Ġa pres
Ġ20 21
Ġal tar
Ġvitam inas
Ġgobern antes
Ġgo za
Ġpublici tarios
ĠVallec as
ĠS tu
p df
Ġacord ar
ĠPa is
Ġel ud
ĠU d
Se gu
ĠMEJ OR
y Ã³
Ġso vi
Ġradi aciÃ³n
ĠVillar ejo
Ġvari adas
Ġin da
Ġtrav s
Ġartes anÃŃa
Ġderiv ado
Ġbenef icia
c ris
ĠCAST ILLA
Ġ ]
Ġman uales
in ares
Ġreci cl
car r
Ġh am
me ida
ĠCay e
Ġinterpre tado
Ġperder se
Ġcapital ista
ĠAdver tencia
ĠV Ã©
aliz arse
AD E
Ġp ones
ÃŃr culos
n eros
Ġderro tar
Ġreval or
Ġlibr erÃŃas
ĠIP C
Ã ¯
Ġmedie vales
i w
ĠFlor entino
P rim
ĠUS U
re paracion
Ġambul ancia
an dos
ĠL lar
ĠBa hÃŃa
Ġed ificaciÃ³n
Ġdep ur
Ġperten ecer
ĠB US
Ġman chas
e jos
Ġh ueso
Ġrebaj ar
ĠSegur amente
Ġatre ver
ĠH idro
ĠMor ena
Ġqued amos
Ġrepas a
Ġvolv ÃŃ
bre gat
Ġton to
Ġan ar
Ġf ocos
Ġvend rÃ¡
ĠFo x
ĠInf Ã³rmate
Ġprefer encia
ĠfilÃ³so fo
Ġor n
on ancia
ĠNUE VO
Ġsen adores
Ġyihad ista
umer ables
Ġacab arÃ¡
g ement
Ġdig amos
Ġcon duci
Ġdedic arse
Ġrecibir Ã¡s
Ġve to
ĠN ig
ĠdÃº o
Ġescog ido
Ġhabil itar
Ġpro cÃ©s
ĠF ORMA
Ġde pre
Ġsuscrip tores
end os
Ġen fa
Ġe terna
M er
ĠCON F
Ġpsic olÃ³gica
ĠRo zas
Ġver me
ĠPer d
ĠGuin dos
Ġresal tar
Ġencar gar
Ġexpul sado
Ġlo tes
ez mann
ĠclÃŃn icos
Ġclas ifica
ION ES
Ġaustral iano
il ia
Ġam en
ĠG B
on line
Ġfund Ã³
ĠCab al
us se
Ġi remos
ĠH OY
ch uf
Ã©di tos
ĠA x
Ġnotable mente
a tilidad
Ġdel ega
ĠL lan
Ġros as
Ġconoci endo
Ġdie cis
Ġanunci an
Ġir rump
V illan
Ġentr arÃ¡
ĠRom ano
ĠRon cesvalles
Ġimpl icar
ĠGobier nos
ĠFor cad
Ġl ien
Ġincon venientes
ĠV ela
Al bert
Ġocurr iendo
ĠM and
l on
ĠIN E
Ġpregun tan
Ġconvoc ados
Ġauto estima
ĠReci entemente
men da
Ġcan sado
Ġcono ces
ĠPro tec
ĠEsp inosa
¿ ½
ĠSub s
c ola
n unca
Ġequilib rada
emp leo
ER TA
Ġpel i
Ġde posi
\ ,
cos a
Ġforma tivos
Ġsuf rag
Ġo puesto
Ġtr igo
Ġpeligros as
Ġhall ado
ĠPal abras
tin to
ich as
ĠPro to
Ġtu mor
Ġb it
AT OS
Ġapropi ado
tt le
ter res
ĠReg ul
ĠCarr illo
ĠpolÃ©m icas
Ġhomici dio
Ġtrem endo
ĠCAL LE
ĠOl im
Ġtuv ieran
gra cias
ĠVal ls
ĠMunicip ales
ĠH P
Ġconserv an
Ġases inados
Ġrode ada
Ġinquie tud
o u
Ġresul taron
Ponte vedra
Ġcons truye
Ġv Ã©r
Ġinvestig ando
ĠEl Ã©ctr
ĠCom Ãº
ĠConten cioso
Ġlidera to
ĠDa ta
Ġaven tur
Ġdifer encial
tor s
Ġincluy a
Ġbar baco
Ġderiv ada
Ġformul arios
Ġatrac ciones
i ol
Ġex ministro
Ġladr ones
Ġprodu zcan
lu la
Ġcar net
Ġins cribirse
ĠAC B
ĠB Ãºs
ten to
Ġcinemato grÃ¡fica
Ġgr if
on al
ĠE us
ĠB ron
ĠC rÃŃ
J erez
Ġdirec tas
Ġsu primir
ĠTer cer
ĠPlan es
ĠDe ten
ĠLlu ÃŃs
ale la
Ġin movil
Ġorganiz Ã³
Ġv izca
ĠAcces orios
Ġtranscur rido
Ġmol Ã©
Ġcoo per
ĠZ ub
im ens
ĠM Ã³vil
Ġgu ipu
ĠPin cha
Ġcorpor aciones
Ġminim izar
Ġenga Ã±o
Ġvac as
Can tabria
ob ar
ir as
ĠS orte
Ġpo ker
Ġhor r
Alcal Ã¡
ĠFel icidades
Ġtran sex
Ġrecom iendan
Ġlogr ando
Ġcar av
Ġfal lar
person al
ĠEurope os
Ġconec tividad
ĠH Ã©ctor
s ur
Ġes qui
Ġcay endo
ĠdiseÃ± ados
men ts
ĠAr mas
Ġan ces
Ġpresen ten
Ġenf ad
se gÃºn
ii ii
ĠEmp i
ĠdomÃ©s tica
Ġnarra ciÃ³n
ĠEURO PA
Ġperd idos
9 1
ĠCon tenido
tif ica
Ġe uf
ĠAl guien
Ġaf ian
ĠCol l
Ġvolv iendo
Ġles bi
segu ir
Ġalum brado
ĠCon vocatoria
ĠestratÃ© gicos
Ġexpl oraciÃ³n
s ic
Ġdesarrollar Ã¡n
ve lo
ĠMar tÃŃ
Ġfres cos
Ġdesobed iencia
2 000
Ġsepar ar
ĠBaz tÃ¡n
ĠGu adi
ĠTem por
Ġpodr Ã©is
Ġartes anos
Ġaproxim aciÃ³n
Ġemp erador
ĠPod em
Ġpatr iar
Ġan tenas
Ġpu Ã±ado
ĠComple jo
Ġpromo tor
ĠCasta Ã±o
ĠAc tividad
Ġcompl icidad
Ġad hesiÃ³n
bi ol
Ġmili tante
ĠZ ur
Ġmuer en
Ġsum arse
p ÃŃ
ipÃº zcoa
Ġp df
F R
Ġpublici taria
Ġmur ciano
e gu
ĠMunicip ios
ĠAv da
Ġfran ja
Ġcam pan
ĠV elo
Ġaux iliares
Ġimpre vis
ĠAl d
Ġacom od
adal ajara
qui tos
ĠGÃ©n ova
ĠBien venidos
cu les
ĠG obern
Ġmara tÃ³n
Ġc lo
Ġsitu adas
ĠDes a
Ġrecopil aciÃ³n
Ġin ox
Ġconsider ando
Ġsigu ieron
Ġsold ado
Ġconven cidos
jug ador
ci ados
ur s
Ġnoved oso
Ġfraud ul
Ġpad ece
Ġayud Ã³
ĠS po
Ġs Ã³
Ġfas cista
ed s
Ġchav ales
Ġ0 8
Ġconec tados
it ch
Ġfrac tura
Ġenf ri
Ġque mar
z amos
ur nal
Ġsens ores
Ġti ran
En tre
Ġviol aciones
Ġagreg Ã³
Ã¡lv ame
Ġj od
ko vic
Ġsir io
ĠFer re
Ban k
ĠPlay Station
Ġpermitir ÃŃa
Ġvis uales
Ġcaus Ã³
Ġemble mÃ¡ticos
ĠJun ior
ĠIn teg
Ġedi tores
Ġesca pe
Su per
Ġtribu to
ĠB un
Ġtor tura
Ġac amp
ĠL arra
Ġval entÃŃa
Ġinaugur al
ĠTra tamiento
Ġyihad istas
ï ¿½
Ġlis tos
ĠanÃ©cdo tas
Ġdes es
Ġexplos ivos
cel es
Ġcier ran
ĠP H
Ġestu pend
Ġo pone
ĠN uria
Ġconf iado
Ġcolabora ciones
Ġencan tados
val os
Ġadap tada
Ġabog ada
P M
Ġvo taciones
Ġfran co
ic anas
Ġser gio
ĠHos telerÃŃa
Ġproduci dos
g ers
Ãģ vila
re ta
ĠD io
ĠÃī sta
truc ciones
Ġobs esiÃ³n
pod emos
Ã £
iz ante
Ġfiscal ÃŃa
Ġensal ada
Ġden tal
Ġsencil lez
Ġhier ba
CH E
Ġs endas
Ġrea par
lo ween
Ġmarch Ã³
V il
Ġac tas
ĠB OE
( '
Ġmol ino
Ġrebel des
Ġtra tos
ĠT era
ĠV AR
ĠI SO
Ġecos istemas
Ã¡s tico
ĠBib lia
ĠPresu puesto
Ġal dea
Ġpad ecen
and ez
Ġme tales
IS TE
Ġamar illos
pr udencia
Ġfals edad
Ġmu d
Ġsec ador
k os
TI M
Ġcompeti tivos
Ġintrod uc
e Ã±as
il ios
ĠFerra z
Ġeconom ista
tra va
Ġn mero
ĠRe ales
Ġcaute lar
Ġver gon
bal os
Villan ueva
ĠES TUD
ĠAp p
ĠLas P
ĠSco tt
ĠK ong
Ġdesn udo
ĠGaran tÃŃa
Ġexten s
Ġech ado
k m
Ġe cles
ĠProfes ores
ĠD U
ĠGom era
po pular
Ġacab ados
ĠCre aciÃ³n
TIC AS
ĠGa za
M M
ĠAs ens
Ġfl ora
Ġtransfer encias
av ente
ĠcÃ¡nta bro
Ġayud arÃ¡n
Ġso Ã±ar
ĠPod rÃ¡s
to me
Ġextraordin arias
ĠC ENTRO
Ġatmos f
ĠAmeric an
Ġorden ar
Ġale ga
Ġdestac ada
ĠV ital
ina gre
Ġsosp echos
ĠA E
Ġcos tos
ĠGri ezmann
ĠM emor
ĠLew is
c able
Ġgri egos
Ġpatron ales
Ġvo taron
Ġmar rÃ³n
m era
ĠGu ardar
Ġac trices
Ġcono zcan
Ġcrimin ales
Ġin cÃ³mo
Ġdesa grad
ĠHo use
C OS
Ġed iles
ĠsÃŃn tesis
Ġfirm eza
Ġinven to
ĠForcad ell
on ga
Ġdomici l
ĠPrem ier
ti gu
ĠHa ciendo
ĠL ama
Ġcontinu as
rib les
ĠNorm almente
tr Ã¡n
Ġun Ã¡n
Ġcan tando
Ġrecom pensa
ĠVe h
Ġtom arÃ¡
en co
C uen
ĠNa tional
ĠUrdan gar
ĠPac ÃŃfico
is cos
Ġconmemor aciÃ³n
Ġinmobili arias
ĠromÃ¡n tico
Ġasegura ba
Ġm ina
Ġcal ificar
Ġhom en
T i
Ġorden amiento
tec ario
Ġaf in
Ġinterpre taciones
F a
Ġbar ras
Ġvac antes
Ġqu esos
Ġalum nas
Ġv ien
ĠTr inidad
Ġin tra
ĠCas illas
Ġam ig
Ġama teur
ĠdiÃ¡ metro
Ġadministr adores
r alejo
ci cl
M us
ĠDis co
pa is
Ġsu pe
Ġcordo b
Ã© jar
Ġfacil itados
ĠUE FA
Ġinter cep
Ġinvern adero
ri eta
Ġcur iosos
icis tas
ĠobstÃ¡ culo
Ġesf era
Ġestim ular
ĠAma ia
Ġapar ezca
ir ÃŃa
ĠLimpi eza
Ġexig entes
Ġrev olu
g ones
Ġperm itÃŃa
ĠSimple mente
Ġenvi ando
F oto
i Ã©ramos
Ġdejar lo
Ġimpac tos
Ġco co
Ġeduc ar
l lev
Ġtempor almente
Ġdin Ã¡mico
Ġsocio econ
ĠFrances c
Lu go
ed r
IP O
k onia
Ã©n ia
Ġsuces or
IS T
ĠN ik
Ġad orn
Ġdestin ar
ĠMa terial
Ġexpon en
Ġd onosti
omin aciÃ³n
ĠPlan ta
ĠMin i
Ġpar alela
ĠINTER NA
Ġcerr arÃ¡
el s
Ġd ama
idente mente
ĠF ri
Ġprofun das
ech e
Ġval les
Ġad ic
T am
CÃ¡ ceres
per iod
Ġer ig
Ġpar ecida
ĠD OM
Ġcal zada
Ġpor cen
Ġpon encias
Ġdomici li
Y M
f ÃŃas
Ġtu ris
ĠcadÃ¡ver es
P RO
ĠO bl
ĠV arias
Ġcomp ut
Ġser ios
Ġmi edos
Ġp Ã³l
Ġex en
ĠCÃ¡ tedra
sta tus
ĠQu iÃ©n
Ġm y
ĠMoham ed
Ġc ÃŃ
Ġmoment Ã¡neo
Ġalu cin
Ġponer le
ĠElectr Ã³nico
Ġconfid encialidad
ty le
Ġhum ill
Ġin habilitaciÃ³n
Ġca Ã±a
Ġcre encia
Ġllev as
ĠJane iro
ĠN aran
Ġdisco teca
ĠAdo be
ĠEuro visiÃ³n
ĠCiudad ano
Ġporcenta jes
ĠCl Ã¡sico
ĠCas co
Ġdesempe Ã±
x s
Ġson ar
Ãºn ica
v ase
Ġcomplementar ias
Ġsab ÃŃan
ĠJ UN
ĠBas es
Ġexhaus tivo
Ġsos tienen
ĠdemÃ³cra ta
Ġro bus
Ġdestin arÃ¡
Ġmin eral
ĠromÃ¡n tica
? )
Ġc itadas
Ġespa a
Ġrespe tando
Ġ( *
eric ord
Ġencontr adas
ĠRu bi
ĠT omo
Ġdic tamen
to da
Ġafirma ciones
Ġpens Ã³
ĠF ilip
Ġcal ientes
Ġsorprend entes
n n
ĠF EL
ĠEn ter
ĠN ivel
Ġdese ar
ĠAl am
ĠMas ters
ea t
Ġl Ã¡c
Ġcru zado
ti tis
us te
ĠD ro
Ġtransvers al
ĠCh Ã¡vez
ĠMor al
ĠAcces ibilidad
Ġproces ador
Ġtom arse
IL LO
ĠNA VAR
Ġnavide Ã±as
ĠdemocrÃ¡ ticas
Ġrell eno
ĠPa pel
Ġbenefici arse
Ġva is
Ġan tena
ĠO la
Ġcompa trio
Ġor ques
Ġdemas iada
e to
Ġoy entes
U s
Ġarran cÃ³
Ġpes os
Ġcomple jas
Ġcol onia
ĠLec tura
Ġter m
Ġel ef
Ġcal ent
Ġconstruy Ã³
tal gia
Ġlider ada
gu ila
i tia
Ġdecir te
Ġportu guesa
Ġasequ ible
Ġnoctur na
informa cion
ĠT ony
Ġp Ã¡nico
Ġcom ed
Ġlu ce
olog y
Ġsustitu ido
Cas tellÃ³n
ĠÃºn ete
Ġnoven a
Ġejecu tivos
ĠEsp ÃŃritu
Ġasever ado
Ġub icados
Euro pa
ĠF idel
Ġdor ado
Ġprecios os
Ġ {
les a
Ġto tales
Ġbole tines
Ġl ente
Sal amanca
Ġlo terÃŃa
ĠLo ve
Ġconsol ida
ĠP av
Ġimponer se
or ero
Ġros tros
ĠAN C
Ġdisim ular
Ġampl iado
ĠBr ad
Ġdesapar ecida
ĠTa f
Ġcu bano
Ġser iedad
M en
Ġro bado
el ud
Ġay Ãºdanos
p ÃŃa
Ġinten tarÃ¡
ĠViv e
Ġor eja
P ablo
Ġm ord
euro pa
Ġcontrad ic
ĠP ED
ĠContin u
ĠRec tor
ĠLa ur
Ġfol k
Ġhumil dad
Ġco he
cen tro
Ġpales tinos
Ġpl uma
ĠO jalÃ¡
ĠInvi tado
ti tos
Ġincons titu
ala o
ĠJuven tus
Ġperder ÃŃa
Ġencab eza
Ġjuven iles
Ġfa ceta
ĠMob ile
Ġ17 0
ĠRa to
ĠSer ies
Ġperci be
un ning
Ġprote ÃŃna
ĠInm obili
Ġval ientes
Ġasegur arse
N osotros
Ġcritic an
Ġasom br
ĠBer m
ĠCh o
ĠV uelve
ĠArgÃ¼ elles
ĠXX X
Ġmanifies tan
ĠMoto GP
Ġrepresen tados
ier ras
Ġplante Ã³
ĠS ÃŃn
Ġfalta ba
ĠE g
il andia
ĠCre ar
ĠfÃ¡ bricas
Ġadap tados
Ġasign aciÃ³n
ĠCar l
ĠH em
j aba
Ġcansan cio
l icas
N unca
ĠNues tras
ĠBus h
Ġexis tan
Ġt h
Ġ198 3
ĠFire fox
Ġconsul torÃŃa
s un
Ġmor ales
Ġvolv emos
ur ios
Ġinform an
Ġap u
Ġti m
R io
Ġgarantiz an
it t
Ġgalle tas
Ġpublici tarias
Ġtre mend
Ġmues tre
Ġped ia
Ġdi am
Ġesca pa
TI TU
S D
Ġsacerdo tes
ĠofreciÃ©ndo te
Ġcontra ta
ĠÃ© tico
Ġinter vin
ĠGu z
ĠAboga cÃŃa
Ġentra Ã±
Ġtom adas
Ġnie tos
Ġvac ÃŃa
ĠA rag
pro cÃ©s
ĠAC TU
Ġfascin ante
min istros
i arse
it ÃŃ
ĠM UL
ĠidÃ³n eo
Ġmanio bras
Ġpa tologÃŃa
Ġdialo gar
Pue d
Ġdesn uda
Ġmarav illas
Ġpl Ã¡
Ġbo ico
M ir
Ġpais es
Ġmani pular
Ġtecn icos
ens as
Ġarm ados
ĠclÃ¡s icas
Ġenamor ado
Ġinn umerables
Ġsur real
t ÃŃf
Ġfacil itado
Ġsustitu ye
Ġfoto grÃ¡fico
Ġgu ion
ĠLa go
ĠPol i
ves tre
Ġpros titu
Ġan imo
Ġasisten cias
ĠestÃ³ mago
Ġch ic
ĠF ED
Ġcomple tado
d onos
ĠmÃ¡r genes
Ġre za
Ġte mo
ĠOri huela
Ġvol Ãºmenes
Ġsepar ados
frad ÃŃas
ok e
iz co
L og
Ġdes crito
Ġdic tado
iza cin
ĠAten as
ĠK ur
ĠCom p
Ġdes truc
pe o
Ġpropie taria
ĠE ul
Ġp h
ĠcÃ³ c
Ġsolici tantes
ĠJona than
ĠPa ulo
ol ar
Ġasturi anos
Ġdesconoci da
ĠMo z
Ġdes al
Ġgr ada
Ġ20 30
Ġmold e
Ġas iste
Ġg lu
Ġendu re
Ġesp an
Ġreci ba
ur ne
Ġequip amientos
s is
Ġtr ack
Ġcentr arse
Ġse tas
Ġin us
Ġocul to
l ana
ĠU vin
ĠAn ticorrupciÃ³n
Ġro cas
ĠS he
ĠEs lo
Ġpar ciales
ĠUnivers ity
Ġdil u
ĠcatÃ³ licos
Ġmag na
Ġex tras
Ġma Ã±anas
Ġdesign ado
ĠNo kia
ĠCh e
Ġat letismo
ĠCA P
Ġmedi anas
con o
ĠToy ota
ĠI T
Ġponer te
mo h
ĠCon ec
ĠE F
Ġv elas
Ġcoordin ar
ĠCUR SO
Ġterap ias
ĠHond uras
ĠS k
Pued e
ju ici
Ġtradu cir
ĠCol lado
Ġcan tantes
bur g
Ġcen tran
cion e
ĠNeg ra
Ġba ch
Ġproduci rÃ¡
Ġde tuvo
ĠGer ardo
ĠH idalgo
Ġc ra
ĠMour inho
Ġobs ta
ĠB ono
Ġp ill
em ias
C ala
a tres
Ġorden anza
Ġfrecu entemente
Ġdecid imos
ĠFo od
ĠR AM
Ġmante quilla
Ġcol isiÃ³n
Ġtener lo
Ġmanifes tar
ĠV iena
Ġobserv aciones
Ġ0 3
ĠmetÃ¡ lico
ĠC SS
Ġregul an
ĠLabora torio
Ġe ros
Ġapl as
gan ta
Ġtama Ã±os
Ġcomod idades
Ġinoc ente
Ġpen Ãºlti
ĠA ber
Ġsu yas
Ġpol tica
Ġrev esti
Ġprivileg iada
ari ado
Ġ197 6
Ġunivers itarias
Ġparad igma
uel ga
tis f
Ġre posiciÃ³n
Ġcol gado
Ġa tras
V AL
ĠTÃ©cn icos
olo ga
B ara
ĠContac te
et ta
ĠfÃ³s iles
ĠC EN
ĠsÃ³l idos
ĠJus tin
Ġvuel vo
ĠSa tur
Ġpl enos
Ġinstruc tor
ĠCon venciÃ³n
id iÃ³
Ġadmi tiÃ³
a h
Ġco Ã±o
ta y
p is
ĠGin ebra
Ġorien tada
ĠA ward
v iene
Fel iz
Ġd og
f arro
Ġace it
Ġamp ar
Ġcere ales
ĠDur an
Ġpropor cionado
ĠEc ologistas
ĠC og
Ġb all
ĠRec o
b icos
Ġtro zo
Ġesta tura
ĠUvin um
ĠUN ESCO
Ġeleg antes
ĠanÃ©cdo ta
Ġmas tur
ĠEven tos
ĠTrib unales
Ġjugue te
Ġcompra venta
ĠReun iÃ³n
Ġfin alidades
Ġcond ens
Ġins istir
Ġsufr ieron
ĠAnim ales
Ġpid ieron
I CIA
Ġbeb e
Ġrelig iones
D C
tori edad
Ġgo ta
Ġdescar tar
Ġv itales
Ġdel icioso
ĠinÃº til
Ġpape letas
Ġsal ta
vi tal
ĠA segur
ĠCe cil
200 4
N eces
Ġlig ado
Ġpisto la
ĠCam eron
Ġautor izada
Ġsecre ta
Ġdes venta
Ġ* *
Ġir onÃŃa
ĠQu ique
ĠclÃŃn icas
n io
Ġcombus tibles
car on
Ġsecu estro
ĠBo ca
ĠX avi
Ġvenced or
Ġdel icado
ĠB IEN
ĠMed idas
RE Z
ĠcÃ¡l ido
Ġm ÃŃtica
Ġpes cadores
ĠCama cho
Ġarti cular
ha ce
Ġvolun tariamente
Ġmostr aba
ĠPar al
es tros
Ġtelevis ivo
pos a
ĠCatal ina
ĠH ong
Ġ197 0
ĠRoy al
V a
r ama
ĠAc to
Ġllam e
ĠC ientos
Ġseleccion adas
Ġciudad anas
Ten go
pea ce
ti as
ramien tas
Ġpes ados
! ",
Ġreduc en
Ġro ta
ĠPDe CAT
Ġpac ÃŃfica
Ġtradu cido
cen se
Ġqued ara
Ġob ispos
Ġdesactiv ando
Ġg in
ci ble
Ġcom a
Ġver bal
Ġrio janos
ĠPres identa
ĠExtra ordin
ĠO BR
v Ã©
yo utu
Ġru ina
Ġdestac aba
ĠDis capacidad
Ġ\ "
ĠT DT
N S
Ġcircu la
Fran cia
ĠF ores
Ġref ieren
er e
Ġcorrup tos
Ġni egan
Ġdespla zado
Ġc ÃŃrculos
Ġcontac ta
ĠHi po
Ġdemas iados
Ġadel ga
Ġasisten cial
Ġdes po
Ġsel va
p un
Ġmo le
ĠCN T
Ġempi ece
Ġdecid irÃ¡
Ġdesapar ecidos
t ve
Ġinesper ado
Ġanunci ada
und antes
ĠG ame
Ġvo tada
... ".
Ġestima ciones
Ġimpec able
sa pp
Ġmen cionada
ĠC ep
Ġinf inidad
ĠDetec tamos
ĠJo han
Ġcurr ÃŃculum
IM O
Ġveter anos
do c
fec tos
Ġmercan cÃŃa
Ġcor tado
Ġsac an
Ġrecop ila
Ġllama tivo
g iles
par able
n ab
ĠSÃŃ guenos
ĠfÃŃs icamente
Ġex istido
Ġdistr itos
Ġso porta
ĠseÃ± alizaciÃ³n
ĠK u
Z amora
Bil bao
Ġleg ÃŃ
ĠV arela
em y
Ġverdad es
Ġcumpl imentaciÃ³n
Ġoblig ar
Ġtranquil os
ĠE ver
Ġdegus taciÃ³n
Ġplante amientos
go vi
Ġplan etas
vi ado
Ġacus Ã³
ĠW ikipedia
ĠP anto
int za
ĠAt lan
Ġcora zones
Ġpien sas
ĠS ys
pan ol
Ġdifund ido
ca uciÃ³n
ĠH AS
Ġmoto cic
may or
Pa ge
lo y
Ġconfron taciÃ³n
p ico
ĠCE OE
Ġjus tamente
Ġdesapar ece
Ġatropel lo
ti jo
Ġg la
fa cebook
Ġhay amos
Ġembara zadas
DE Z
ĠL ady
Ġllevar lo
Ġpes a
Ġgu iada
ad ern
Ġven tan
Ġmotiv ado
Ġretr ibuciÃ³n
Ġrequer ida
Ġins tado
Ġviv encias
Ġconsegu imos
Ġfoto copia
Ġconsider aba
Ġacus ada
Ġpermi ti
Ġimpl icado
Ġtrav esÃŃa
Ġinfl uye
J OS
Ġch anta
Ġpes ado
Ġcal entar
Ġrequer imiento
Ġfu Ã©
ci enden
ac cion
Ġadv ierten
Ġsu aves
Ġinteres ar
ig ital
ĠS how
Ġprofes iones
es tes
Ġpar tÃŃ
ĠÃ³pti ma
ĠAP P
' +
ĠA ta
Ġcau ce
man as
Ã³ var
Ġtecn ologia
tu p
ĠInterpre taciÃ³n
Ġsocial demÃ³cra
Ġpoten cias
EL L
Ġmater na
ester ol
ĠPRO GRA
Ġorigin alidad
Ġtribu taria
ĠVen tas
Ġsegur as
Ġretras ado
Ġreaccion Ã³
g ara
ĠNego cios
Ġacredi tar
Ġes qu
Ġic onos
red edor
ĠCh eca
Ġevid encias
Ġprem isa
R AS
Ġsom br
f onÃŃa
Ġpod casts
ĠM r
I g
ĠEx po
E so
Ġin elud
ĠN u
Ġpon te
Ġequi pado
Ġcalific Ã³
Ġdeber Ã¡s
ĠL ife
Ġprogres istas
ĠCas ino
ĠPRES S
ĠTRABA JO
Ġom bl
Ġemble mÃ¡tico
Ġsuperior idad
ĠO d
all era
g Ã¡is
ĠL unes
Ġaten tos
Ġbrasile Ã±a
Ġx en
Ġren ueva
Ġajus tado
Ġdes fil
Ġsustitu to
tas una
Ã¡u tico
Ġt cn
San tander
ad iÃ³
ĠAr gel
Ġcolabor an
ĠCor n
ĠE CON
Ġper cep
ĠCal la
ĠLlo bregat
ĠI DE
ĠÃļl tima
Ġur l
Ġatra e
Ġmane ja
Ġmis ter
Ġlleg ados
ĠDeleg ado
ific adas
Qu iero
Ġperfec tas
Ġparticipa ciones
ĠDescar gar
ĠEntr ada
ĠM uestra
om i
Ġalmacen es
Ġcomis arÃŃa
Ġir ri
ĠMa to
Ġal titud
Ġfal da
Ġson re
Ġutiliz arse
Ġindefin ida
Ġto x
ID AS
Ġextra Ã±os
Ġcos tar
Ġconform ar
Ġcofinanci ado
Ġexces ivamente
Ġrecorr idos
ti ro
Ġaver ias
lex iÃ³n
Ġreflex ion
Ġalm uerzo
ĠCer rar
ĠH O
200 5
ĠNa cionales
w ar
Ġnewslet ters
Ġbipartid ismo
Ġe cho
ĠS D
ĠRe formas
C entro
ĠVas ca
Ġclaus tro
ĠT ob
democ racia
Ġg Ã³tico
ĠColeg ios
Ġma cho
Ġencom end
ĠUtil izamos
Ġcontin ental
ĠC id
an ada
Ġpin tado
ĠH ill
Ġcaj Ã³n
Ġinv ito
Ġdomin ar
ash ion
ĠG ord
Ġgran o
Ġregistr an
Ġcab ina
Ġadver tencia
Ġimp iden
ĠEn viar
Ġalquiler es
Ġex puestas
Ġfirm ada
Ġpa ternidad
EC ES
Ġllev adas
ĠC ES
ble mas
Ġrefle jado
Ġtrans portar
in eros
ĠIb Ã¡Ã±ez
Ġcurios idades
Ġf ech
Ġfirm aron
b Ã©
Ġcor al
ĠL LE
Ġan ular
Ġd Ã¡ndole
Le y
Ġcomple tan
ĠEs tam
Ġblo queda
Ġape la
T iene
ĠCa tÃ¡logo
Ġch am
ĠC erra
m ones
Ġaclar ado
o ff
Ġdoctor ado
Se govia
ĠCompe tencia
Ġlin do
Ġsond eo
tecn ologÃŃa
Ġy endo
ci ada
Ġeuro pa
an n
Ġsub san
Ġcier tamente
ph one
ocu l
Ġarm ada
ĠB AL
ĠVAL ENCIA
Ġgubernam entales
Ġin tac
Ġgal erÃŃas
Ġp se
Ġprestig iosa
vo t
Ġco tiz
Ġmon tada
sen ger
Ġbloqueda or
ig raciÃ³n
ern as
Ġnavide Ã±o
bil izar
Ġins pira
Ġdom Ã©sticos
Ġor ient
ĠBiblio tecas
Ġexplic ando
Ġagu jeros
ĠJo e
Ġalterna tivos
Ġcontin entes
ĠCons ervatorio
aran cÃ³n
Ġch aval
ĠDE POR
ĠEuro liga
Ġped ago
Ġcolap so
troceram icas
Ġres tante
Ġide olÃ³gico
tiv ismo
r omo
ĠProf usamente
Ġempa tÃŃa
Ġcons istir
Ġpag Ã³
Ġa ri
ĠP ele
ĠNa zar
P H
Ġpos te
ĠS tra
gran d
Ġcaracter ÃŃstico
Ġcar dia
Ġalar mas
ĠI A
Ġlav adoras
Ġfil oso
Ġverti ente
Ġte tas
ol d
Ġob se
Ġle a
iv ada
Ġmig raciÃ³n
ĠBarber Ã¡
p eso
Ġauto car
ĠESPAÃĳ OL
Ġanaliz amos
ta in
Ã³ j
je a
â ģ
Ġpropor cional
Ġmis m
Ġs ientes
Ġimagen es
ĠÃģ balos
Ġejecu tado
me lo
ĠâĤ¬ .
mp le
gues es
Ġf ul
Ġrespir ar
olv iendo
Ġjud ÃŃo
Ġelev adas
ĠTa pa
Ġpasar Ã¡s
Ġasim il
Ġdesem bol
Ġilus iones
Ġvis ibil
Ġfor zos
Ġdecid ÃŃ
Ġrevel an
Ġarag onesa
Ġser p
GP J
Ġind ud
Ġman tuvieron
ĠI L
Ġcil ind
Ġt v
Ġcombina ciones
Ġaprue ban
ĠM s
pa cto
ĠdÃ³ lar
ĠF orn
Ġan on
Ġdesp idos
Ġrefor zado
Ġn ulidad
Ġsex y
ĠRes id
Ġalter n
Ġdej as
Ġlan zan
e qui
Ġcas ado
ĠCOMP LE
Ġcontar Ã¡n
ĠD IG
Ġdefin ida
z en
Ġl us
Ġsuje ta
Ġcol esterol
rea k
M L
V ic
Ġcu pones
as u
Ġaver ia
Ġpreco z
Ġcotidi ano
ĠEl abor
ĠAdel ante
ĠPR C
Ġamis toso
ĠS tore
@@@@@@@@ @@@@@@@@
me do
Ġmir an
Ġacep to
ĠAlum nos
Ġcubier tos
Ġtax istas
ĠExper tos
Ġdi le
Ġtelevis iva
Ġcar encia
ĠMed alla
Ġconced iÃ³
Ġn al
ĠMir ador
ver as
ĠDesarrol lado
Ã «
con oci
Ġinf arto
Ġv il
ĠHa w
Ġestr enado
Ġpes adilla
Ġdiv or
che go
oc al
Ġmal eta
ĠT emas
Ġsend os
Ġescri tas
Ġaj edrez
Ġdefens ivo
ĠC es
Ġcompa cto
. Â¡
ĠÃ© tn
Ġbr us
Ġlen tamente
Ġestudi an
Ġz umo
Ġp aj
Ġdeb il
Ġestable zca
Ġrefer ida
ĠCal zada
ĠJul en
Ġcaud al
ĠfotÃ³graf os
ĠAc tos
Ġbloque ar
Ġ Ã©n
Ġresal ta
Ġca cer
ĠSteph en
ĠV endo
ĠPS N
ol s
Ġauto gobierno
Ã©ndo le
ĠManif iesto
ĠBarcel Ã³
Ġlo cu
Ġprogram adas
ĠC ib
Ġlig ada
ĠEx press
ĠS pe
Ġus ada
so cia
Ġcam ina
Ãį AS
ĠRo vira
fas is
Ġadver tir
CI NA
Ġnorma tivas
ran s
Ġacer tado
ĠIngres a
Ġsim ula
i amos
Ġmayor itario
Ġdir Ã©
Ġfr entes
Ġrell en
ĠAr ms
ĠmetÃ¡ f
Ġimpl icadas
am ental
Ġespecif icaciones
Ġp and
Ġven ÃŃan
tif y
Ġpob lado
Ġproces ado
Ġobr era
Ġprotec tor
por to
ad re
v ados
ĠBar denas
] >
ĠCora zÃ³n
ĠTech n
Ġexpec taciÃ³n
cord ia
ĠC CAA
ĠPad res
Ġanaliz ando
ĠCOM ER
Ġcarn Ã©
Ġblan que
ell ers
Ġdeber se
Ġsupon ÃŃa
ĠTaf alla
ĠDur Ã¡n
ĠFi tur
Ġpro visiÃ³n
Ġinforma tivas
Ġcomprome tidos
Ġreproduc ciones
Ġstre aming
ĠCE U
Ġselec ciona
Ġindemn izaciones
Ġro ble
Ġcay eron
ĠC ob
Ġplan tar
Ġdiver tidos
man os
m isiones
ĠCan gas
ĠGas par
Ġviol ento
Ġtre menda
Ġtr om
ĠAgu ado
Ġcre adas
Ġle ÃŃ
Ġcha queta
Ġesp ir
Ġdemas iadas
Ġdesconoci miento
Ġencontrar la
ĠIndepend encia
Ġinfin ito
Ġfrustr aciÃ³n
agu do
Ġglo bo
Ġla var
ĠVer des
Ġsin Ã³nimo
Ġcre aron
b oc
Ġconven iencia
ĠConsul te
ĠPr in
tiv aciÃ³n
k ins
ĠCAS A
Ġobr eros
Q L
Ġindifer ente
V ila
ne do
Ġprome ted
Ġdes hacer
Ġproduc tiva
Ġcontrad icciones
ĠTay lor
ĠNe uro
Ġacostum brado
Ġtor p
Ġpersegu ir
p son
Ġinici aron
Ġimpos ibles
Ġacad emia
Ã¡m icos
ĠAy udas
Ġsignifica tivamente
ĠdifÃŃcil mente
Ġalcan zando
ĠEmbaj ada
je tivo
Ġcen as
ific ador
( "
Ġpotes tad
ĠIngenier o
Ġprior itario
Ġdes ple
ĠE jer
ajes tad
IT ER
la opinion
Ġcan ciller
ĠG A
Ġinto x
Ġas fix
Con greso
p lo
Ġhistori adores
z arÃ¡
Ġcamp anas
ĠJer Ã³nimo
ĠZo ido
ĠBo tÃŃn
e G
Ġmer ced
ĠSalud os
ĠIsa ac
Ã©r cules
Ġobserv ado
Ġnos talgia
ĠP V
Ã³ ticas
Ġconcurr encia
ĠCa ÃŃdos
ĠRes umen
Ġqued aban
ins tein
Ã³x ido
Ġlleg ara
biÃ³ ticos
Ġcual ificado
Ġtraslad ados
ĠCap itÃ¡n
S tar
tu osos
Ġaj enas
ÃŃ graf
Ġexcur siÃ³n
ĠTur ÃŃstico
Ġcom posiciones
ĠWh ite
Ġform almente
ĠPanto ja
Ġemple ada
ĠCala trava
Ġha gamos
des e
Ġgener Ã³
Ġasfal to
ic able
cur r
Ġf ec
y m
icul as
Ġdivid ir
Ġrepresen tada
Ġo ye
us si
Ġec ologistas
ĠDen ominaciÃ³n
Ġmarc ando
ID E
Ġexac titud
Ġofens ivo
Ġsac ando
L ib
ĠBo w
Ġcoordin ado
mas ter
ĠTor os
Ġadj un
ĠH uerta
ĠD S
ĠtÃ©r mica
is es
Ġombl igo
v adas
Ġrem ol
ĠcuÃ¡n tos
od y
ĠOC DE
Ġna cida
ĠR ic
ĠÃ¡ gil
Ġcuen ten
ida y
Ġes cl
Ġpa ula
Ġpele ar
Ã¡zar o
ĠolÃŃmp ico
ĠL ine
ĠRon cal
Ġr on
ĠCo fradÃŃa
Ġp ilar
ĠAn to
Ġper tur
Ġfin ancia
r ico
Ġab ul
ĠRIO JA
ĠCh aves
ĠEugen io
Ġusu aria
Ġb eta
ÃŃ tez
Ġcelebr aron
ĠM Ã³stoles
ĠPod Ã©is
Ġmezcl ar
ĠCOR RE
ĠhÃ¡ biles
Ġdepos itar
Ġcan arios
ĠFlor isteria
Ġadquis itivo
ab c
Ġsus to
Ġincom pr
Ġofrecer Ã¡n
tu arios
ban k
ĠEs querra
Ġproteg idas
Ġlic enciado
S erv
ĠEsta ble
Ġop ta
Ġter mos
Reg ÃŃstrate
Andal ucÃŃa
Ġcas illa
Ġcons orcio
ĠDe j
TAM IENTO
Y EC
Ġgan aron
Ġp leg
Ġplas ma
Ġrepi ten
Ġz ur
Ġsecund ario
Ġdeber ÃŃas
Ġte me
Ġsegu idas
ĠS OS
Ġnom bra
Ġhel ado
Ġbuscar Ã¡
Ġdecis iva
ĠMa ch
ĠUN ED
Ġcerr adas
Ġrefle jar
Ġim puesta
ĠCol o
ĠMar oto
Ġpul se
ĠPod rÃŃa
ĠL IM
Ġrebo tes
Ġexac to
Ġcontes ta
Ġin hib
ĠH ur
ĠEduca tiva
Tor re
ĠEche var
Ġclan des
Ġdor ada
p oder
tori amente
ĠAl var
ĠBara ck
ĠSerg i
ĠS GAE
Ġe pic
Ġalter ar
Ġid io
Ġw ifi
Ġimpar tido
Ġti o
ĠÃļ nete
ĠR oll
ĠAd if
ĠMar x
Ġchil eno
icara gua
Ġesper ada
S us
Ġcol as
T ADO
fermin es
Ġdis tan
Ġcar to
ĠMonte agudo
ĠW es
ĠSe at
Ġacus an
B AN
IL I
Ġsu bl
m und
Ġin mejor
Ġpin tados
Ġimpar able
bi e
Ġin cul
ĠFeder er
Ġar gen
Ġencend ido
Ġdom ina
Ġtar da
ĠE ran
[...]
