{"<s>": 0, "<pad>": 1, "</s>": 2, "<unk>": 3, "<mask>": 4, "[UNUSED-0]": 5, "[UNUSED-1]": 6, "[UNUSED-2]": 7, "[UNUSED-3]": 8, "[UNUSED-4]": 9, "[UNUSED-5]": 10, "[UNUSED-6]": 11, "[UNUSED-7]": 12, "[UNUSED-8]": 13, "[UNUSED-9]": 14, "[UNUSED-10]": 15, "[UNUSED-11]": 16, "[UNUSED-12]": 17, "[UNUSED-13]": 18, "[UNUSED-14]": 19, "[UNUSED-15]": 20, "[UNUSED-16]": 21, "[UNUSED-17]": 22, "[UNUSED-18]": 23, "[UNUSED-19]": 24, "[UNUSED-20]": 25, "[UNUSED-21]": 26, "[UNUSED-22]": 27, "[UNUSED-23]": 28, "[UNUSED-24]": 29, "[UNUSED-25]": 30, "[UNUSED-26]": 31, "[UNUSED-27]": 32, "[UNUSED-28]": 33, "[UNUSED-29]": 34, "[UNUSED-30]": 35, "[UNUSED-31]": 36, "[UNUSED-32]": 37, "[UNUSED-33]": 38, "[UNUSED-34]": 39, "[UNUSED-35]": 40, "[UNUSED-36]": 41, "[UNUSED-37]": 42, "[UNUSED-38]": 43, "[UNUSED-39]": 44, "[UNUSED-40]": 45, "[UNUSED-41]": 46, "[UNUSED-42]": 47, "[UNUSED-43]": 48, "[UNUSED-44]": 49, "[UNUSED-45]": 50, "[UNUSED-46]": 51, "[UNUSED-47]": 52, "[UNUSED-48]": 53, "[UNUSED-49]": 54, "!": 55, "\"": 56, "#": 57, "$": 58, "%": 59, "&": 60, "'": 61, "(": 62, ")": 63, "*": 64, "+": 65, ",": 66, "-": 67, ".": 68, "/": 69, "0": 70, "1": 71, "2": 72, "3": 73, "4": 74, "5": 75, "6": 76, "7": 77, "8": 78, "9": 79, ":": 80, ";": 81, "<": 82, "=": 83, ">": 84, "?": 85, "@": 86, "A": 87, "B": 88, "C": 89, "D": 90, "E": 91, "F": 92, "G": 93, "H": 94, "I": 95, "J": 96, "K": 97, "L": 98, "M": 99, "N": 100, "O": 101, "P": 102, "Q": 103, "R": 104, "S": 105, "T": 106, "U": 107, "V": 108, "W": 109, "X": 110, "Y": 111, "Z": 112, "[": 113, "\\": 114, "]": 115, "^": 116, "_": 117, "`": 118, "a": 119, "b": 120, "c": 121, "d": 122, "e": 123, "f": 124, "g": 125, "h": 126, "i": 127, "j": 128, "k": 129, "l": 130, "m": 131, "n": 132, "o": 133, "p": 134, "q": 135, "r": 136, "s": 137, "t": 138, "u": 139, "v": 140, "w": 141, "x": 142, "y": 143, "z": 144, "{": 145, "|": 146, "}": 147, "~": 148, "¡": 149, "¢": 150, "£": 151, "¤": 152, "¥": 153, "¦": 154, "§": 155, "¨": 156, "©": 157, "ª": 158, "«": 159, "¬": 160, "®": 161, "¯": 162, "°": 163, "±": 164, "²": 165, "³": 166, "´": 167, "µ": 168, "¶": 169, "·": 170, "¸": 171, "¹": 172, "º": 173, "»": 174, "¼": 175, "½": 176, "¾": 177, "¿": 178, "À": 179, "Á": 180, "Â": 181, "Ã": 182, "Ä": 183, "Å": 184, "Æ": 185, "Ç": 186, "È": 187, "É": 188, "Ê": 189, "Ë": 190, "Ì": 191, "Í": 192, "Î": 193, "Ï": 194, "Ð": 195, "Ñ": 196, "Ò": 197, "Ó": 198, "Ô": 199, "Õ": 200, "Ö": 201, "×": 202, "Ø": 203, "Ù": 204, "Ú": 205, "Û": 206, "Ü": 207, "Ý": 208, "Þ": 209, "ß": 210, "à": 211, "á": 212, "â": 213, "ã": 214, "ä": 215, "å": 216, "æ": 217, "ç": 218, "è": 219, "é": 220, "ê": 221, "ë": 222, "ì": 223, "í": 224, "î": 225, "ï": 226, "ð": 227, "ñ": 228, "ò": 229, "ó": 230, "ô": 231, "õ": 232, "ö": 233, "÷": 234, "ø": 235, "ù": 236, "ú": 237, "û": 238, "ü": 239, "ý": 240, "þ": 241, "ÿ": 242, "Ā": 243, "ā": 244, "Ă": 245, "ă": 246, "Ą": 247, "ą": 248, "Ć": 249, "ć": 250, "Ĉ": 251, "ĉ": 252, "Ċ": 253, "ċ": 254, "Č": 255, "č": 256, "Ď": 257, "ď": 258, "Đ": 259, "đ": 260, "Ē": 261, "ē": 262, "Ĕ": 263, "ĕ": 264, "Ė": 265, "ė": 266, "Ę": 267, "ę": 268, "Ě": 269, "ě": 270, "Ĝ": 271, "ĝ": 272, "Ğ": 273, "ğ": 274, "Ġ": 275, "ġ": 276, "Ģ": 277, "ģ": 278, "Ĥ": 279, "ĥ": 280, "Ħ": 281, "ħ": 282, "Ĩ": 283, "ĩ": 284, "Ī": 285, "ī": 286, "Ĭ": 287, "ĭ": 288, "Į": 289, "į": 290, "İ": 291, "ı": 292, "Ĳ": 293, "ĳ": 294, "Ĵ": 295, "ĵ": 296, "Ķ": 297, "ķ": 298, "ĸ": 299, "Ĺ": 300, "ĺ": 301, "Ļ": 302, "ļ": 303, "Ľ": 304, "ľ": 305, "Ŀ": 306, "ŀ": 307, "Ł": 308, "ł": 309, "Ń": 310, "Ġd": 311, "Ġe": 312, "Ġde": 313, "Ġl": 314, "os": 315, "Ġp": 316, "Ġc": 317, "en": 318, "er": 319, "Ġa": 320, "es": 321, "ar": 322, "as": 323, "on": 324, "ci": 325, "Ġs": 326, "or": 327, "an": 328, "ad": 329, "ue": 330, "al": 331, "Ġla": 332, "Ġm": 333, "Ġen": 334, "Ã³": 335, "que": 336, "un": 337, "re": 338, "ti": 339, "in": 340, "Ġque": 341, "Ġy": 342, "te": 343, "Ġel": 344, "ta": 345, "tr": 346, "Ġes": 347, "Ã³n": 348, "to": 349, "Ġcon": 350, "ÃŃ": 351, "Ġh": 352, "Ã¡": 353, "id": 354, "Ġun": 355, "Ġn": 356, "is": 357, "om": 358, "ic": 359, "ĠE": 360, "ciÃ³n": 361, "Ġse": 362, "Ġf": 363, "Ġv": 364, "Ġlos": 365, "ro": 366, "ĠC": 367, "do": 368, "ado": 369, "Ġpar": 370, "Ġdel": 371, "Ġre": 372, "le": 373, "am": 374, "Ġsu": 375, "ĠP": 376, "Ġin": 377, "Ġo": 378, "ĠA": 379, "Ã©": 380, "ol": 381, "tu": 382, "Ġha": 383, "res": 384, "ĠL": 385, "ien": 386, "ĠS": 387, "Ġpor": 388, "Ġcom": 389, "Ġlas": 390, "Ã±": 391, "im": 392, "ra": 393, "Ġal": 394, "ec": 395, "ĠM": 396, "il": 397, "aciÃ³n": 398, "Ġg": 399, "Ġpara": 400, "Ġb": 401, "io": 402, "ter": 403, "ÃŃa": 404, "cion": 405, "ab": 406, "Ġno": 407, "Ġuna": 408, "tos": 409, "la": 410, "ten": 411, "em": 412, "Ġpro": 413, "ente": 414, "qu": 415, "tar": 416, "ia": 417, "cu": 418, "lo": 419, "..": 420, "ig": 421, "ir": 422, "us": 423, "ed": 424, "ĠD": 425, "Ã¡s": 426, "idad": 427, "Ġtr": 428, "Ġcu": 429, "ada": 430, "cia": 431, "Ġdes": 432, "Ãº": 433, "Ġper": 434, "ch": 435, "tes": 436, "el": 437, "ier": 438, "ĠT": 439, "tor": 440, "pa": 441, "Ġ\"": 442, "iz": 443, "ĠR": 444, "tiv": 445, "ca": 446, "Ġlo": 447, "ici": 448, "tan": 449, "ĠEl": 450, "ur": 451, "Ġac": 452, "ib": 453, "Ġto": 454, "ĠG": 455, "tas": 456, "ma": 457, "ĠEs": 458, "da": 459, "Ġex": 460, "ĠB": 461, "iv": 462, "ciones": 463, "Ġpr": 464, "ues": 465, "ales": 466, "ob": 467, "ul": 468, "Ġcomo": 469, "ĠmÃ¡s": 470, "Ġ(": 471, "ĠI": 472, "co": 473, "Ã¡n": 474, "ica": 475, "ido": 476, "ĠLa": 477, "Ġ2": 478, "od": 479, "tal": 480, "tra": 481, "Ġ1": 482, "ados": 483, "ĠF": 484, "go": 485, "mp": 486, "aj": 487, "ĠN": 488, "Ġti": 489, "Ġj": 490, "ando": 491, "se": 492, "tro": 493, "era": 494, "mo": 495, "po": 496, "ios": 497, "Ġan": 498, "Ġmu": 499, "ĠV": 500, "iÃ³n": 501, "tam": 502, "Ġser": 503, "ez": 504, "Ġres": 505, "Ġme": 506, "ce": 507, "ud": 508, "ĠJ": 509, "ero": 510, "gu": 511, "Ġsi": 512, "Ġte": 513, "ran": 514, "ĠU": 515, "ĠH": 516, "ico": 517, "Ġest": 518, "if": 519, "Ġesta": 520, "orm": 521, "ĠEn": 522, "Ġpre": 523, "iento": 524, "bl": 525, "ador": 526, "...": 527, "pe": 528, "Ġr": 529, "par": 530, "bi": 531, "paÃ±": 532, "Ġdis": 533, "Ġsus": 534, "por": 535, "Ġle": 536, "uc": 537, "Ġeste": 538, "oci": 539, "00": 540, "tre": 541, "ida": 542, "ĠaÃ±": 543, "per": 544, "Ġcons": 545, "Ġim": 546, "end": 547, "av": 548, "Ã©n": 549, "Ġpres": 550, "Ġma": 551, "um": 552, "encia": 553, "Ġas": 554, "Ġqu": 555, "no": 556, "ri": 557, "ante": 558, "di": 559, "ĠO": 560, "dos": 561, "na": 562, "ĠÂ": 563, "Ã©s": 564, "Ġten": 565, "ĠĊ": 566, "ion": 567, "cer": 568, "enta": 569, "Ġpue": 570, "uev": 571, "con": 572, "Ġpa": 573, "ga": 574, "ara": 575, "br": 576, "emos": 577, "tado": 578, "obre": 579, "Ġca": 580, "adas": 581, "Ġsin": 582, "gun": 583, "tros": 584, "Ġar": 585, "los": 586, "Ġtu": 587, "ĠCon": 588, "Ãºn": 589, "Ġsobre": 590, "ru": 591, "pon": 592, "ens": 593, "Ġman": 594, "aliz": 595, "cl": 596, "ĠIn": 597, "dad": 598, "Ġpas": 599, "pl": 600, "Ġcas": 601, "ana": 602, "Ġdi": 603, "Ġemp": 604, "son": 605, "gr": 606, "amos": 607, "za": 608, "gar": 609, "ces": 610, "cias": 611, "ora": 612, "Ġinter": 613, "Ġparti": 614, "les": 615, "Ġpod": 616, "pos": 617, "ÃŃs": 618, "ven": 619, "Ġentre": 620, "las": 621, "uer": 622, "Ġinf": 623, "Ġpued": 624, "Ġpero": 625, "Ġcam": 626, "ers": 627, "it": 628, "Ġmed": 629, "Ġad": 630, "ores": 631, "Ġ-": 632, "eg": 633, "Ġlle": 634, "ba": 635, "tic": 636, "Ġhan": 637, "Ġtien": 638, "Ġnuev": 639, "ista": 640, "ismo": 641, "amente": 642, "ario": 643, "Ġprim": 644, "Ġperson": 645, "mente": 646, "ĠAl": 647, "lan": 648, "Ġ20": 649, "Ġson": 650, "ĠY": 651, "ento": 652, "Ġya": 653, "bre": 654, "Ġor": 655, "ie": 656, "rec": 657, "Ġnues": 658, "alidad": 659, "Ġmar": 660, "Ġfin": 661, "tin": 662, "Ġsol": 663, "tica": 664, "tivo": 665, "ias": 666, "biÃ©n": 667, "Ġcar": 668, "Ġver": 669, "Ġtodo": 670, "entes": 671, "ĠUn": 672, "ech": 673, "pres": 674, "Ġco": 675, "\",": 676, "\".": 677, "ĠaÃ±os": 678, "ble": 679, "orma": 680, "Ġsal": 681, "duc": 682, "tras": 683, "Ġcomp": 684, "lar": 685, "ena": 686, "tura": 687, "Ġnos": 688, "car": 689, "Ġap": 690, "ÃŃn": 691, "ano": 692, "Ġob": 693, "Ġpos": 694, "Ġcre": 695, "ĠLos": 696, "til": 697, "Ġcor": 698, "ÃŃas": 699, "esti": 700, "abaj": 701, "min": 702, "Ġmuch": 703, "ĠestÃ¡": 704, "oy": 705, "Ġins": 706, "Ġt": 707, "ras": 708, "paÃ±a": 709, "Ġ3": 710, "Ġam": 711, "Ġtrabaj": 712, "ĠCom": 713, "Ġdesd": 714, "Ġmej": 715, "Ġdesde": 716, "je": 717, "eb": 718, "Ġtam": 719, "ac": 720, "Ġtan": 721, "cio": 722, "pu": 723, "Ġau": 724, "Ġab": 725, "Ġdeb": 726, "Ġof": 727, "Ġmuy": 728, "Ġdos": 729, "cional": 730, "eces": 731, "oc": 732, "ina": 733, "ita": 734, "mas": 735, "asta": 736, "Ġhay": 737, "icos": 738, "ĠRe": 739, "jo": 740, "Ġmi": 741, "igu": 742, "ĠtambiÃ©n": 743, "Ġpol": 744, "ona": 745, "ĠMar": 746, "idos": 747, "uro": 748, "entar": 749, "pues": 750, "Ġhab": 751, "Ġus": 752, "ener": 753, "uel": 754, "Ġ201": 755, "ĠSe": 756, "com": 757, "Ġsoci": 758, "das": 759, "og": 760, "Ġesc": 761, "ver": 762, "gan": 763, "ones": 764, "ĠPor": 765, "Ġ'": 766, "jer": 767, "Ġni": 768, "Ġmun": 769, "tiva": 770, "Ġgran": 771, "enti": 772, "des": 773, "udad": 774, "mos": 775, "Ġter": 776, "itar": 777, "Ġreg": 778, "Ã±o": 779, "ĠÂ¿": 780, "iendo": 781, "cip": 782, "iudad": 783, "ĠAn": 784, "Ġpo": 785, "eo": 786, "ĠSan": 787, "icaciÃ³n": 788, "Ġmo": 789, "Ġtodos": 790, "ond": 791, "Ġmen": 792, "pi": 793, "Ġparte": 794, "Ġind": 795, "ja": 796, "mi": 797, "Ġmay": 798, "ĠEspaÃ±a": 799, "Ġlu": 800, "icio": 801, "lam": 802, "ea": 803, "Ġempres": 804, "Ġhasta": 805, "so": 806, "iciÃ³n": 807, "iente": 808, "tico": 809, "ĠNo": 810, "adr": 811, "Ġinform": 812, "ĠDE": 813, "emp": 814, "Ġcan": 815, "ĠDe": 816, "iones": 817, "Ġcontra": 818, "quier": 819, "vo": 820, "idades": 821, "Ġactu": 822, "Ġtra": 823, "ill": 824, "istas": 825, "man": 826, "Ġtiene": 827, "Ġinv": 828, "erv": 829, "titu": 830, "Ãºl": 831, "obier": 832, "aba": 833, "pec": 834, "adores": 835, "cial": 836, "edad": 837, "qui": 838, "arÃ¡": 839, "du": 840, "arios": 841, "ĠaÃ±o": 842, "ub": 843, "Ġpuede": 844, "Ġref": 845, "Ġda": 846, "Ġcuando": 847, "Ġcol": 848, "Ġserv": 849, "icas": 850, "Ġmejor": 851, "Ġtras": 852, "ĠAs": 853, "fec": 854, "gen": 855, "Ġfue": 856, "),": 857, "Ãºlti": 858, "cha": 859, "cur": 860, "Ġhacer": 861, "Ġdeci": 862, "tÃ³": 863, "toria": 864, "zo": 865, "ve": 866, "Ġdirec": 867, "Ãºbl": 868, "eros": 869, "obierno": 870, "can": 871, "tur": 872, "Ġneces": 873, "Ġdif": 874, "Ġfu": 875, "Ġna": 876, "der": 877, "ivers": 878, "ton": 879, "tir": 880, "Ġgra": 881, "OS": 882, "unto": 883, "iste": 884, "Ġcal": 885, "tados": 886, "teri": 887, "Ã±a": 888, "Ġpu": 889, "ER": 890, "urante": 891, "ĠÃºlti": 892, "gÃºn": 893, "Ġcual": 894, "Ġ4": 895, "cin": 896, "Ġforma": 897, "Ġconf": 898, "adrid": 899, "onde": 900, "Ġcos": 901, "cn": 902, "uen": 903, "Ġpla": 904, "Ġcen": 905, "ord": 906, "Ġw": 907, "Ġmis": 908, "Ġvis": 909, "tante": 910, "Ġfun": 911, "Ã³m": 912, "ay": 913, "Ġlib": 914, "vis": 915, "ĠLas": 916, "paÃ±ol": 917, "arro": 918, "Ġporque": 919, "cal": 920, "Ġcl": 921, "ible": 922, "ĠdÃŃa": 923, "able": 924, "Ġacu": 925, "Ġelec": 926, "tivos": 927, "xim": 928, "Ġalgun": 929, "ies": 930, "den": 931, "ES": 932, "Ġdic": 933, "ced": 934, "ÃŃcu": 935, "et": 936, "Ġdonde": 937, "Ġciudad": 938, "Ã©r": 939, "anos": 940, "Ġpe": 941, "lec": 942, "Ġrealiz": 943, "ama": 944, "Ġvez": 945, "ĠpolÃŃ": 946, "Ġtiem": 947, "Ġah": 948, "Ġve": 949, "ilidad": 950, ").": 951, "ino": 952, "taciÃ³n": 953, "ĠSi": 954, "Ġmes": 955, "Ġ5": 956, "Ġcada": 957, "icios": 958, "yec": 959, "Ġpersonas": 960, "Ġcomun": 961, "emÃ¡s": 962, "ĠW": 963, "cas": 964, "Ġespe": 965, "Ġbien": 966, "ÃŃan": 967, "Ġsec": 968, "Ġay": 969, "idas": 970, "ĠAr": 971, "Ġreci": 972, "rÃ¡": 973, "ĠMadrid": 974, "Ġestu": 975, "ĠasÃŃ": 976, "Ġsido": 977, "Ġcr": 978, "Ġllev": 979, "Ġform": 980, "Ġhace": 981, "âĢ": 982, "almente": 983, "antes": 984, "ĠQ": 985, "Ġimpor": 986, "Ġhis": 987, "ans": 988, "cil": 989, "Ġprof": 990, "icado": 991, "aron": 992, "Ġcer": 993, "Ġju": 994, "Ġuno": 995, "ito": 996, "Ġgener": 997, "Ġincl": 998, "Ġ|": 999, "Ġch": 1000, "endo": 1001, "Ġmod": 1002, "gos": 1003, "arse": 1004, "Ġsig": 1005, "Ġop": 1006, "iÃ³": 1007, "tel": 1008, "miento": 1009, "Ġval": 1010, "ĠCar": 1011, "entos": 1012, "uciÃ³n": 1013, "ĠpÃºbl": 1014, "istr": 1015, "uros": 1016, "aciones": 1017, "tis": 1018, "Ġmayor": 1019, "Ġem": 1020, "Ġden": 1021, "Ġid": 1022, "uy": 1023, "Ġsegu": 1024, "nos": 1025, "Ġprop": 1026, "Ġdere": 1027, "Ġro": 1028, "AS": 1029, "Ġu": 1030, "ĠEuro": 1031, "Ġproduc": 1032, "Ġtiempo": 1033, "ĠespaÃ±ol": 1034, "Ġpues": 1035, "cel": 1036, "ep": 1037, "arrol": 1038, "illa": 1039, "Ġsab": 1040, "Ġdef": 1041, "ĠAd": 1042, "AR": 1043, "Ġ19": 1044, "ele": 1045, "ĠÃ©": 1046, "Ġviv": 1047, "Ġdurante": 1048, "CI": 1049, "ef": 1050, "ĠDes": 1051, "ĠLe": 1052, "amiento": 1053, "ticas": 1054, "Ġequi": 1055, "EN": 1056, "Ã±os": 1057, "idente": 1058, "ĠestÃ¡n": 1059, "ala": 1060, "Ġweb": 1061, "mpl": 1062, "Ġcaso": 1063, "Ġentr": 1064, "Ġhech": 1065, "Ġfal": 1066, "Ġhor": 1067, "Ġ#": 1068, "incip": 1069, "Ġmismo": 1070, "gur": 1071, "Ġnuevo": 1072, "Ġpubl": 1073, "Ġotros": 1074, "ON": 1075, "Ġmom": 1076, "vi": 1077, "tores": 1078, "ĠCas": 1079, "me": 1080, "ĠGobierno": 1081, "Ġne": 1082, "Ġmundo": 1083, "ientos": 1084, "Ġencu": 1085, "ĠCa": 1086, "Ġvida": 1087, "Ġ@": 1088, "Ġplan": 1089, "unque": 1090, "pul": 1091, "ĠPar": 1092, "cho": 1093, "Ġmin": 1094, "Ġestar": 1095, "ĠpaÃŃs": 1096, "Ġproyec": 1097, "ĠÃ": 1098, "ĠVal": 1099, "ern": 1100, "ientes": 1101, "Ġva": 1102, "ĠPara": 1103, "Ãºs": 1104, "ĠK": 1105, "Ġfuer": 1106, "empre": 1107, "Ġconten": 1108, "eno": 1109, "rib": 1110, "tamiento": 1111, "Ġpon": 1112, "ard": 1113, "ĠPro": 1114, "puÃ©s": 1115, "Ġ6": 1116, "Ġprincip": 1117, "Ġtanto": 1118, "Ġmill": 1119, "icar": 1120, "Ġmenos": 1121, "Ġquier": 1122, "Ġtres": 1123, "Ġaf": 1124, "cios": 1125, "Ġprofes": 1126, "gres": 1127, "imiento": 1128, "Ġcuenta": 1129, "Ġtoda": 1130, "Ġtrabajo": 1131, "Ġcontr": 1132, "Ġgru": 1133, "Ġlugar": 1134, "Ġcualquier": 1135, "ares": 1136, "Ġdesarrol": 1137, "Ġbas": 1138, "Ġexpres": 1139, "izaciÃ³n": 1140, "Ġdej": 1141, "ĠBar": 1142, "Ġles": 1143, "AL": 1144, "Ġtrans": 1145, "Ġcab": 1146, "Ġfr": 1147, "Ġra": 1148, "Ġbaj": 1149, "ine": 1150, "ece": 1151, "ticos": 1152, "Ã³lo": 1153, "Ġprimera": 1154, "tamente": 1155, "Ġestos": 1156, "Ġactiv": 1157, "Ġrec": 1158, "Ġeuros": 1159, "ĠinformaciÃ³n": 1160, "rend": 1161, "Ġante": 1162, "000": 1163, "tido": 1164, "zar": 1165, "amil": 1166, "Ġorgan": 1167, "Ġapar": 1168, "Ġprimer": 1169, "Ġsub": 1170, "AN": 1171, "ial": 1172, "ceso": 1173, "Ġev": 1174, "Ġresul": 1175, "aria": 1176, "ĠZ": 1177, "Ġnuestro": 1178, "Ġvo": 1179, "ĠCh": 1180, "teg": 1181, "Ġsitu": 1182, "OR": 1183, "Ġprogr": 1184, "und": 1185, "jos": 1186, "Ġej": 1187, "Ġ[": 1188, "ĠSu": 1189, "Ġsiempre": 1190, "men": 1191, "che": 1192, "ĠâĢ": 1193, "Ġvol": 1194, "bar": 1195, "Ġdifer": 1196, "and": 1197, "Ġhom": 1198, "tac": 1199, "Ġmillones": 1200, "contr": 1201, "ing": 1202, "truc": 1203, "Ġmujer": 1204, "Ġmucho": 1205, "tantes": 1206, "Ġahora": 1207, "Ġencuen": 1208, "mar": 1209, "tad": 1210, "Ġpasado": 1211, "eza": 1212, "Ġsolo": 1213, "cen": 1214, "Ġutil": 1215, "Ġsuper": 1216, "Ġmer": 1217, "Ġotro": 1218, "Ġllam": 1219, "aje": 1220, "Ġnoti": 1221, "Ġtodas": 1222, "embre": 1223, "isten": 1224, "Ġsegun": 1225, "Ġpoder": 1226, "Ġtar": 1227, "tamos": 1228, "ĠÃ¡": 1229, "ĠÂ«": 1230, "Ġrespon": 1231, "Ġera": 1232, "wit": 1233, "Â»": 1234, "ĠMa": 1235, "Ġgan": 1236, "Ġobje": 1237, "tÃ¡": 1238, "fer": 1239, "Ġz": 1240, "ura": 1241, "quÃŃ": 1242, "Ġnuestra": 1243, "!!": 1244, "Ġtrav": 1245, "Ġmomento": 1246, "Ġher": 1247, "Ġpodr": 1248, "ĠdÃŃas": 1249, "Ġhecho": 1250, "Ġexper": 1251, "Ġinten": 1252, "Ġpl": 1253, "Ġproble": 1254, "ĠX": 1255, "Ġ200": 1256, "Ġsocial": 1257, "Ġecon": 1258, "Ġcele": 1259, "olog": 1260, "cre": 1261, "Ġta": 1262, "ros": 1263, "ecu": 1264, "ĠCo": 1265, "Ġcomple": 1266, "Ġ7": 1267, "Ġred": 1268, "laciÃ³n": 1269, "Ġrela": 1270, "Ġcul": 1271, "Ġexpl": 1272, "AD": 1273, "Ġencontr": 1274, "Ġbuen": 1275, "ĠdespuÃ©s": 1276, "posiciÃ³n": 1277, "Ġunos": 1278, "Ġsigu": 1279, "Ã©cn": 1280, "erÃŃa": 1281, "Ġsem": 1282, "tando": 1283, "omin": 1284, "igo": 1285, "Ġhoy": 1286, "sa": 1287, "ĠPa": 1288, "ieron": 1289, "fici": 1290, "Ġantes": 1291, "Ġsiste": 1292, "ĠprÃ³": 1293, "Ġmon": 1294, "witter": 1295, "leg": 1296, "Ġpes": 1297, "ocu": 1298, "uso": 1299, "Ġtener": 1300, "Ġbus": 1301, "Ġempresa": 1302, "erg": 1303, "Ġese": 1304, "Ġrecib": 1305, "Ġfamil": 1306, "ĠDi": 1307, "tt": 1308, "Ġinvesti": 1309, "Ġotras": 1310, "va": 1311, "ĠtravÃ©s": 1312, "Ġpermi": 1313, "Ġeso": 1314, "Ġdatos": 1315, "cido": 1316, "ĠsegÃºn": 1317, "yo": 1318, "segu": 1319, "Ġquien": 1320, "Ġjue": 1321, "Ġhi": 1322, "Ã³mo": 1323, "gua": 1324, "iencia": 1325, "Ġaunque": 1326, "SO": 1327, "Ġesto": 1328, "ya": 1329, "Ġhoras": 1330, "fr": 1331, "ĠUna": 1332, "ior": 1333, "tivas": 1334, "Ġ8": 1335, "Ġcontin": 1336, "ho": 1337, "tec": 1338, "cidad": 1339, "pro": 1340, "ĠPero": 1341, "ĠNa": 1342, "abor": 1343, "Ã³g": 1344, "ĠquÃ©": 1345, "Ġpartido": 1346, "arias": 1347, "ĠprÃ³xim": 1348, "Ġofre": 1349, "Ġir": 1350, "uda": 1351, "Ġsea": 1352, "atro": 1353, "ĠserÃ¡": 1354, "Ġmas": 1355, "Ġalgo": 1356, "Ġequipo": 1357, "Ġven": 1358, "tada": 1359, "Ġpresidente": 1360, "Ġapro": 1361, "quel": 1362, "ĠEste": 1363, "cado": 1364, "ĠJos": 1365, "icip": 1366, "ww": 1367, "Ġnueva": 1368, "Ġconv": 1369, "tural": 1370, "Ã¡c": 1371, "Ġtemp": 1372, "Ġtipo": 1373, "Ġcomentar": 1374, "Ġfo": 1375, "Ġqued": 1376, "cos": 1377, "ĠPP": 1378, "Ġmedio": 1379, "20": 1380, "van": 1381, "Ġdar": 1382, "Ġpoco": 1383, "bo": 1384, "ĠJu": 1385, "Ġcamb": 1386, "ĠLo": 1387, "ĠMan": 1388, "ĠAy": 1389, "Ġtienen": 1390, "Ġpueden": 1391, "isiÃ³n": 1392, "Ġotra": 1393, "ĠCu": 1394, "Ġconsid": 1395, "Ġgu": 1396, "Ġtend": 1397, "//": 1398, "ĠEsta": 1399, "gra": 1400, "Ġgus": 1401, "Ġhistoria": 1402, "Ġcur": 1403, "Ġcompr": 1404, "ĠCor": 1405, "cis": 1406, "ensa": 1407, "ustr": 1408, "Ġautor": 1409, "Ġtotal": 1410, "erdo": 1411, "log": 1412, "Ġsa": 1413, "Ġtal": 1414, "Ġpel": 1415, "Ġservicio": 1416, "ĠseÃ±": 1417, "Ġestas": 1418, "ĠsÃ³lo": 1419, "zas": 1420, "ttp": 1421, "Ġprev": 1422, "Ġapl": 1423, "Ġamb": 1424, "aran": 1425, "ÃŃo": 1426, "ĠCan": 1427, "://": 1428, "Ġrecu": 1429, "....": 1430, "ĠademÃ¡s": 1431, "Ġellos": 1432, "cep": 1433, "terior": 1434, "Ġgrupo": 1435, "ĠGu": 1436, "ĠEuropa": 1437, "Ġmal": 1438, "ientras": 1439, "ĠInter": 1440, "pital": 1441, "Ġ10": 1442, "Ãºm": 1443, "unci": 1444, "Ġ9": 1445, "gado": 1446, "ĠCons": 1447, "Ġvi": 1448, "ĠPr": 1449, "cul": 1450, "Ġhum": 1451, "icia": 1452, "Ġart": 1453, "Ġesp": 1454, "Ġapo": 1455, "chos": 1456, "Ġfinal": 1457, "ola": 1458, "Ġempresas": 1459, "Ġutiliz": 1460, "IC": 1461, "ge": 1462, "untos": 1463, "torio": 1464, "Ġsemana": 1465, "Ġba": 1466, "icaciones": 1467, "ĠÃºn": 1468, "Ġnom": 1469, "vil": 1470, "ĠhabÃŃa": 1471, "ha": 1472, "ĠOr": 1473, "La": 1474, "tidad": 1475, "arra": 1476, "Ġcompar": 1477, "ĠtÃ©cn": 1478, "sos": 1479, "Ġyo": 1480, "Ġrepres": 1481, "Ġaquel": 1482, "Ġmil": 1483, "Ġnin": 1484, "Ġsenti": 1485, "Ġcier": 1486, "Ġesa": 1487, "Ġnada": 1488, "Ġespecial": 1489, "tera": 1490, "Ġnav": 1491, "anza": 1492, "dal": 1493, "Ġcomer": 1494, "Ġservicios": 1495, "Ġhabl": 1496, "ĠFran": 1497, "Ġhaber": 1498, "Ġestado": 1499, "Ġconoci": 1500, "Ġag": 1501, "Ġinteres": 1502, "Ġmad": 1503, "ĠPres": 1504, "Ġpens": 1505, "Ġrecon": 1506, "ent": 1507, "ĠCam": 1508, "ĠsÃŃ": 1509, "orn": 1510, "omo": 1511, "Ġproyecto": 1512, "Ġsino": 1513, "Ġedi": 1514, "ari": 1515, "avor": 1516, "Ġprofesion": 1517, "Ġefec": 1518, "untamiento": 1519, "ide": 1520, "imos": 1521, "ĠnÃºm": 1522, "SOE": 1523, "ĠEx": 1524, "Ġusu": 1525, "Ġcasa": 1526, "ban": 1527, "bol": 1528, "unta": 1529, "Es": 1530, "Ġsan": 1531, "ĠSal": 1532, "Ġsim": 1533, "cular": 1534, "Ġcin": 1535, "ĠcompaÃ±": 1536, "Ġsistema": 1537, "ell": 1538, "El": 1539, "Ġ15": 1540, "vin": 1541, "entaciÃ³n": 1542, "Ġdir": 1543, "Ġrespons": 1544, "ĠLu": 1545, "Ġaten": 1546, "ĠPol": 1547, "ĠÃģ": 1548, "Ġleg": 1549, "Ġdecir": 1550, "ivel": 1551, "ÃŃf": 1552, "Ġgeneral": 1553, "turas": 1554, "aban": 1555, "ÃŃd": 1556, "Ġcono": 1557, "encias": 1558, "ex": 1559, "Ġpal": 1560, "tÃ³n": 1561, "dida": 1562, "puesto": 1563, "Ġban": 1564, "Ġbar": 1565, "Ġparticip": 1566, "Ġmanera": 1567, "ome": 1568, "ris": 1569, "cri": 1570, "Ġk": 1571, "Ġestable": 1572, "iva": 1573, "Ġpi": 1574, "Ġmunicip": 1575, "ĠÂ¡": 1576, "iga": 1577, "Ġinm": 1578, "Ġfavor": 1579, "Ġello": 1580, "Ġmuchos": 1581, "Ã¡g": 1582, "Ġuso": 1583, "Ġelectr": 1584, "ĠUnivers": 1585, "ĠAc": 1586, "Ã¡l": 1587, "ĠAdemÃ¡s": 1588, "Ġpeque": 1589, "Ġfa": 1590, "Ġespeci": 1591, "Ġcapa": 1592, "Ġlab": 1593, "Ġhe": 1594, "itos": 1595, "unidad": 1596, "ĠTo": 1597, "TA": 1598, "ĠJosÃ©": 1599, "Ġmanten": 1600, "ual": 1601, "Ġanti": 1602, "usiÃ³n": 1603, "puesta": 1604, "Ġtor": 1605, "ĠNav": 1606, "Ġlar": 1607, "Ġrev": 1608, "Ġauto": 1609, "estiÃ³n": 1610, "Ġvuel": 1611, "bra": 1612, "ple": 1613, "ĠEstado": 1614, "Ġnivel": 1615, "ĠLA": 1616, "ĠaquÃŃ": 1617, "ĠcÃ³mo": 1618, "pre": 1619, "Ġcara": 1620, "ĠMon": 1621, "ĠeconÃ³m": 1622, "cor": 1623, "Ġi": 1624, "ĠMe": 1625, "Ġcentro": 1626, "Ġgas": 1627, "ĠHa": 1628, "ĠPSOE": 1629, "Ġigu": 1630, "',": 1631, "ĠpolÃŃtica": 1632, "Ġprograma": 1633, "ables": 1634, "Ġjug": 1635, "Ġloc": 1636, "quil": 1637, "isis": 1638, "all": 1639, "celona": 1640, "Ġespa": 1641, "twitter": 1642, "Ġcuatro": 1643, "Ġmeses": 1644, "ĠSeg": 1645, "eras": 1646, "irm": 1647, "Ġmientras": 1648, "Ġvia": 1649, "eta": 1650, "cimiento": 1651, "ĠAyuntamiento": 1652, "col": 1653, "Ã³r": 1654, "Ġestud": 1655, "Ġos": 1656, "ĠSoci": 1657, "gon": 1658, "ĠMed": 1659, "leo": 1660, "ĠâĢĵ": 1661, "ibilidad": 1662, "ĠÃ©l": 1663, "Ġposible": 1664, "Ġcontenidos": 1665, "Ġsen": 1666, "ĠGener": 1667, "Ġtur": 1668, "ĠnÃºmero": 1669, "IS": 1670, "Ġhabi": 1671, "Ġdispon": 1672, "Ġacuerdo": 1673, "Ġalgunos": 1674, "Ġho": 1675, "Ġespec": 1676, "reo": 1677, "Ġmedi": 1678, "Ġesper": 1679, "ÃŃculo": 1680, "tancia": 1681, "Ġdistin": 1682, "nacional": 1683, "Ġbo": 1684, "cionales": 1685, "Ġdecl": 1686, "ene": 1687, "ologÃŃa": 1688, "adora": 1689, "Ġorganiz": 1690, "ĠTam": 1691, "tif": 1692, "Ġbu": 1693, "enci": 1694, "icial": 1695, "arÃ¡n": 1696, "ĠlÃŃ": 1697, "Ġso": 1698, "Ġcosas": 1699, "Ġnoticias": 1700, "ĠSin": 1701, "ĠPod": 1702, "form": 1703, "hib": 1704, "Ġnego": 1705, "Ġdentro": 1706, "otros": 1707, "Ġabr": 1708, "Ġinvestig": 1709, "Ġinstal": 1710, "rea": 1711, "Ġcontinu": 1712, "Ġdirig": 1713, "Ġayud": 1714, "inas": 1715, "siÃ³n": 1716, "ber": 1717, "fru": 1718, "Ġimportante": 1719, "Ġgente": 1720, "Ġtecn": 1721, "Ġderechos": 1722, "porte": 1723, "cid": 1724, "Ġley": 1725, "Ġclas": 1726, "Ġnuestros": 1727, "cÃŃa": 1728, "Ġdebe": 1729, "anci": 1730, "Ġseguir": 1731, "eas": 1732, "Ġclar": 1733, "ĠJuan": 1734, "dic": 1735, "Ġconsider": 1736, "lu": 1737, "Ġescri": 1738, "pas": 1739, "Ġgrandes": 1740, "Ġcondi": 1741, "ĠsituaciÃ³n": 1742, "Ġcompe": 1743, "Ġrefer": 1744, "Ġcomen": 1745, "tran": 1746, "ĠAm": 1747, "imo": 1748, "Ġvalor": 1749, "ibu": 1750, "jas": 1751, "Ġtempor": 1752, "Ġhttp": 1753, "iso": 1754, "gas": 1755, "iera": 1756, "ĠBarcelona": 1757, "Ġsegur": 1758, "Ġcasi": 1759, "chez": 1760, "Ġped": 1761, "Ġima": 1762, "ĠpÃºblico": 1763, "uela": 1764, "Ġcalidad": 1765, "Ġunas": 1766, "Ġllegar": 1767, "Ġverdad": 1768, "Ġejemp": 1769, "tud": 1770, "Ġur": 1771, "bado": 1772, "tim": 1773, "Ġ18": 1774, "ono": 1775, "Ã©c": 1776, "IN": 1777, "ĠPu": 1778, "tÃ¡n": 1779, "Ġmuer": 1780, "Ġcambio": 1781, "adi": 1782, "Ġeuro": 1783, "ĠPer": 1784, "Ġhemos": 1785, "uestra": 1786, "Ġsector": 1787, "Ġpregun": 1788, "Ġquer": 1789, "ok": 1790, "ĠGar": 1791, "Ġpunto": 1792, "Ġfuncion": 1793, "inos": 1794, "Ġase": 1795, "oma": 1796, "Ġlleg": 1797, "Ġfuera": 1798, "ĠmÃ¡": 1799, "ĠGran": 1800, "ĠCen": 1801, "Ġampl": 1802, "duci": 1803, "ĠIns": 1804, "ted": 1805, "ĠMun": 1806, "Ġdomin": 1807, "ĠÃºltimo": 1808, "ĠCatal": 1809, "Ġzona": 1810, "RE": 1811, "ĠEN": 1812, "ĠPre": 1813, "Ġmisma": 1814, "graf": 1815, "ĠAsÃŃ": 1816, "Ġigual": 1817, "Ġdocu": 1818, "Ġperio": 1819, "Ġsolici": 1820, "Ġrepar": 1821, "Ġdig": 1822, "nes": 1823, "orr": 1824, "Ġcelebr": 1825, "ersiÃ³n": 1826, "Ġdiferentes": 1827, "epend": 1828, "Ġdisfru": 1829, "Ġembar": 1830, "Ġmujeres": 1831, "ped": 1832, "TE": 1833, "ima": 1834, "ĠRes": 1835, "Ġventa": 1836, "ĠGeneral": 1837, "Ġpresen": 1838, "Ã±as": 1839, "Ġpad": 1840, "terio": 1841, "pecto": 1842, "Ġorig": 1843, "tario": 1844, "ĠpÃ¡g": 1845, "ĠAg": 1846, "tÃŃn": 1847, "lado": 1848, "posi": 1849, "Ġtrata": 1850, "Ġsue": 1851, "he": 1852, "Ġlim": 1853, "Ġ12": 1854, "Ġfrente": 1855, "iar": 1856, "orte": 1857, "olu": 1858, "Ġproductos": 1859, "Ġcontrol": 1860, "Ġtus": 1861, "ts": 1862, "zado": 1863, "unca": 1864, "tio": 1865, "Ġobl": 1866, "Ġconsegu": 1867, "Ġdin": 1868, "Ġrecur": 1869, "olÃ³g": 1870, "ĠReal": 1871, "ecer": 1872, "taciones": 1873, "Ġobjetivo": 1874, "Ġmuchas": 1875, "omÃŃa": 1876, "ne": 1877, "Ġella": 1878, "Ġdise": 1879, "Ġsociedad": 1880, "anto": 1881, "Ġgracias": 1882, "ĠQu": 1883, "RA": 1884, "Ġcumpl": 1885, "Ġfalta": 1886, "Ġhora": 1887, "UE": 1888, "esiÃ³n": 1889, "Ġtele": 1890, "ĠCiudad": 1891, "Ã¡nchez": 1892, "Ã¡m": 1893, "Ġreco": 1894, "eci": 1895, "bras": 1896, "Ġjunto": 1897, "Ġafec": 1898, "greso": 1899, "Ġorden": 1900, "una": 1901, "elo": 1902, "Ġlabor": 1903, "Ġdesarrollo": 1904, "tilla": 1905, "oluciÃ³n": 1906, "ivil": 1907, "Ġregistr": 1908, "Ã¡r": 1909, "Ġconocer": 1910, "Ġbajo": 1911, "ĠSÃ¡nchez": 1912, "Ġejemplo": 1913, "Ġseguridad": 1914, "Ġfund": 1915, "Ġfinanci": 1916, "Ġfoto": 1917, "Ġparece": 1918, "tero": 1919, "Ġcambi": 1920, "ÃŃtu": 1921, "ĠEL": 1922, "ĠTambiÃ©n": 1923, "net": 1924, "Ġproceso": 1925, "Qu": 1926, "Ġhacia": 1927, "II": 1928, "ire": 1929, "zÃ³n": 1930, "Ġpan": 1931, "Ġreun": 1932, "mÃ¡": 1933, "Ġpersonal": 1934, "Ġinici": 1935, "Ġproced": 1936, "istro": 1937, "Ġobs": 1938, "Ġmanif": 1939, "Ġmejores": 1940, "Ġmercado": 1941, "ibles": 1942, "pel": 1943, "Ã±ana": 1944, "ducaciÃ³n": 1945, "Ġdesa": 1946, "ĠformaciÃ³n": 1947, "pone": 1948, "port": 1949, "Ġpersona": 1950, "Ġaum": 1951, "Ġalum": 1952, "Ġagua": 1953, "ibuciÃ³n": 1954, "Ġdice": 1955, "Ġtard": 1956, "Ġpuer": 1957, "IL": 1958, "ĠTod": 1959, "Ġactualidad": 1960, "pr": 1961, "Ġnombre": 1962, "Ġminu": 1963, "Ġgobierno": 1964, "ula": 1965, "Ġmos": 1966, "Ġacep": 1967, "pic": 1968, "fa": 1969, "Ġsociales": 1970, "Ġponer": 1971, "ĠNacional": 1972, "uego": 1973, "ĠMin": 1974, "Ġveces": 1975, "turo": 1976, "respon": 1977, "Ġpartir": 1978, "lor": 1979, "istra": 1980, "Ġ30": 1981, "Ġdiv": 1982, "Ġgaran": 1983, "Ġale": 1984, "uye": 1985, "Ġcolec": 1986, "bres": 1987, "ich": 1988, "Ġcir": 1989, "Ġcolabor": 1990, "Ġprohib": 1991, "Ã³s": 1992, "Ġdirector": 1993, "gue": 1994, "iene": 1995, "lv": 1996, "ĠConse": 1997, "Ġoc": 1998, "Ġdescu": 1999, "Ġfran": 2000, "Ġalcan": 2001, "dial": 2002, "ajes": 2003, "ĠPed": 2004, "Ġasegur": 2005, "ĠmÃºs": 2006, "illo": 2007, "Ġdem": 2008, "Ġcinco": 2009, "Ġjus": 2010, "tual": 2011, "Ġejer": 2012, "Ġcandida": 2013, "Ġindepend": 2014, "Ã¡f": 2015, "Ġproblema": 2016, "ĠUniversidad": 2017, "ĠÃºltimos": 2018, "Ġproblemas": 2019, "tend": 2020, "ice": 2021, "Ġnuevos": 2022, "ĠFern": 2023, "Ġpuesto": 2024, "Ġnuevas": 2025, "ĠprÃ³ximo": 2026, "Ġacab": 2027, "Ġ11": 2028, "Ġestaba": 2029, "omos": 2030, "Ġliber": 2031, "itas": 2032, "Ġdeber": 2033, "Ġgol": 2034, "Ġembargo": 2035, "Ġincluso": 2036, "Ġderecho": 2037, "OL": 2038, "Ġactividades": 2039, "Ġpuntos": 2040, "ĠMu": 2041, "ĠDesd": 2042, "Ġfor": 2043, "rÃ¡n": 2044, "ĠDesde": 2045, "tencia": 2046, "Ġsex": 2047, "pti": 2048, "ivo": 2049, "ĠelectrÃ³n": 2050, "MA": 2051, "Ġcontac": 2052, "Ġocas": 2053, "Ġselec": 2054, "ques": 2055, "Ġet": 2056, "ĠprÃ¡c": 2057, "Ġmus": 2058, "Ġder": 2059, "Ġsegunda": 2060, "red": 2061, "uÃ±a": 2062, "Ġexperiencia": 2063, "Ġinstitu": 2064, "lio": 2065, "Ġtermin": 2066, "ĠniÃ±os": 2067, "th": 2068, "Ġnosotros": 2069, "be": 2070, "gel": 2071, "ĠMo": 2072, "ram": 2073, "ĠIs": 2074, "Ġextra": 2075, "ĠComo": 2076, "Ġcaus": 2077, "ministr": 2078, "ID": 2079, "Ġil": 2080, "dose": 2081, "pend": 2082, "Ġobra": 2083, "pular": 2084, "Ġnunca": 2085, "cier": 2086, "alizaciÃ³n": 2087, "Ġpalab": 2088, "ĠaÃºn": 2089, "Ġbuena": 2090, "pciÃ³n": 2091, "ĠIg": 2092, "izo": 2093, "ĠPo": 2094, "Ġjorn": 2095, "Ġprovin": 2096, "ite": 2097, "Ġlado": 2098, "Ġanim": 2099, "ves": 2100, "Ġprepar": 2101, "ĠServ": 2102, "edia": 2103, "ĠPodemos": 2104, "echa": 2105, "Ġpaso": 2106, "Ġabs": 2107, "Ġpromo": 2108, "Ãĵ": 2109, "Ġed": 2110, "Ġon": 2111, "ĠEmp": 2112, "ĠmÃ©": 2113, "ror": 2114, "Ġalcal": 2115, "icul": 2116, "Ġactividad": 2117, "Ġnacional": 2118, "ili": 2119, "puestos": 2120, "ĠES": 2121, "Ġrecom": 2122, "Ġtenemos": 2123, "blo": 2124, "Ġ13": 2125, "ciendo": 2126, "irma": 2127, "Ġsegundo": 2128, "201": 2129, "Ġvan": 2130, "ĠQue": 2131, "Ġli": 2132, "Ġblog": 2133, "zos": 2134, "Ġsiendo": 2135, "ĠlÃŃn": 2136, "Ġprue": 2137, "nas": 2138, "Ġrealidad": 2139, "Ġdicho": 2140, "termin": 2141, "Ġdefin": 2142, "ĠmayorÃŃa": 2143, "Ġestudi": 2144, "Ġofer": 2145, "ĠmaÃ±ana": 2146, "Ġconj": 2147, "Ġcatal": 2148, "ĠpaÃŃses": 2149, "ajo": 2150, "ĠAu": 2151, "Ġeurope": 2152, "Ġ0": 2153, "IA": 2154, "Ġelecciones": 2155, "RO": 2156, "ĠEurope": 2157, "mento": 2158, "Ġ25": 2159, "fo": 2160, "Ġcentr": 2161, "peraciÃ³n": 2162, "Ġcapital": 2163, "Ġcorrespon": 2164, "Ġlogr": 2165, "raciÃ³n": 2166, "vÃŃa": 2167, "Ġagr": 2168, "ĠRa": 2169, "Ġfuturo": 2170, "Ġviol": 2171, "ducciÃ³n": 2172, "Ġhombre": 2173, "ificaciÃ³n": 2174, "Ġsentido": 2175, "Ġsalud": 2176, "Ġben": 2177, "Ġrealizar": 2178, "ÃŃculos": 2179, "Ġencontrar": 2180, "imin": 2181, "Ġall": 2182, "Ġconven": 2183, "icidad": 2184, "--": 2185, "iza": 2186, "rera": 2187, "Ġmedios": 2188, "Ġacer": 2189, "Ġhaya": 2190, "Ġpin": 2191, "Ġfueron": 2192, "Ġnaveg": 2193, "ĠLey": 2194, "ĠaÃ±ad": 2195, "abilidad": 2196, "Ġnatural": 2197, "Ġcondiciones": 2198, "ific": 2199, "irÃ¡": 2200, "Ġmens": 2201, "Ġdesp": 2202, "Ġfamilia": 2203, "ĠseÃ±al": 2204, "Ġactual": 2205, "enas": 2206, "bas": 2207, "ĠMarÃŃa": 2208, "tbol": 2209, "ron": 2210, "jar": 2211, "tonces": 2212, "Ġalgunas": 2213, "Ġmostr": 2214, "Ġmiem": 2215, "Ġpriv": 2216, "ÃŃc": 2217, "ĠBa": 2218, "ĠcomunicaciÃ³n": 2219, "Ġ/": 2220, "ĠCal": 2221, "ĠmÃ¡xim": 2222, "Ġpob": 2223, "Ġfi": 2224, "ĠReg": 2225, "ik": 2226, "ck": 2227, "Ġacceso": 2228, "ĠrelaciÃ³n": 2229, "Ġvarios": 2230, "ular": 2231, "Ġobten": 2232, "Ġquiere": 2233, "Ġprem": 2234, "Ġjun": 2235, "Ġdivers": 2236, "Ġfil": 2237, "Ġlargo": 2238, "Ġsecre": 2239, "ĠPla": 2240, "Ġru": 2241, "Ġunivers": 2242, "Ġopin": 2243, "Ġprogram": 2244, "Ġentidad": 2245, "Ġmov": 2246, "Ġtarde": 2247, "Ġconver": 2248, "Ġapoyo": 2249, "Ġetc": 2250, "Ġ14": 2251, "imen": 2252, "Ġlibro": 2253, "OM": 2254, "Ġnorm": 2255, "ĠpelÃŃcu": 2256, "tÃ³r": 2257, "istencia": 2258, "Ġnov": 2259, "Ġentrada": 2260, "Ġserie": 2261, "Ġeleg": 2262, "ĠTor": 2263, "ĠÃºltima": 2264, "Ġsos": 2265, "Ġprecio": 2266, "Ġavan": 2267, "ital": 2268, "Ã¡nd": 2269, "Ġjuego": 2270, "ĠartÃŃculo": 2271, "ĠAndal": 2272, "visiÃ³n": 2273, "enda": 2274, "Ġmano": 2275, "ulio": 2276, "Ġconsul": 2277, "Ġhabr": 2278, "edor": 2279, "ĠPe": 2280, "reg": 2281, "Ġmul": 2282, "Ġpartici": 2283, "ĠDis": 2284, "ger": 2285, "Ġinte": 2286, "Ġcuer": 2287, "Ġresto": 2288, "No": 2289, "Ġdici": 2290, "ĠfÃ¡": 2291, "Ġpartidos": 2292, "lex": 2293, "ĠPedro": 2294, "ĠPue": 2295, "cend": 2296, "Ġer": 2297, "Ġobras": 2298, "Ġ16": 2299, "Ġclaro": 2300, "Ġconte": 2301, "Ġvend": 2302, "Ġmor": 2303, "icÃŃa": 2304, "tagon": 2305, "iernes": 2306, "icamente": 2307, "Ġdecid": 2308, "cter": 2309, "Ġcomentarios": 2310, "ĠdirecciÃ³n": 2311, "ociaciÃ³n": 2312, "Ġusuarios": 2313, "rez": 2314, "curso": 2315, "Ġfon": 2316, "ĠLuis": 2317, "Ġdepor": 2318, "dica": 2319, "ucÃŃa": 2320, "ler": 2321, "Ġdinero": 2322, "Ġdeclar": 2323, "ĠDirec": 2324, "Ġreserv": 2325, "ĠJo": 2326, "Ġimpl": 2327, "ĠespaÃ±ola": 2328, "Ġsiguiente": 2329, "ĠAnton": 2330, "Ġencuentra": 2331, "Ġcalle": 2332, "Ã³p": 2333, "tiz": 2334, "Ġrepro": 2335, "Ġesti": 2336, "ĠTe": 2337, "Ġabier": 2338, "Ã¡p": 2339, "Ġgen": 2340, "ĠCl": 2341, "Ġinicia": 2342, "ordin": 2343, "Ġpuedes": 2344, "Ġ17": 2345, "Ġpasar": 2346, "Ġ24": 2347, "Ġoport": 2348, "ĠlÃŃder": 2349, "Ġcri": 2350, "ienda": 2351, "Ġsitio": 2352, ".-": 2353, "esa": 2354, "Ġespacio": 2355, "Ġtemporada": 2356, "ĠSegÃºn": 2357, "ĠpÃºblica": 2358, "Ġimagen": 2359, "Ġmateri": 2360, "ĠediciÃ³n": 2361, "Ã©is": 2362, "ign": 2363, "tiene": 2364, "Ġdeba": 2365, "ĠAh": 2366, "ĠpodrÃŃa": 2367, "Ġbenef": 2368, "Ġempez": 2369, "Ġrelacion": 2370, "Ġdetermin": 2371, "bal": 2372, "adie": 2373, "30": 2374, "eron": 2375, "Ġcla": 2376, "Ġlec": 2377, "...]": 2378, "Ġgr": 2379, "ient": 2380, "Ġsigue": 2381, "alizar": 2382, "edades": 2383, "eder": 2384, "igos": 2385, "Ġdejar": 2386, "Ġocur": 2387, "anas": 2388, "Ġinclu": 2389, "oso": 2390, "ĠinvestigaciÃ³n": 2391, "Ġnoche": 2392, "TO": 2393, "Ġprimero": 2394, "Ġalguna": 2395, "char": 2396, "Ġconse": 2397, "ĠComunidad": 2398, "ĠcampaÃ±a": 2399, "Ġmediante": 2400, "ticia": 2401, "Ġprotagon": 2402, "Ġescu": 2403, "ĠpÃ¡gina": 2404, "Ġidenti": 2405, "tru": 2406, "villa": 2407, "ĠningÃºn": 2408, "trucciÃ³n": 2409, "Ã¼": 2410, "Ġanterior": 2411, "Ġrespecto": 2412, "si": 2413, "Ġenerg": 2414, "osa": 2415, "ĠGal": 2416, "Ġestudio": 2417, "Ġsor": 2418, "venes": 2419, "Ġatra": 2420, "Ġcorreo": 2421, "Ġpropio": 2422, "tina": 2423, "Ġacom": 2424, "Ġsaber": 2425, "ĠYo": 2426, "Ġofrece": 2427, "Ġbal": 2428, "ĠgestiÃ³n": 2429, "Ġmedidas": 2430, "ilar": 2431, "izar": 2432, "Ã³vil": 2433, "Ġenfer": 2434, "ĠRo": 2435, "tecciÃ³n": 2436, "Ġprofesionales": 2437, "Ġpresid": 2438, "Ġreal": 2439, "erra": 2440, "illas": 2441, "tia": 2442, "Ġtex": 2443, "Ġries": 2444, "Ġfe": 2445, "Ġparticular": 2446, "ÃŃtulo": 2447, "Ġcelebra": 2448, "bles": 2449, "Ġescrib": 2450, "ional": 2451, "ÃŃdeo": 2452, "Â¡": 2453, "Ġanunci": 2454, "ĠTodos": 2455, "Ġtitu": 2456, "tarÃ¡": 2457, "rag": 2458, "torial": 2459, "aja": 2460, "Ġases": 2461, "Ġfacil": 2462, "ĠMÃ¡s": 2463, "Ġcasos": 2464, "Ġblan": 2465, "Ġresultados": 2466, "Ġsur": 2467, "Ġreconoci": 2468, "Ġsiglo": 2469, "ĠGo": 2470, "Ġpodemos": 2471, "ĠCol": 2472, "quis": 2473, "Ġapor": 2474, "Ġcap": 2475, "Ġencar": 2476, "Ġveh": 2477, "Ġviernes": 2478, "bros": 2479, "abr": 2480, "Ġminutos": 2481, "Ġrecord": 2482, "unes": 2483, "Ġmodelo": 2484, "Ġpatr": 2485, "Ġdistr": 2486, "ĠSol": 2487, "Ġningun": 2488, "ĠCuando": 2489, "Ġevitar": 2490, "Ġestr": 2491, "ĠEstÃ¡": 2492, "uerra": 2493, "Ġaprend": 2494, "ĠÃ©s": 2495, "Ġcrisis": 2496, "ministra": 2497, "Ġpublic": 2498, "Ġexig": 2499, "ĠAgencia": 2500, "val": 2501, "ĠmÃºsica": 2502, "Ġrel": 2503, "adio": 2504, "TI": 2505, "gn": 2506, "ÃĵN": 2507, "Ġgal": 2508, "Ġpapel": 2509, "Ã³venes": 2510, "Ġposi": 2511, "para": 2512, "Ġtema": 2513, "izquier": 2514, "Ġindustr": 2515, "iÃ©n": 2516, "tadas": 2517, "ĠFa": 2518, "ete": 2519, "esta": 2520, "Ġjo": 2521, "ĠCarlos": 2522, "ip": 2523, "ĠSa": 2524, "Ġocu": 2525, "Ġdemo": 2526, "Ġprohibida": 2527, "ifica": 2528, "ablo": 2529, "Ġrom": 2530, "imon": 2531, "Ġcuar": 2532, "Ġperd": 2533, "Ġprecios": 2534, "Ġentonces": 2535, "Ġconstitu": 2536, "genes": 2537, "ĠAntonio": 2538, "Ġmodo": 2539, "Ġvas": 2540, "ĠsÃ¡": 2541, "Ġprodu": 2542, "venciÃ³n": 2543, "Ġdado": 2544, "rÃŃ": 2545, "ug": 2546, "ix": 2547, "tubre": 2548, "ind": 2549, "Ġprensa": 2550, "Ġdisfrutar": 2551, "ase": 2552, "Ġmater": 2553, "Ġpermite": 2554, "Ġperiod": 2555, "Ġlan": 2556, "isterio": 2557, "Ġmarcha": 2558, "Ġcerr": 2559, "Ġexcl": 2560, "ense": 2561, "ĠsesiÃ³n": 2562, "www": 2563, "Ġhizo": 2564, "Ġoblig": 2565, "ĠTer": 2566, "Ġcuanto": 2567, "ptiembre": 2568, "ĠNavarra": 2569, "Ġ[...]": 2570, "Ġperfec": 2571, "trod": 2572, "Ġnuestras": 2573, "tiÃ³": 2574, "Ġexp": 2575, "ĠPal": 2576, "ĠCataluÃ±a": 2577, "lÃ©": 2578, "Ġellas": 2579, "ancia": 2580, "Ġtenido": 2581, "eos": 2582, "iado": 2583, "Ġtercer": 2584, "Ġincre": 2585, "ĠtenÃŃa": 2586, "Ġizquier": 2587, "ueva": 2588, "ducir": 2589, "19": 2590, "ĠTra": 2591, "Ġcabo": 2592, "Ġayer": 2593, "Ġdetal": 2594, "Ġresultado": 2595, "iano": 2596, "Ġrecibir": 2597, "culo": 2598, "forma": 2599, "ilo": 2600, "ĠTras": 2601, "Ġdestac": 2602, "voca": 2603, "ajoy": 2604, "ila": 2605, "Ġestamos": 2606, "emor": 2607, "EC": 2608, "ĠAndalucÃŃa": 2609, "Ġconcre": 2610, "Ġmedia": 2611, "Ġmayo": 2612, "ĠJav": 2613, "cam": 2614, "puestas": 2615, "ĠCul": 2616, "ht": 2617, "adoras": 2618, "Ġpresentar": 2619, "Ġjunio": 2620, "Ġll": 2621, "Ġhub": 2622, "Ġllevar": 2623, "ĠCON": 2624, "ĠBo": 2625, "EL": 2626, "ĠCentro": 2627, "Ġalim": 2628, "Ġplazo": 2629, "ĠJunta": 2630, "ciales": 2631, "Ġjornada": 2632, "Ġcapacidad": 2633, "iesta": 2634, "ĠHoy": 2635, "tavo": 2636, "Ġimportantes": 2637, "iscal": 2638, "Ãį": 2639, "ĠjÃ³venes": 2640, "Ġing": 2641, "Ġcoci": 2642, "ĠValencia": 2643, "Ġedad": 2644, "Ġcerca": 2645, "Ġprincipales": 2646, "Ġpresu": 2647, "ĠÃºnico": 2648, "Ġcolor": 2649, "Ġdeten": 2650, "Ġestra": 2651, "Ġbase": 2652, "Ġayuda": 2653, "Ġcaracter": 2654, "ĠatenciÃ³n": 2655, "ira": 2656, "Ġtes": 2657, "Ġprincipal": 2658, "Ġproyectos": 2659, "Ġcorrespond": 2660, "Ġpueblo": 2661, "ĠPress": 2662, "Ġseis": 2663, "Ġcurso": 2664, "Ġvig": 2665, "ĠespaÃ±oles": 2666, "Ġaud": 2667, "mientos": 2668, "ĠEntre": 2669, "Ġrepresen": 2670, "Ġesos": 2671, "cionar": 2672, "ĠGra": 2673, "Ġdomingo": 2674, "ĠRec": 2675, "ĠGarcÃŃa": 2676, "Ġfac": 2677, "ĠRey": 2678, "Ġcuen": 2679, "ministraciÃ³n": 2680, "uales": 2681, "ĠYa": 2682, "Ġinternacional": 2683, "eria": 2684, "Ġsens": 2685, "ĠIN": 2686, "ÃŃtica": 2687, "onos": 2688, "ĠalgÃºn": 2689, "Ġeven": 2690, "ĠIgles": 2691, "Ġ50": 2692, "Al": 2693, "Ġejerci": 2694, "UN": 2695, "ĠJa": 2696, "Ġdesta": 2697, "Ġdo": 2698, "Ġpropia": 2699, "Ġtengo": 2700, "Ġlleva": 2701, "Ġdiciembre": 2702, "ĠrÃ¡p": 2703, "Ġimpres": 2704, "ĠVer": 2705, "Ġanun": 2706, "Ġpare": 2707, "En": 2708, "Ġprevio": 2709, "ĠCongreso": 2710, "ental": 2711, "turi": 2712, "Ġincor": 2713, "Ġtienes": 2714, "Ġadel": 2715, "Ġnadie": 2716, "Ġconseguir": 2717, "Ġjoven": 2718, "ĠRajoy": 2719, "ĠÃ©x": 2720, "Ġlibre": 2721, "rio": 2722, "tora": 2723, "Ġnecesario": 2724, "Ġvari": 2725, "Ġsufr": 2726, "Ġsign": 2727, "Ġacced": 2728, "ĠdisposiciÃ³n": 2729, "ĠelectrÃ³nico": 2730, "Ġresta": 2731, "ĠEstados": 2732, "Ġhos": 2733, "ile": 2734, "estiv": 2735, "Ġdemoc": 2736, "ĠMartÃŃn": 2737, "toral": 2738, "ĠcompaÃ±ÃŃa": 2739, "orÃŃa": 2740, "Ãºa": 2741, "Ġdijo": 2742, "ecen": 2743, "are": 2744, "nov": 2745, "ĠHay": 2746, "Ġplante": 2747, "torno": 2748, "line": 2749, "ĠhistÃ³r": 2750, "onas": 2751, "ED": 2752, "mail": 2753, "ĠUnidos": 2754, "Ġ21": 2755, "Ġalter": 2756, "Ġ2017": 2757, "Ġseptiembre": 2758, "Ġgrupos": 2759, "Ġcierto": 2760, "ĠDÃŃa": 2761, "Ġencan": 2762, "ueves": 2763, "ches": 2764, "Ġcreo": 2765, "Ġvarias": 2766, "Ġhacen": 2767, "ĠtendrÃ¡": 2768, "ĠMer": 2769, "Ġ2018": 2770, "ĠPlan": 2771, "Ġempleo": 2772, "ĠSanta": 2773, "Ġinforma": 2774, "Ãĥ": 2775, "Ġluego": 2776, "viembre": 2777, "Ġcampo": 2778, "ĠMor": 2779, "tÃ©": 2780, "Ġoctubre": 2781, "ĠacompaÃ±": 2782, "Ġpueda": 2783, "Ġalta": 2784, "ev": 2785, "ĠBan": 2786, "dico": 2787, "Ġvisto": 2788, "tino": 2789, "ĠsÃ¡bado": 2790, "Ġprofesional": 2791, "eric": 2792, "Ġpresenta": 2793, "Ã¡ndez": 2794, "umo": 2795, "jero": 2796, "Ġconsenti": 2797, "ĠSec": 2798, "Ġrespe": 2799, "Ġorigin": 2800, "ĠCris": 2801, "itan": 2802, "Ġvolver": 2803, "Ġado": 2804, "Ġjur": 2805, "ÃŃstica": 2806, "Ġfundam": 2807, "ĠMig": 2808, "Ġlunes": 2809, "ĠinterÃ©s": 2810, "Ġlocalidad": 2811, "AM": 2812, "dap": 2813, "isla": 2814, "ĠfÃ¡cil": 2815, "Ġalcald": 2816, "Ġcontenido": 2817, "crib": 2818, "torios": 2819, "Ġedif": 2820, "Ġ+": 2821, "Ġemple": 2822, "Ġpesar": 2823, "Ġenvi": 2824, "Ġverano": 2825, "Ġvir": 2826, "ĠAnd": 2827, "ĠHo": 2828, "Ġpud": 2829, "jes": 2830, "ĠtÃ©cnico": 2831, "Ġbr": 2832, "Ġredes": 2833, "arÃŃa": 2834, "ke": 2835, "tÃŃa": 2836, "Ġclientes": 2837, "ardia": 2838, "chas": 2839, "ĠSus": 2840, "Ġmir": 2841, "ÃŃcti": 2842, "Ġ100": 2843, "cionado": 2844, "Ġidea": 2845, "Ġata": 2846, "Ġpresente": 2847, "Ġgusta": 2848, "Ġciudadanos": 2849, "Ġdepend": 2850, "Ġvecin": 2851, "Ġjulio": 2852, "cto": 2853, "ĠSocial": 2854, "Ġapoy": 2855, "Ġconjunto": 2856, "ĠTur": 2857, "ĠSon": 2858, "Ġtri": 2859, "UR": 2860, "Ġtrabajadores": 2861, "ale": 2862, "bro": 2863, "Ġvic": 2864, "Ġenferm": 2865, "Ġmarca": 2866, "Ġofrecer": 2867, "Ġincorpor": 2868, "Ġhablar": 2869, "Ġofici": 2870, "Ġamor": 2871, "tales": 2872, "lamento": 2873, "ĠPablo": 2874, "Ġrecl": 2875, "Ġpasa": 2876, "CION": 2877, "ĠHer": 2878, "Ġneg": 2879, "Ġqueda": 2880, "ĠAle": 2881, "Ġlibertad": 2882, "ĠpodrÃ¡": 2883, "ĠlÃŃnea": 2884, "Ġconsentimiento": 2885, "ideo": 2886, "ĠparticipaciÃ³n": 2887, "ting": 2888, "mbi": 2889, "ĠmÃŃn": 2890, "__": 2891, "Ġseman": 2892, "ema": 2893, "Ġestre": 2894, "Ġencuentro": 2895, "ober": 2896, "Ġexpresamente": 2897, "Ġmanifes": 2898, "Ġprimeros": 2899, "Ġ*": 2900, "taria": 2901, "ĠMinisterio": 2902, "ÃŃsticas": 2903, "Ġposibilidad": 2904, "Ġperman": 2905, "fe": 2906, "Ġelem": 2907, "ĠEsto": 2908, "Ġmuestra": 2909, "ĠorganizaciÃ³n": 2910, "Ġcantidad": 2911, "ĠMus": 2912, "ĠCastilla": 2913, "itario": 2914, "Ġib": 2915, "iles": 2916, "Ġproces": 2917, "ilidades": 2918, "Ġprovincia": 2919, "mentos": 2920, "ĠInd": 2921, "Ġdescar": 2922, "unal": 2923, "Ġquienes": 2924, "ĠAhora": 2925, "Ġusuario": 2926, "Ġterri": 2927, "Ġadap": 2928, "Ġenv": 2929, "Ġacto": 2930, "duca": 2931, "ĠvÃŃcti": 2932, "ĠMiguel": 2933, "mon": 2934, "Ġintegr": 2935, "ĠSevilla": 2936, "Ġolv": 2937, "Ġide": 2938, "Ġacus": 2939, "Ġconce": 2940, "Ġmuerte": 2941, "Ġproducto": 2942, "vech": 2943, "ĠmÃ³vil": 2944, "Ġmedida": 2945, "oro": 2946, "Ġcuerpo": 2947, "Ġmiembros": 2948, "ĠPortal": 2949, "irse": 2950, "Ġpalabras": 2951, "PA": 2952, "Ġdoc": 2953, "ĠConsejo": 2954, "prend": 2955, "IO": 2956, "ural": 2957, "ĠtÃ©r": 2958, "Ġmarzo": 2959, "ĠSer": 2960, "Ġtuvo": 2961, "aro": 2962, "Ġacog": 2963, "ĠFund": 2964, "Ġrespuesta": 2965, "idar": 2966, "Ġlocal": 2967, "omas": 2968, "Ġpic": 2969, "Ġtom": 2970, "ĠÃ¡mbi": 2971, "ĠPas": 2972, "ÃŃamos": 2973, "ĠaplicaciÃ³n": 2974, "ĠserÃŃa": 2975, "Ġconcl": 2976, "Ġabril": 2977, "Ġnoviembre": 2978, "Ġ2016": 2979, "Ġsiguientes": 2980, "ĠtodavÃŃa": 2981, "ĠpolÃŃticos": 2982, "ĠdifÃŃ": 2983, "Ġplata": 2984, "Ġparticipar": 2985, "pera": 2986, "Ġelabor": 2987, "alo": 2988, "ientÃŃf": 2989, "elos": 2990, "tion": 2991, "Ġesf": 2992, "Ġcentros": 2993, "Ġtradi": 2994, "Ġresponsable": 2995, "ĠRod": 2996, "ĠpolÃŃtico": 2997, "grÃ¡f": 2998, "Ġluz": 2999, "Ġresid": 3000, "Ġjueves": 3001, "Ġcomien": 3002, "Ġfel": 3003, "Ġfecha": 3004, "Ġ22": 3005, "brero": 3006, "Ġdipu": 3007, "ka": 3008, "zÃ³": 3009, "Ġauton": 3010, "rac": 3011, "Ġvista": 3012, "Ġlen": 3013, "Ġcarrera": 3014, "Ġmejorar": 3015, "Ġalumnos": 3016, "Ġmantener": 3017, "Ġcad": 3018, "ĠmÃŃ": 3019, "Ġcontacto": 3020, "Â».": 3021, "fica": 3022, "'.": 3023, "ĠserÃ¡n": 3024, "ĠcolaboraciÃ³n": 3025, "Ġenfr": 3026, "ĠManuel": 3027, "ramien": 3028, "ĠpelÃŃcula": 3029, "Ġentren": 3030, "Ġexisten": 3031, "Ġlista": 3032, "ĠGru": 3033, "Ġcabeza": 3034, "tividad": 3035, "ĠdecisiÃ³n": 3036, "Ġdestin": 3037, "Ã³d": 3038, "Ġdeman": 3039, "Ġrecursos": 3040, "Ġpresencia": 3041, "Â»,": 3042, "Ġriesgo": 3043, "Ġub": 3044, "guien": 3045, "Ġconserv": 3046, "Ġpoc": 3047, "onz": 3048, "Ġcargo": 3049, "alizado": 3050, "ĠInstitu": 3051, "Ġhaciendo": 3052, "Ġmenor": 3053, "Ġsir": 3054, "ĠCivil": 3055, "Ġasegu": 3056, "Ġcamino": 3057, "Ġmayores": 3058, "Ġcrear": 3059, "Ġgratis": 3060, "Ġcosa": 3061, "Ãºtbol": 3062, "Ġaquellos": 3063, "ĠÃ©xito": 3064, "ĠSo": 3065, "Ġatr": 3066, "talla": 3067, "torias": 3068, "Ġalto": 3069, "QuÃ©": 3070, "Ġbol": 3071, "Ġalcalde": 3072, "arlo": 3073, "Ġdom": 3074, "Ġimpul": 3075, "ĠFrancis": 3076, "ĠBuen": 3077, "taron": 3078, "Ã¡cter": 3079, "Ġclub": 3080, "ĠUN": 3081, "ĠTrib": 3082, "Ġ199": 3083, "Ġdefend": 3084, "Ġduda": 3085, "ĠAb": 3086, "10": 3087, "Ġninguna": 3088, "Ġincluy": 3089, "vista": 3090, "Ġaj": 3091, "Ġoficial": 3092, "coles": 3093, "Ġcine": 3094, "Ġcomunidad": 3095, "ruz": 3096, "ĠcarÃ¡cter": 3097, "ĠFin": 3098, "Ġsean": 3099, "au": 3100, "Ġpron": 3101, "Ġespera": 3102, "ĠversiÃ³n": 3103, "Ġcorr": 3104, "Ġseguro": 3105, "Ġpoten": 3106, "diÃ³": 3107, "Ġenero": 3108, "Ġsolu": 3109, "ĠPrim": 3110, "pan": 3111, "ĠpolÃŃticas": 3112, "iblio": 3113, "ĠpoblaciÃ³n": 3114, "lez": 3115, "Ġ40": 3116, "ciÃ³": 3117, "ĠComun": 3118, "Ġinterna": 3119, "Ġdigital": 3120, "Ġmetros": 3121, "ĠCiudadanos": 3122, "ela": 3123, "Ġgratu": 3124, "Ġamigos": 3125, "formaciÃ³n": 3126, "ĠInternet": 3127, "enos": 3128, "Ġcomb": 3129, "tivamente": 3130, "Ġnecesidad": 3131, "igue": 3132, "Ġpuesta": 3133, "Ã¡lisis": 3134, "ĠMi": 3135, "istribuciÃ³n": 3136, "Ġexpreso": 3137, "turales": 3138, "cados": 3139, "teriores": 3140, "Ġcultura": 3141, "ĠMur": 3142, "imonio": 3143, "ĠUr": 3144, "ĠSE": 3145, "enso": 3146, "Ġhombres": 3147, "ĠGonz": 3148, "trodu": 3149, "cima": 3150, "Ġense": 3151, "Ġtrabajar": 3152, "Ġkil": 3153, "ĠÂ©": 3154, "iendas": 3155, "Ġadecu": 3156, "Ġpropor": 3157, "Ġmadre": 3158, "ut": 3159, "Ġextre": 3160, "Ġmucha": 3161, "ĠTwitter": 3162, "estival": 3163, "Ġpis": 3164, "Ġpreocu": 3165, "Ġinterior": 3166, "irmado": 3167, "Ġarte": 3168, "ĠPolicÃŃa": 3169, "tiendo": 3170, "Ġvisita": 3171, "ĠEj": 3172, "ĠestÃ©": 3173, "Ġtemas": 3174, "Ref": 3175, "Ġherramien": 3176, "omb": 3177, "via": 3178, "Ġdemos": 3179, "Ã¡ndo": 3180, "Ġartis": 3181, "pol": 3182, "Ġviene": 3183, "Ã©m": 3184, "ĠÃºnica": 3185, "Ġdeben": 3186, "Ġacon": 3187, "Ġjud": 3188, "Ġasegura": 3189, "Ġcateg": 3190, "Ã³nica": 3191, "ĠPubl": 3192, "Ġagu": 3193, "ĠEspaÃ±ol": 3194, "ĠNe": 3195, "ifusiÃ³n": 3196, "uelo": 3197, "Ġprevis": 3198, "illos": 3199, "lad": 3200, "Ġpaci": 3201, "ĠdiseÃ±o": 3202, "eda": 3203, "ĠEducaciÃ³n": 3204, "ĠimÃ¡": 3205, "Ġaband": 3206, "Ġespecialmente": 3207, "terÃŃa": 3208, "Ã©rcoles": 3209, "book": 3210, "Ġsalida": 3211, "Ġoferta": 3212, "ĠAunque": 3213, "teca": 3214, "Ġhijos": 3215, "LA": 3216, "Ġbusc": 3217, "Ġdob": 3218, "imientos": 3219, "ĠFrancisco": 3220, "ĠFundaciÃ³n": 3221, "ĠJes": 3222, "Ġcompeti": 3223, "tender": 3224, "uerto": 3225, "Ġ28": 3226, "Ġpropuesta": 3227, "Ġviolencia": 3228, "Ġpuedan": 3229, "ĠCasa": 3230, "ĠredistribuciÃ³n": 3231, "Ġcomprom": 3232, "ĠEuropea": 3233, "Ġsencil": 3234, "ĠJavier": 3235, "ĠLOS": 3236, "iencias": 3237, "tavoz": 3238, "ĠimÃ¡genes": 3239, "acciÃ³n": 3240, "Ġmartes": 3241, "tarse": 3242, "Ġaire": 3243, "ĠtÃ©rmin": 3244, "Ġrecuer": 3245, "Ġestruc": 3246, "IT": 3247, "tarÃŃa": 3248, "Â¿": 3249, "gin": 3250, "ly": 3251, "Ġvamos": 3252, "Ġnum": 3253, "CIÃĵN": 3254, "ivos": 3255, "Ġpier": 3256, "Ġmoder": 3257, "ĠfÃŃs": 3258, "Ġusted": 3259, "Ġ\\": 3260, "ĠServicio": 3261, "ĠGrupo": 3262, "itada": 3263, "Ġtrad": 3264, "Ġvecinos": 3265, "ĠDEL": 3266, "gosto": 3267, "ĠDipu": 3268, "mite": 3269, "bilidad": 3270, "ĠredifusiÃ³n": 3271, "ĠBen": 3272, "we": 3273, "Ġpen": 3274, "Ġciento": 3275, "entemente": 3276, "ierra": 3277, "OD": 3278, "idores": 3279, "200": 3280, "uras": 3281, "ivid": 3282, "Ġleer": 3283, "ĠeconÃ³mica": 3284, "ĠÃ¡rea": 3285, "olver": 3286, "Ġesca": 3287, "edores": 3288, "Ġgaranti": 3289, "itado": 3290, "Ġguerra": 3291, "Ġlaboral": 3292, "ĠdÃ©": 3293, "ĠdemÃ¡s": 3294, "ĠcreaciÃ³n": 3295, "iro": 3296, "Ġconsecu": 3297, "ĠInternacional": 3298, "Ġllega": 3299, "Ġprueba": 3300, "ical": 3301, "Ġdescon": 3302, "ĠahÃŃ": 3303, "Ġvolun": 3304, "ĠTa": 3305, "Ġregistrado": 3306, "iedo": 3307, "Ġalguien": 3308, "pia": 3309, "Ġdirecto": 3310, "Ġambos": 3311, "Ġdebate": 3312, "one": 3313, "itat": 3314, "Ġesas": 3315, "rÃŃa": 3316, "ĠOb": 3317, "su": 3318, "Ġagrad": 3319, "Ġrecuper": 3320, "Ġrecomend": 3321, "Ġderecha": 3322, "Ġ23": 3323, "mad": 3324, "aliza": 3325, "Ġpelig": 3326, "Ġcambiar": 3327, "Ġmanos": 3328, "ĠdifÃŃcil": 3329, "echo": 3330, "CO": 3331, "ĠAsociaciÃ³n": 3332, "Ġbueno": 3333, "Ġconcier": 3334, "Ġ26": 3335, "ĠCab": 3336, "taba": 3337, "âĤ": 3338, "partam": 3339, "50": 3340, "Ġentorno": 3341, "âĤ¬": 3342, "ĠLib": 3343, "Ã¡tico": 3344, "Ġdese": 3345, "ianza": 3346, "var": 3347, "ĠpodrÃ¡n": 3348, "Ġconvoca": 3349, "itaciÃ³n": 3350, "bria": 3351, "ticamente": 3352, "Ġconsum": 3353, "Ġsupone": 3354, "Ġaprob": 3355, "Ġexplica": 3356, "ĠopiniÃ³n": 3357, "Ġcoleg": 3358, "Ġeduca": 3359, "Ġcontar": 3360, "Ġinforme": 3361, "ĠPÃºbl": 3362, "ĠtÃŃtulo": 3363, "siones": 3364, "ĠÃģn": 3365, "Ġdefini": 3366, "Ġaprovech": 3367, "Ġeran": 3368, "Ġrecorr": 3369, "imismo": 3370, "ĠmiÃ©rcoles": 3371, "amb": 3372, "Ġdiez": 3373, "Ġescen": 3374, "ese": 3375, "Ġ>": 3376, "ĠRed": 3377, "Ġequipos": 3378, "ĠHis": 3379, "Ġestoy": 3380, "ĠLeÃ³n": 3381, "Ġdud": 3382, "Ġmateria": 3383, "Ġemo": 3384, "Ġbastante": 3385, "Ġsuced": 3386, "Ġiniciativa": 3387, "ĠMundial": 3388, "ps": 3389, "Ã¡mara": 3390, "ĠoposiciÃ³n": 3391, "Ġfotos": 3392, "Ġmismos": 3393, "Ġprecis": 3394, "ĠDa": 3395, "Ġexclus": 3396, "laga": 3397, "itaria": 3398, "Ġcoche": 3399, "ĠvÃŃa": 3400, "Ġopera": 3401, "Ġgrand": 3402, "Ġpadres": 3403, "Ġcontemp": 3404, "Ġdemostr": 3405, "Ġaz": 3406, "Ġconcep": 3407, "Ã©l": 3408, "ĠTodo": 3409, "ÃŃdo": 3410, "ÃŃstico": 3411, "fil": 3412, "ĠacciÃ³n": 3413, "Ġterc": 3414, "ĠeducaciÃ³n": 3415, "pir": 3416, "Ġestudios": 3417, "Ġlid": 3418, "Ġizquierda": 3419, "Ġsimple": 3420, "Ġcorrec": 3421, "ĠBil": 3422, "Ġdefensa": 3423, "Ġfabr": 3424, "ĠÃ©po": 3425, "estion": 3426, "ĠreproducciÃ³n": 3427, "Ġsemanas": 3428, "izado": 3429, "Ġbeb": 3430, "Ġcivil": 3431, "Ã©ctr": 3432, "grafÃŃa": 3433, "Ã³pez": 3434, "CH": 3435, "Ġimportancia": 3436, "ĠsÃ©": 3437, "Ã¡ndose": 3438, "CA": 3439, "tabria": 3440, "ĠpÃºblicos": 3441, "Ġpermitir": 3442, "ĠVic": 3443, "Ġfuerza": 3444, "Ġlibros": 3445, "Ġdisposi": 3446, "ĠOl": 3447, "Ġvideo": 3448, "Ã³me": 3449, "Ġbel": 3450, "Ġ2019": 3451, "Ġhotel": 3452, "onso": 3453, "Ġrecha": 3454, "tida": 3455, "cebook": 3456, "lares": 3457, "ĠcientÃŃf": 3458, "ĠRu": 3459, "oco": 3460, "Ġindivid": 3461, "Ġabsolu": 3462, "logo": 3463, "amientos": 3464, "Ġsed": 3465, "ĠLÃ³pez": 3466, "Ġsabe": 3467, "ĠBr": 3468, "Ġmotivo": 3469, "Ġtexto": 3470, "Ġpopular": 3471, "Ġcif": 3472, "Ġganar": 3473, "ique": 3474, "Ġelimin": 3475, "guez": 3476, "Ġzonas": 3477, "ĠproducciÃ³n": 3478, "Ġsalir": 3479, "Ġapues": 3480, "ĠDer": 3481, "Ġjugar": 3482, "ft": 3483, "vela": 3484, "ian": 3485, "Ġpone": 3486, "ĠOs": 3487, "Ġpretend": 3488, "Ġrelig": 3489, "Ġnorma": 3490, "Ġantigu": 3491, "Ġtomar": 3492, "Ġcomentario": 3493, "ĠFernÃ¡ndez": 3494, "Ã©rica": 3495, "Ġterror": 3496, "Ġesfuer": 3497, "ĠmÃ¡ximo": 3498, "Ġmunicipal": 3499, "ws": 3500, "Ġenla": 3501, "dem": 3502, "Ġsoy": 3503, "Ãģ": 3504, "ĠNos": 3505, "Ġsufici": 3506, "Ġpul": 3507, "ĠPrem": 3508, "jal": 3509, "arte": 3510, "Ġacceder": 3511, "cripciÃ³n": 3512, "Ġcic": 3513, "Ġsuperior": 3514, "ĠtecnologÃŃa": 3515, "ciona": 3516, "Ġoportunidad": 3517, "icante": 3518, "ĠbÃ¡s": 3519, "Ã¡laga": 3520, "Ġexiste": 3521, "Ġdebido": 3522, "baj": 3523, "ĠpresentaciÃ³n": 3524, "ogle": 3525, "ĠTen": 3526, "http": 3527, "Ġrod": 3528, "Ġdedic": 3529, "Ġpadre": 3530, "VA": 3531, "ĠconstrucciÃ³n": 3532, "Ġportavoz": 3533, "Ġinterpre": 3534, "Ġdenunci": 3535, "Ġprincipio": 3536, "ĠÃ¡mbito": 3537, "ĠopciÃ³n": 3538, "Ġencima": 3539, "EM": 3540, "Ġefectos": 3541, "ĠConstitu": 3542, "ĠDel": 3543, "Ġsomos": 3544, "uncia": 3545, "tamientos": 3546, "Ġorigen": 3547, "Ġobserv": 3548, "ĠFer": 3549, "ican": 3550, "Ġutilizar": 3551, "Ġpide": 3552, "todo": 3553, "Ġperten": 3554, "titud": 3555, "Ġrecono": 3556, "ĠAL": 3557, "ĠSuper": 3558, "Ġimpa": 3559, "tiago": 3560, "Ġnecesidades": 3561, "Ġconsidera": 3562, "Ġrealizado": 3563, "Ġagosto": 3564, "ende": 3565, "Ġviaje": 3566, "ĠÃºltimas": 3567, "ĠFu": 3568, "Ġfebrero": 3569, "Ġinnov": 3570, "poner": 3571, "Ġmomentos": 3572, "ĠEcon": 3573, "bier": 3574, "ĠDav": 3575, "Ġadministra": 3576, "Ġdeja": 3577, "Ġcompra": 3578, "Ġvin": 3579, "Ġbuscar": 3580, "Ġdemas": 3581, "Ġ2010": 3582, "Ġbusca": 3583, "Ġfuerte": 3584, "ĠJus": 3585, "elas": 3586, "ĠLoc": 3587, "Ġblo": 3588, "ĠComisiÃ³n": 3589, "ick": 3590, "Ġingres": 3591, "Ġdan": 3592, "Ġcrecimiento": 3593, "ĠFo": 3594, "Ġtratamiento": 3595, "Ġ2015": 3596, "ĠCos": 3597, "endas": 3598, "ĠDurante": 3599, "fes": 3600, "Ġnegocio": 3601, "Ġconduc": 3602, "ĠWeb": 3603, "Ġinstalaciones": 3604, "ĠAlber": 3605, "Ġplaza": 3606, "ko": 3607, "Ġperder": 3608, "Ã©di": 3609, "Ġonline": 3610, "Ġinmedia": 3611, "udo": 3612, "Ġreno": 3613, "icada": 3614, "ificar": 3615, "anÃŃa": 3616, "racia": 3617, "Ġelectoral": 3618, "ĠMas": 3619, "ĠFernando": 3620, "ĠdiseÃ±": 3621, "ĠEm": 3622, "Ġhijo": 3623, "Ġhacerlo": 3624, "ĠreuniÃ³n": 3625, "mpoco": 3626, "Ġbon": 3627, "ĠeconomÃŃa": 3628, "ĠJor": 3629, "Ġnoticia": 3630, "Ġfunciones": 3631, "encial": 3632, "Ġcambios": 3633, "Ã³l": 3634, "ĠprotecciÃ³n": 3635, "Ġnota": 3636, "Ġestilo": 3637, "Ġamena": 3638, "Ġidentif": 3639, "remos": 3640, "Ġcob": 3641, "ĠeconÃ³mico": 3642, "ĠEmpres": 3643, "Ġbaja": 3644, "riÃ³": 3645, "Ġsiete": 3646, "ĠCU": 3647, "Ã¡lez": 3648, "Ġpagar": 3649, "ĠCÃ¡": 3650, "arago": 3651, "Ġlucha": 3652, "adamente": 3653, "ĠUniÃ³n": 3654, "ĠSegur": 3655, "Ġnecesita": 3656, "gada": 3657, "ĠenseÃ±": 3658, "ĠÃģngel": 3659, "Ġ2011": 3660, "ner": 3661, "her": 3662, "ĠVil": 3663, "Ġejecu": 3664, "ĠvÃŃdeo": 3665, "Ġofrec": 3666, "ĠÂ·": 3667, "Ġsupuesto": 3668, "Ġprogramas": 3669, "Ġestrateg": 3670, "rump": 3671, "Ġprov": 3672, "ines": 3673, "Ġresponsabilidad": 3674, "Ġobtener": 3675, "tron": 3676, "Ġdisco": 3677, "Ġconsumo": 3678, "ĠBer": 3679, "Ġren": 3680, "Ġprob": 3681, "Ġperm": 3682, "ĠMay": 3683, "Ġtrabajos": 3684, "ald": 3685, "Ã©nero": 3686, "Ġtampoco": 3687, "ĠRam": 3688, "ĠhabÃŃan": 3689, "Ġacciones": 3690, "Ġvuelta": 3691, "Ġapun": 3692, "Se": 3693, "Ġsosten": 3694, "ĠtelÃ©": 3695, "Ġsignifica": 3696, "ĠGonzÃ¡lez": 3697, "Ġpropi": 3698, "ĠPartido": 3699, "ĠtelÃ©f": 3700, "Ġvivienda": 3701, "Ġalquil": 3702, "Ġfamilias": 3703, "Ġmaterial": 3704, "quitec": 3705, "Ġfem": 3706, "Ġ27": 3707, "lÃ©s": 3708, "ĠPAR": 3709, "ĠFeder": 3710, "cidente": 3711, "Ġpers": 3712, "Ġcliente": 3713, "ĠcomÃºn": 3714, "Ġx": 3715, "Ġcris": 3716, "Ġalterna": 3717, "este": 3718, "ezas": 3719, "capa": 3720, "ĠMÃ©": 3721, "ĠAud": 3722, "Ġcocina": 3723, "Ġaver": 3724, "fÃŃa": 3725, "Ġescrito": 3726, "Ãĳ": 3727, "zan": 3728, "ĠpequeÃ±o": 3729, "ĠanÃ¡lisis": 3730, "orme": 3731, "ĠCantabria": 3732, "Ġhas": 3733, "antil": 3734, "jud": 3735, "rar": 3736, "ĠFrancia": 3737, "Ġfra": 3738, "Ġestrel": 3739, "Ġreferencia": 3740, "tidos": 3741, "Ġconstru": 3742, "US": 3743, "Ġtran": 3744, "Ġtram": 3745, "Ġdesapar": 3746, "ĠallÃŃ": 3747, "ampl": 3748, "ĠCultura": 3749, "Ġnorte": 3750, "CE": 3751, "Ġejercicio": 3752, "ĠTribunal": 3753, "Ġacud": 3754, "Ġtierra": 3755, "iel": 3756, "Ġcentral": 3757, "ĠfunciÃ³n": 3758, "Ġemail": 3759, "lamentar": 3760, "TR": 3761, "Ġdistintos": 3762, "usk": 3763, "ciaciones": 3764, "ĠInv": 3765, "Ġsorprend": 3766, "tarios": 3767, "teras": 3768, "alu": 3769, "Ġfuentes": 3770, "teles": 3771, "iere": 3772, "ĠelÃ©ctr": 3773, "Ġcausa": 3774, "Ġjugadores": 3775, "ĠfÃºtbol": 3776, "Ġsum": 3777, "Ġdio": 3778, "icÃ³": 3779, "Con": 3780, "Ġpremio": 3781, "rig": 3782, "Ġproteg": 3783, "itad": 3784, "Ġministro": 3785, "lic": 3786, "Ġlocales": 3787, "Ġdev": 3788, "ĠÃ©poca": 3789, "Ġrecog": 3790, "queda": 3791, "ĠenergÃŃa": 3792, "Ġalma": 3793, "Ġconvertir": 3794, "Ġsuel": 3795, "ĠSantiago": 3796, ".,": 3797, "Ġclave": 3798, "Ġconocimiento": 3799, "Ġentidades": 3800, "Ġmundial": 3801, "alidades": 3802, "ĠRiv": 3803, "ĠQUE": 3804, "gre": 3805, "Ġpid": 3806, "Ġocasiones": 3807, "Ġcrea": 3808, "Ġdura": 3809, "onda": 3810, "menes": 3811, "ĠAsturi": 3812, "Ġambiente": 3813, "!!!": 3814, "Ġdesarrollar": 3815, "ĠInstituto": 3816, "Ġraz": 3817, "idor": 3818, "desa": 3819, "Ġdescubr": 3820, "Ġfalle": 3821, "jeros": 3822, "Ġgrande": 3823, "aragoza": 3824, "Ġtenga": 3825, "ff": 3826, "Ġdistintas": 3827, "umen": 3828, "ĠRE": 3829, "Ġmonta": 3830, "ĠcrÃŃ": 3831, "ĠexposiciÃ³n": 3832, "Ġglo": 3833, "reas": 3834, "Ġmitad": 3835, "Ġhechos": 3836, "ĠDios": 3837, "ĠinversiÃ³n": 3838, "Ġcompromiso": 3839, "Ġens": 3840, "IEN": 3841, "Ġavis": 3842, "Ġquin": 3843, "ĠÃ³r": 3844, "ICA": 3845, "Ġvivir": 3846, "Ġdia": 3847, "alizada": 3848, "Ġfir": 3849, "IB": 3850, "Ġdeclara": 3851, "caciones": 3852, "ĠPon": 3853, "Ġentrega": 3854, "ĠposiciÃ³n": 3855, "QU": 3856, "Ġsistemas": 3857, "ĠMurcia": 3858, "Ġclase": 3859, "iestas": 3860, "ĠVen": 3861, "ĠactuaciÃ³n": 3862, "ĠJesÃºs": 3863, "Ġclases": 3864, "Ġnumeros": 3865, "Ġnegoci": 3866, "cÃ©s": 3867, "Ġgri": 3868, "Ġdiario": 3869, "culos": 3870, "Ġpresentado": 3871, "12": 3872, "IM": 3873, "ĠNues": 3874, "Ġfre": 3875, "Ġconcen": 3876, "Ġcultural": 3877, "Ġarch": 3878, "ĠAt": 3879, "Ġdesarroll": 3880, "iales": 3881, "ĠSeguridad": 3882, "emoria": 3883, "ĠNueva": 3884, "Ġmol": 3885, "ĠThe": 3886, "Ġvictoria": 3887, "Ġincluye": 3888, "Ġlig": 3889, "ĠHos": 3890, "Ġcontrario": 3891, "ĠNO": 3892, "ĠDec": 3893, "igura": 3894, "ĠVo": 3895, "Ġquieren": 3896, "entis": 3897, "ĠFel": 3898, "isa": 3899, "ĠrazÃ³n": 3900, "ĠhabrÃ¡": 3901, "Ġ2012": 3902, "Ġsede": 3903, "apa": 3904, "ĠGoogle": 3905, "ĠVi": 3906, "paciÃ³n": 3907, "Ġinicio": 3908, "Ġfondo": 3909, "ĠEdi": 3910, "ierte": 3911, "ĠAsimismo": 3912, "ĠvehÃŃculos": 3913, "Ġpiel": 3914, "vieron": 3915, "Ġpien": 3916, "ieran": 3917, "Ġcora": 3918, "laz": 3919, "ĠMÃ¡laga": 3920, "Por": 3921, "ins": 3922, "tancias": 3923, "ĠGuardia": 3924, "ĠselecciÃ³n": 3925, "Ġinteg": 3926, "ÂŃ": 3927, "Ġsac": 3928, "Ġtraslad": 3929, "rido": 3930, "ĠHab": 3931, "Ġcuyo": 3932, "Ġpun": 3933, "Ġcump": 3934, "Ġsatis": 3935, "Ġmensaje": 3936, "ĠregiÃ³n": 3937, "Ġmatr": 3938, "ulas": 3939, "Ġpago": 3940, "Ġjef": 3941, "icados": 3942, "ĠPues": 3943, "ĠdÃ©c": 3944, "In": 3945, "Ã©rez": 3946, "crip": 3947, "ĠespecÃŃf": 3948, "ĠâĢ¢": 3949, "Ġfinales": 3950, "ĠTu": 3951, "Ġeta": 3952, "Ġcree": 3953, "iego": 3954, "adal": 3955, "Ġocho": 3956, "Ġterr": 3957, "ĠPolÃŃtica": 3958, "ĠGracias": 3959, "Ġregul": 3960, "Ġregres": 3961, "ĠCOM": 3962, "Ġcompl": 3963, "Ġentender": 3964, "ĠocasiÃ³n": 3965, "ĠAdministraciÃ³n": 3966, "ella": 3967, "aya": 3968, "obern": 3969, "ioso": 3970, "Ġdebes": 3971, "Ġpublicado": 3972, "Ġgo": 3973, "Ġcomerciales": 3974, "Ġpartes": 3975, "Ġvisi": 3976, "ersiones": 3977, "ij": 3978, "Ġtiempos": 3979, "Ġmejora": 3980, "Ġmunicipio": 3981, "Ġcita": 3982, "Ã³digo": 3983, "ĠallÃ¡": 3984, "Ġvalores": 3985, "Ã¡tica": 3986, "Ġelementos": 3987, "quir": 3988, "inaciÃ³n": 3989, "ĠtelevisiÃ³n": 3990, "EMA": 3991, "ĠautÃ³n": 3992, "ĠOfici": 3993, "rique": 3994, "Ġhici": 3995, "Ġandal": 3996, "Ġllegado": 3997, "tral": 3998, "Ã©nd": 3999, "rantes": 4000, "etas": 4001, "ork": 4002, "Ġcandidato": 4003, "mentar": 4004, "ĠâĢĶ": 4005, "genti": 4006, "erte": 4007, "ph": 4008, "Ġciudades": 4009, "Ġ60": 4010, "ĠDespuÃ©s": 4011, "ĠkilÃ³me": 4012, "itales": 4013, "Ġagentes": 4014, "Ġimp": 4015, "ĠInf": 4016, "Ġcontrato": 4017, "Ġjugador": 4018, "Los": 4019, "partamento": 4020, "Ġvotos": 4021, "ĠsoluciÃ³n": 4022, "Ġcompleto": 4023, "ĠSociedad": 4024, "Ġmenores": 4025, "Ġsustitu": 4026, "Ġefecto": 4027, "rÃŃguez": 4028, "Ġpareja": 4029, "lev": 4030, "Ġmovimiento": 4031, "ĠTele": 4032, "ĠartÃŃculos": 4033, "ĠprÃ¡ctica": 4034, "Ġimpuls": 4035, "Ġsacar": 4036, "ĠEE": 4037, "Ġllamada": 4038, "ĠAna": 4039, "quÃ©": 4040, "Ġmilitar": 4041, "ĠDavid": 4042, "Ġayudar": 4043, "Cu": 4044, "Ġdomici": 4045, "amplona": 4046, "ĠPos": 4047, "Ġsecretario": 4048, "ĠFacebook": 4049, "Ġcomprar": 4050, "lano": 4051, "dan": 4052, "Ġinstituciones": 4053, "ĠDan": 4054, "Ġcarre": 4055, "ĠcuestiÃ³n": 4056, "Ġedificio": 4057, "estruc": 4058, "Ġcalles": 4059, "ĠllegÃ³": 4060, "ĠSalud": 4061, "cla": 4062, "ĠRodrÃŃguez": 4063, "??": 4064, "ĠPÃ©rez": 4065, "Ġexpresa": 4066, "Ġfron": 4067, "Ġobjetivos": 4068, "ĠbÃºs": 4069, "ĠBus": 4070, "vers": 4071, "Ġjuicio": 4072, "Ġconoc": 4073, "ĠvÃŃctimas": 4074, "Ġpropuestas": 4075, "ĠÂ»": 4076, "Ġencuentran": 4077, "Ġhabla": 4078, "Ġescol": 4079, "Ġhon": 4080, "Ġnaturaleza": 4081, "isiones": 4082, "ĠParlamento": 4083, "Ġprofesor": 4084, "Ġideas": 4085, "ĠestarÃ¡": 4086, "rupciÃ³n": 4087, "Ġis": 4088, "Ġcoin": 4089, "Ġpuerta": 4090, "Ã³nd": 4091, "Ġdoble": 4092, "Ãł": 4093, "Ġreforma": 4094, "Ġfundamental": 4095, "ĠAmb": 4096, "Ġsuelo": 4097, "ĠIglesias": 4098, "idado": 4099, "ĠUE": 4100, "Ġcompleta": 4101, "ÃŃos": 4102, "Ã©g": 4103, "Ġrepresenta": 4104, "Ġbanda": 4105, "Ġvoto": 4106, "ĠRio": 4107, "Ġcompartir": 4108, "erÃ¡": 4109, "Ġformas": 4110, "ĠPopular": 4111, "Ġrenov": 4112, "Ġpleno": 4113, "Ġentrar": 4114, "ĠCer": 4115, "Ġfamos": 4116, "ĠEsc": 4117, "arial": 4118, "Ġlevan": 4119, "viv": 4120, "Ġprimeras": 4121, "tique": 4122, "ĠBlan": 4123, "Ġ2009": 4124, "Ġdol": 4125, "Ġpocos": 4126, "telig": 4127, "Ġdirectamente": 4128, "Ġpensar": 4129, "at": 4130, "DE": 4131, "ĠPuedes": 4132, "Ġalred": 4133, "ĠXX": 4134, "ĠgÃ©nero": 4135, "Ġmarco": 4136, "ĠautonÃ³m": 4137, "iter": 4138, "Ġpregunta": 4139, "Ġpruebas": 4140, "ĠDesarrol": 4141, "Ġretir": 4142, "ĠGalicia": 4143, "Ġsil": 4144, "ĠTr": 4145, "Ġcampe": 4146, "Ġps": 4147, "ĠRos": 4148, "Ġintrodu": 4149, "AT": 4150, "Ġcomunicado": 4151, "LE": 4152, "Ġcoordin": 4153, "Ġmesa": 4154, "ĠAsturias": 4155, "Ġdim": 4156, "Ġconcurso": 4157, "Ġreclam": 4158, "Ġrecibido": 4159, "tres": 4160, "Ġluc": 4161, "Ġelev": 4162, "Ġconsigu": 4163, "mania": 4164, "ĠTran": 4165, "ĠII": 4166, "Ġconflic": 4167, "Ġexcel": 4168, "Ġiba": 4169, "ega": 4170, "ADO": 4171, "11": 4172, "eso": 4173, "Ġrealmente": 4174, "Ġquiero": 4175, "Ġqueremos": 4176, "Ġnavegador": 4177, "Ġquieres": 4178, "Ġnotif": 4179, "Ġcuentas": 4180, "DO": 4181, "Ġtre": 4182, "tÃ¡s": 4183, "tador": 4184, "Ġperiodo": 4185, "Ġhttps": 4186, "Ġexcep": 4187, "Ġinformado": 4188, "direc": 4189, "ĠImp": 4190, "Ġcuales": 4191, "Ġpropie": 4192, "Ġobliga": 4193, "Ġvac": 4194, "ĠZaragoza": 4195, "Ġextran": 4196, "Ġfru": 4197, "tiles": 4198, "ormente": 4199, "Ã³nde": 4200, "Ġfiscal": 4201, "ragÃ³n": 4202, "gal": 4203, "Ã©tica": 4204, "Ġges": 4205, "Ġvoy": 4206, "Ġprevia": 4207, "cidos": 4208, "ĠdistribuciÃ³n": 4209, "Ġfiesta": 4210, "ĠÃŃn": 4211, "Ġtaller": 4212, "Ġrelaciones": 4213, "med": 4214, "Ġllama": 4215, "Ġargu": 4216, "cito": 4217, "ĠCruz": 4218, "ismos": 4219, "gaciÃ³n": 4220, "ocado": 4221, "Ġprefer": 4222, "Ġexplicado": 4223, "ĠEjecu": 4224, "Ġeres": 4225, "ices": 4226, "inar": 4227, "Ġusar": 4228, "IG": 4229, "genier": 4230, "Ġ2008": 4231, "Ġdeporte": 4232, "gul": 4233, "ĠMedio": 4234, "Ġlic": 4235, "istir": 4236, "Ġconocido": 4237, "jado": 4238, "sas": 4239, "ĠniÃ±o": 4240, "ki": 4241, "ĠpequeÃ±os": 4242, "Ġdiferencia": 4243, "Ġmodelos": 4244, "ĠCur": 4245, "Ã©gimen": 4246, "ĠPS": 4247, "arca": 4248, "Ġequ": 4249, "itarios": 4250, "iental": 4251, "ciden": 4252, "ĠBel": 4253, "olÃ³gico": 4254, "Ġvelo": 4255, "Ġevento": 4256, "Ġded": 4257, "Ġfan": 4258, "Ġcru": 4259, "ĠEr": 4260, "Ġpersonales": 4261, "anes": 4262, "ĠPatr": 4263, "ĠDepor": 4264, "Ġ198": 4265, "Ġrefle": 4266, "ificado": 4267, "Ġtercera": 4268, "Ġposib": 4269, "Ġav": 4270, "xico": 4271, "tell": 4272, "mer": 4273, "Ġmiles": 4274, "Ġasum": 4275, "zada": 4276, "san": 4277, "Ġverd": 4278, "Ġreflex": 4279, "Ġsocialista": 4280, "Ã¡fico": 4281, "ĠPala": 4282, "Ġtransporte": 4283, "Ġpuertas": 4284, "Ġ80": 4285, "Ġmag": 4286, "ware": 4287, "iados": 4288, "Ġjuez": 4289, "ival": 4290, "Ġfrecu": 4291, "Ġrue": 4292, "mentaciÃ³n": 4293, "tuales": 4294, "ĠtÃ©cnicos": 4295, "quer": 4296, "Ġdirecta": 4297, "Ġdu": 4298, "Ġanimales": 4299, "ĠMartÃŃnez": 4300, "Ġdispu": 4301, "Ġq": 4302, "Ġactuaciones": 4303, "zca": 4304, "ort": 4305, "Ġaumento": 4306, "Ġfirma": 4307, "ju": 4308, "Ġpeor": 4309, "Ġlugares": 4310, "ĠJun": 4311, "ĠEstos": 4312, "Ġabandon": 4313, "ĠpequeÃ±a": 4314, "trum": 4315, "Ġaven": 4316, "De": 4317, "Ġrad": 4318, "cun": 4319, "Ġcuya": 4320, "teriormente": 4321, "Ġacces": 4322, "Ġsuerte": 4323, "Ġbre": 4324, "ee": 4325, "%,": 4326, "ĠtÃº": 4327, "Ġpuestos": 4328, "Ġtas": 4329, "Ġbienes": 4330, "ĠMuseo": 4331, "Ġinau": 4332, "ĠPlaza": 4333, "VI": 4334, "hab": 4335, "Ġcomercial": 4336, "ĠdeberÃŃa": 4337, "ritÃ¡n": 4338, "Ġmec": 4339, "imas": 4340, "tana": 4341, "Ġ29": 4342, "Ġlimpi": 4343, "ĠEspaÃ±ola": 4344, "ĠBal": 4345, "Ġvoz": 4346, "Ġdificul": 4347, "bao": 4348, "Ġprincipios": 4349, "ÃŃm": 4350, "Ġgenerales": 4351, "unid": 4352, "Ġul": 4353, "ĠclÃ¡s": 4354, "Ġcuan": 4355, "Ġlegal": 4356, "ĠtelÃ©fono": 4357, "ade": 4358, "Ġtotalmente": 4359, "Ġhumanos": 4360, "tig": 4361, "ĠAquÃŃ": 4362, "Ġpie": 4363, "ĠViv": 4364, "arr": 4365, "Ġhu": 4366, "ĠpodÃŃa": 4367, "ĠquiÃ©n": 4368, "edra": 4369, "menta": 4370, "Ġblanco": 4371, "ĠPuig": 4372, "Ġabierto": 4373, "Ġconec": 4374, "ĠkilÃ³metros": 4375, "Ġplataforma": 4376, "talia": 4377, "ĠDiputaciÃ³n": 4378, "Ġoper": 4379, "Ġempi": 4380, "Ġmarcas": 4381, "ĠSem": 4382, "py": 4383, "jerÃŃa": 4384, "ÃŃr": 4385, "Ġiniciado": 4386, "Ġsupon": 4387, "Ġajus": 4388, "olo": 4389, "leta": 4390, "ĠreparaciÃ³n": 4391, "ĠAlm": 4392, "Ġtradicional": 4393, "ĠcorazÃ³n": 4394, "Ġgobern": 4395, "yas": 4396, "ĠcategorÃŃa": 4397, "Ġsob": 4398, "Ġpretende": 4399, "ĠMunicip": 4400, "Ġturismo": 4401, "ĠAp": 4402, "UU": 4403, "bio": 4404, "Ġfines": 4405, "Ġsentencia": 4406, "AB": 4407, "terios": 4408, "Ġescenario": 4409, "Ġcompro": 4410, "ĠGranada": 4411, "EMAIL": 4412, "Ġoriginal": 4413, "Ġadquir": 4414, "Ġafirma": 4415, "Ġintereses": 4416, "ĠTec": 4417, "ont": 4418, "Ġalquiler": 4419, "Ġwww": 4420, "Ġmues": 4421, "doba": 4422, "Ġentrevista": 4423, "pectos": 4424, "Ġcircu": 4425, "ĠPl": 4426, "estre": 4427, "Ġdeleg": 4428, "ime": 4429, "Ġpedir": 4430, "Ġconvocatoria": 4431, "Ġvino": 4432, "ĠIb": 4433, "Ġpublicidad": 4434, "cionados": 4435, "LO": 4436, "weet": 4437, "Ġayudas": 4438, "ĠbÃºsqueda": 4439, "Ġfich": 4440, "CIA": 4441, "ĠPamplona": 4442, "Ġhogar": 4443, "tum": 4444, "tÃ©n": 4445, "Ġobjeto": 4446, "ĠGeneralitat": 4447, "cr": 4448, "Ġintentar": 4449, "Ġmantiene": 4450, "ĠIncl": 4451, "Ġterceros": 4452, "Ġemprend": 4453, "Ġpodido": 4454, "15": 4455, "lid": 4456, "Ġtitular": 4457, "fre": 4458, "Ġvuelve": 4459, "orro": 4460, "ĠInformaciÃ³n": 4461, "Ġactos": 4462, "biÃ³": 4463, "Ġconvers": 4464, "Ġarquitec": 4465, "ĠAN": 4466, "ĠpÃ©r": 4467, "amble": 4468, "Ġpuedo": 4469, "Ġestadounid": 4470, "dar": 4471, "Ġhuel": 4472, "idencia": 4473, "Ġdemocracia": 4474, "Ġfase": 4475, "Ġadelante": 4476, "Ġtoma": 4477, "Ġdemasiado": 4478, "tander": 4479, "Ġcompa": 4480, "Ġfondos": 4481, "Ġhospital": 4482, "Ġimpos": 4483, "cina": 4484, "ĠVas": 4485, "anda": 4486, "Ġtriun": 4487, "Ġhubiera": 4488, "Ġadop": 4489, "ĠseÃ±alado": 4490, "Ġcumplir": 4491, "Ġterritorio": 4492, "ear": 4493, "Ġvacaciones": 4494, "Ġfamiliar": 4495, "ensiÃ³n": 4496, "ĠExtre": 4497, "40": 4498, "Ġderro": 4499, "pero": 4500, "Ġformul": 4501, "ĠDon": 4502, "ĠcÃ¡n": 4503, "madura": 4504, "18": 4505, "Ġcomprome": 4506, "Ġincend": 4507, "Ġpedido": 4508, "Ġpost": 4509, "ecido": 4510, "ĠTÃ©cn": 4511, "ologÃŃas": 4512, "Ġinteresante": 4513, "Ġpresupuesto": 4514, "ĠjurÃŃd": 4515, "Ġapenas": 4516, "Ġconci": 4517, "quiera": 4518, "ĠJusticia": 4519, "Ġpropios": 4520, "ĠBur": 4521, "Ġrespec": 4522, "Ġestudiantes": 4523, "Ġvesti": 4524, "Ġamigo": 4525, "ĠtrÃ¡fico": 4526, "ĠbritÃ¡n": 4527, "Ġmala": 4528, "tus": 4529, "Ġasegurado": 4530, "ĠVI": 4531, "dio": 4532, "ĠutilizaciÃ³n": 4533, "Ġposibles": 4534, "Ġvisitar": 4535, "Ġquiz": 4536, "Ġcompeten": 4537, "Ġcapaz": 4538, "Ġefica": 4539, "cad": 4540, "Ġespacios": 4541, "Ġfigura": 4542, "ĠPR": 4543, "rado": 4544, "ĠInvesti": 4545, "Ġaspectos": 4546, "ĠintervenciÃ³n": 4547, "uz": 4548, "entro": 4549, "tien": 4550, "ĠServicios": 4551, "Ġagres": 4552, "Ġconfianza": 4553, "Ġparcial": 4554, "Ġpelo": 4555, "ĠRom": 4556, "ivacidad": 4557, "ĠReci": 4558, "mano": 4559, "ĠpÃºblicas": 4560, "americ": 4561, "Ġfuerzas": 4562, "Ġdejado": 4563, "Ġinternet": 4564, "Ġpalabra": 4565, "Ġcontras": 4566, "Ġllegada": 4567, "arla": 4568, "ĠprÃ³xima": 4569, "cÃ³n": 4570, "Ġevalu": 4571, "Ġacerca": 4572, "Ġcircun": 4573, "Ġnie": 4574, "ĠAragÃ³n": 4575, "Ġja": 4576, "gencias": 4577, "ĠDirecciÃ³n": 4578, "Ġtorno": 4579, "Ġarti": 4580, "alla": 4581, "Ġat": 4582, "teratura": 4583, "uno": 4584, "ĠDeb": 4585, "table": 4586, "Ġlegisla": 4587, "ray": 4588, "Ġindependentis": 4589, "Ġdomicilio": 4590, "Ġopciones": 4591, "Ġrenta": 4592, "Ġreservados": 4593, "Ġojos": 4594, "dicos": 4595, "Ġesfuerzo": 4596, "Ġresulta": 4597, "ĠComer": 4598, "ĠpÃ¡ginas": 4599, "Ġpais": 4600, "utr": 4601, "ĠBol": 4602, "Ġcuadr": 4603, "ĠTrans": 4604, "Ġmic": 4605, "Un": 4606, "Ġestaban": 4607, "gram": 4608, "Ġfuncionamiento": 4609, "Ġcm": 4610, "oo": 4611, "Ġdetec": 4612, "tible": 4613, "icepres": 4614, "ĠcaracterÃŃsticas": 4615, "ĠcontinuaciÃ³n": 4616, "Ġenfermedad": 4617, "ĠfinanciaciÃ³n": 4618, "UM": 4619, "Ġvie": 4620, "TER": 4621, "Ġfiestas": 4622, "Ġexten": 4623, "Ġcarta": 4624, "echos": 4625, "Ġdocumento": 4626, "Ġol": 4627, "censo": 4628, "Ġsiguen": 4629, "Ġsepar": 4630, "Ġcomunidades": 4631, "Ġacord": 4632, "ĠcelebraciÃ³n": 4633, "rile": 4634, "Ġpeso": 4635, "AC": 4636, "Ġdestino": 4637, "ĠinglÃ©s": 4638, "ĠClub": 4639, "Ġatrac": 4640, "tid": 4641, "Ġmantenimiento": 4642, "Ġparlamentar": 4643, "Ġinternacionales": 4644, "Ġviviendas": 4645, "ĠTurismo": 4646, "Ġrecuerda": 4647, "Ġabog": 4648, "ĠLeg": 4649, "Ġindustria": 4650, "ĠAz": 4651, "Ġtro": 4652, "VE": 4653, "Ġdemanda": 4654, "iares": 4655, "arma": 4656, "ieres": 4657, "Ġconvertido": 4658, "âĢĵ": 4659, "Ġbarrio": 4660, "iblioteca": 4661, "ĠcatalÃ¡n": 4662, "Ġmaes": 4663, "ĠEstas": 4664, "%.": 4665, "ĠLena": 4666, "Ġanteriores": 4667, "........": 4668, "Ġsala": 4669, "Ġvelocidad": 4670, "Ġpopul": 4671, "Ġsatisf": 4672, "Ġpena": 4673, "ĠCada": 4674, "rue": 4675, "ticias": 4676, "Ġjuegos": 4677, "Ġacaba": 4678, "Ġdelante": 4679, "Ġtipos": 4680, "mÃ¡tica": 4681, "ĠÃī": 4682, "diz": 4683, "TOR": 4684, "orca": 4685, "Ġdenuncia": 4686, "Ġ197": 4687, "Ġconcreto": 4688, "ame": 4689, "onia": 4690, "dura": 4691, "Ġido": 4692, "Ġrepe": 4693, "ĠHum": 4694, "Ġmoda": 4695, "ĠEso": 4696, "ĠDÃŃaz": 4697, "Ġexpertos": 4698, "ĠBas": 4699, "Ġrend": 4700, "ap": 4701, "Ġmiedo": 4702, "ral": 4703, "ĠDos": 4704, "ĠTecn": 4705, "Ġjustif": 4706, "ðŁ": 4707, "Ġital": 4708, "Ġcursos": 4709, "Ġmez": 4710, "ml": 4711, "Ġmemoria": 4712, "raestruc": 4713, "ecuciÃ³n": 4714, "Ġsindica": 4715, "ĠVir": 4716, "ĠprÃ³ximos": 4717, "Ġdenomin": 4718, "ĠTorre": 4719, "unda": 4720, "Ġarro": 4721, "ĠON": 4722, "mitir": 4723, "Ġdeclaraciones": 4724, "ife": 4725, "ĠperiÃ³": 4726, "ĠcompaÃ±eros": 4727, "olÃ³gica": 4728, "Ġestrategia": 4729, "Ġnega": 4730, "Ġdocumen": 4731, "Ġlanz": 4732, "ĠAlemania": 4733, "Ġintelig": 4734, "Ġadi": 4735, "Ġrece": 4736, "ĠRioja": 4737, "Ġreducir": 4738, "ardo": 4739, "Ãī": 4740, "ĠPremio": 4741, "Ġexplo": 4742, "Ġpantalla": 4743, "Ġbloque": 4744, "Ġrecor": 4745, "Ġpeti": 4746, "ĠcrÃ©di": 4747, "igles": 4748, "Ġconden": 4749, "Ġtarje": 4750, "ÃŃsimo": 4751, "Ġmunicipales": 4752, "gÃ¼": 4753, "Ġmismas": 4754, "af": 4755, "Ġsocialistas": 4756, "Ġplazas": 4757, "Ġ70": 4758, "pin": 4759, "Ġobstante": 4760, "Ġamar": 4761, "Ġdon": 4762, "Ġplanta": 4763, "Ġregional": 4764, "Ġtempera": 4765, "triz": 4766, "Ġcoste": 4767, "ĠBilbao": 4768, "Ġtrabajando": 4769, "Ġaparece": 4770, "GT": 4771, "uencias": 4772, "ĠVÃŃdeo": 4773, "Ġllamado": 4774, "Ġconsecuencia": 4775, "itÃ©": 4776, "Ġcome": 4777, "Ġurb": 4778, "Ġrey": 4779, "istros": 4780, "Ġrespeto": 4781, "ĠDesarrollo": 4782, "ity": 4783, "yos": 4784, "idamente": 4785, "Ġazul": 4786, "Ġgolpe": 4787, "uta": 4788, "Ġganas": 4789, "Ġmateriales": 4790, "Ġpremios": 4791, "ĠNi": 4792, "Ġcircuns": 4793, "ll": 4794, "ĠAC": 4795, "ĠautorizaciÃ³n": 4796, "tillo": 4797, "Ġ31": 4798, "Ġaler": 4799, "Ġtrib": 4800, "Ġvolv": 4801, "Ġconcentr": 4802, "Ġfas": 4803, "Ġmarc": 4804, "ĠReino": 4805, "laciones": 4806, "Ġapuesta": 4807, "Ġnegro": 4808, "Ġ2013": 4809, "PE": 4810, "Ġep": 4811, "abel": 4812, "ĠEjecutivo": 4813, "Ġfrances": 4814, "Ã³rdoba": 4815, "Ġalcanzar": 4816, "Ġjefe": 4817, "Ã§": 4818, "ĠSER": 4819, "ĠMos": 4820, "ĠPRO": 4821, "Ġofertas": 4822, "Ġprom": 4823, "Ġdiferente": 4824, "Ġsuperfici": 4825, "Ġconcur": 4826, "Ġhumano": 4827, "tx": 4828, "drÃ¡": 4829, "ĠvehÃŃculo": 4830, "Ġconced": 4831, "Ġdestacado": 4832, "ĠtÃ©rminos": 4833, "ĠevoluciÃ³n": 4834, "iana": 4835, "Ġperfil": 4836, "Ġpreguntas": 4837, "ĠespectÃ¡": 4838, "Ġpasada": 4839, "Ġasisten": 4840, "SS": 4841, "ÃŃda": 4842, "Ġapre": 4843, "pes": 4844, "Ġ2014": 4845, "ĠProfes": 4846, "ĠharÃ¡": 4847, "Ġfom": 4848, "enaje": 4849, "Ġamplia": 4850, "teros": 4851, "Ġrevista": 4852, "unya": 4853, "ĠActu": 4854, "Ġhabitual": 4855, "Ġelegir": 4856, "Ġetapa": 4857, "ĠPorque": 4858, "ĠElec": 4859, "Ġquedado": 4860, "Ġfer": 4861, "ablemente": 4862, "ong": 4863, "IER": 4864, "ĠHe": 4865, "ĠAlgun": 4866, "ĠprisiÃ³n": 4867, "Ġcuarto": 4868, "ĠSegu": 4869, "ciente": 4870, "ĠBe": 4871, "Ġjuz": 4872, "ĠdeberÃ¡": 4873, "ĠTh": 4874, "tigo": 4875, "Ġprotes": 4876, "Ġescribir": 4877, "ĠFiscal": 4878, "Ġconcierto": 4879, "ys": 4880, "Ġpilo": 4881, "Ġinstrum": 4882, "cimientos": 4883, "Ġcompor": 4884, "Ġpropiedad": 4885, "uegos": 4886, "Ġtratar": 4887, "ĠPaÃŃs": 4888, "Ġaper": 4889, "Ġdisponible": 4890, "Ġnavegando": 4891, "Ġdicha": 4892, "Ġhac": 4893, "ĠEusk": 4894, "ĠMic": 4895, "Ġdescan": 4896, "Ġ35": 4897, "Ġcertif": 4898, "ĠConstituciÃ³n": 4899, "ĠGa": 4900, "Ġexped": 4901, "BA": 4902, "onato": 4903, "Ġbuenas": 4904, "ĠTea": 4905, "Ġexterior": 4906, "ĠIglesia": 4907, "Ġreto": 4908, "Ġparticipantes": 4909, "Ġconseguido": 4910, "ĠÃ©ste": 4911, "Ġpersonajes": 4912, "ĠCre": 4913, "Ġlograr": 4914, "estiones": 4915, "ye": 4916, "Ġlejos": 4917, "cir": 4918, "ĠVilla": 4919, "Ġ90": 4920, "enciana": 4921, "mÃ¡n": 4922, "Ġescuela": 4923, "Ġigles": 4924, "ĠPen": 4925, "ĠPOR": 4926, "Ġurg": 4927, "Ġactualmente": 4928, "Ġhaga": 4929, "entales": 4930, "ĠProvin": 4931, "ĠLiga": 4932, "Ġimagin": 4933, "Ġalrededor": 4934, "Ġaus": 4935, "ebas": 4936, "ĠExtremadura": 4937, "ĠpublicaciÃ³n": 4938, "Ġfis": 4939, "ĠOrgan": 4940, "ĠresoluciÃ³n": 4941, "TU": 4942, "Ġasoci": 4943, "mites": 4944, "Ġherramientas": 4945, "Ġcualquiera": 4946, "Ġprior": 4947, "ĠCanarias": 4948, "Ġreform": 4949, "ĠOn": 4950, "cons": 4951, "Ġconex": 4952, "Ġhipo": 4953, "ificados": 4954, "ĠIr": 4955, "Ġigualdad": 4956, "Ġpac": 4957, "Ġincluyendo": 4958, "Ġbeneficios": 4959, "venciones": 4960, "Ġestructura": 4961, "Ġcolores": 4962, "king": 4963, "Ġ&": 4964, "Ġabrir": 4965, "Ġpresidenta": 4966, "Ġderiv": 4967, "alizados": 4968, "Ġdestaca": 4969, "Ġconsol": 4970, "Ġmur": 4971, "ĠMÃ©xico": 4972, "Ġdelito": 4973, "Ġniveles": 4974, "Ġtama": 4975, "ĠhistÃ³rico": 4976, "16": 4977, "ĠlÃŃneas": 4978, "Ġresponsables": 4979, "Ġsuficiente": 4980, "Ġcomida": 4981, "tienen": 4982, "Ġunidad": 4983, "ĠOrden": 4984, "Ġmadrile": 4985, "Ġradio": 4986, "ĠMad": 4987, "Ġdicen": 4988, "ĠCAS": 4989, "orÃŃas": 4990, "Ġrepresentantes": 4991, "ĠForm": 4992, "ĠCO": 4993, "Ġcampos": 4994, "Ġpese": 4995, "lada": 4996, "capacidad": 4997, "ĠFor": 4998, "Ġfotograf": 4999, "Ġdibu": 5000, "Ġimpar": 5001, "ĠdeclaraciÃ³n": 5002, "Ġcolectivo": 5003, "Ġprevisto": 5004, "iosa": 5005, "Ġcond": 5006, ",...": 5007, "Ġlarga": 5008, "itados": 5009, "amblea": 5010, "Ġrural": 5011, "Ġcompon": 5012, "Ġfacilitar": 5013, "Ġms": 5014, "ĠVis": 5015, "Ġsome": 5016, "ĠRafa": 5017, "ĠtÃ©cnica": 5018, "Ġparque": 5019, "land": 5020, "ĠasociaciÃ³n": 5021, "ĠConsul": 5022, "grama": 5023, "25": 5024, "Ġgarantizar": 5025, "Ġimpacto": 5026, "Ġgestion": 5027, "tima": 5028, "Ġalo": 5029, "tenciÃ³n": 5030, "blos": 5031, "pado": 5032, "Ġhayan": 5033, "jan": 5034, "Ġgastos": 5035, "Ġposibilidades": 5036, "ĠoperaciÃ³n": 5037, "Ġerr": 5038, "Ġileg": 5039, "Ġteniendo": 5040, "ĠTrump": 5041, "ĠinstalaciÃ³n": 5042, "Ġindependencia": 5043, "aman": 5044, "Si": 5045, "ĠRivera": 5046, "Ġace": 5047, "ĠTOD": 5048, "Ġprac": 5049, "Ġtienda": 5050, "erop": 5051, "Ġpase": 5052, "Ġrecorrido": 5053, "Ġmotor": 5054, "ĠrÃ©gimen": 5055, "obili": 5056, "Ġdando": 5057, "Ġapos": 5058, "tios": 5059, "Ġtamb": 5060, "Ġpronto": 5061, "Ġdificultad": 5062, "ĠAgu": 5063, "Ġacuer": 5064, "ĠmÃŃnimo": 5065, "aremos": 5066, "Ġcumple": 5067, "ĠSantander": 5068, "ĠdÃ³nde": 5069, "ĠestÃ¡s": 5070, "Ġaltura": 5071, "gados": 5072, "pal": 5073, "Ġemb": 5074, "Ġarran": 5075, "Ġdiversas": 5076, "Ġpend": 5077, "eÃ±a": 5078, "Ġdiversos": 5079, "Ġestuvo": 5080, "Ġlis": 5081, "Ġoptim": 5082, "ĠPARA": 5083, "ĠpromociÃ³n": 5084, "ĠCE": 5085, "cind": 5086, "enado": 5087, "ĠIndustr": 5088, "ĠatrÃ¡s": 5089, "Ġpacientes": 5090, "roso": 5091, "Ġherman": 5092, "Ġcoo": 5093, "Ġnovela": 5094, "ĠGre": 5095, "Ġbio": 5096, "ĠMancha": 5097, "ĠhabrÃŃa": 5098, "Ġconform": 5099, "mana": 5100, "Ġentradas": 5101, "Ġaccidente": 5102, "ĠdÃ³": 5103, "âĢĶ": 5104, "Ġbenefici": 5105, "oria": 5106, "Ġprocedimiento": 5107, "ienen": 5108, "Ġperdido": 5109, "Ġdetalles": 5110, "ĠHace": 5111, "demont": 5112, "ĠintenciÃ³n": 5113, "UL": 5114, "ÃŃtulos": 5115, "ĠFestival": 5116, "Ġinfantil": 5117, "Ġaplicaciones": 5118, "Ġreiv": 5119, "Ġdorm": 5120, "ĠDu": 5121, "Ġfinalmente": 5122, "Ġoportun": 5123, "Ġnovedades": 5124, "ĠFue": 5125, "ĠNuev": 5126, "ayo": 5127, ");": 5128, "Ġmusical": 5129, "Ġprocesos": 5130, "ĠEuropeo": 5131, "Ġataque": 5132, "ker": 5133, "tudes": 5134, "ĠLAS": 5135, "iber": 5136, "ĠSur": 5137, "trÃ¡s": 5138, "ĠcÃ³digo": 5139, "Ġjusticia": 5140, "____": 5141, "Ġreac": 5142, "bil": 5143, "Ġalguno": 5144, "Ġfamiliares": 5145, "ĠMientras": 5146, "aa": 5147, "ĠdiÃ¡": 5148, "Ġtengan": 5149, "Ġand": 5150, "Ġfirm": 5151, "Ġacre": 5152, "Ġerror": 5153, "Ġsoluciones": 5154, "eles": 5155, "ĠAlcal": 5156, "Ġempezar": 5157, "jera": 5158, "ĠtÃ©cnicas": 5159, "Ġcomprend": 5160, "Ġseg": 5161, "CÃ³mo": 5162, "ĠHasta": 5163, "ĠdemocrÃ¡": 5164, "Ġdesem": 5165, "Ġton": 5166, "ello": 5167, "Ġautoridades": 5168, "Ġconcepto": 5169, "amp": 5170, "uelas": 5171, "Ġacum": 5172, "ĠfrancÃ©s": 5173, "ĠmÃ¡xima": 5174, "ĠpolicÃŃa": 5175, "ipe": 5176, "bamos": 5177, "ples": 5178, "vocar": 5179, "right": 5180, "Ġmagn": 5181, "Ġrealiza": 5182, "Ġefici": 5183, "Ġteatro": 5184, "Ġcorrespondiente": 5185, "ĠGas": 5186, "quina": 5187, "Ġarm": 5188, "Ġdeuda": 5189, "Ġsentir": 5190, "Ġampli": 5191, "ĠcÃ¡r": 5192, "ĠAutÃ³n": 5193, "Ġnueve": 5194, "eciÃ³": 5195, "ĠcontinÃºa": 5196, "org": 5197, "Ġingresos": 5198, "ladolid": 5199, "ĠsecciÃ³n": 5200, "Ġaso": 5201, "Ġrespond": 5202, "ĠtendrÃ¡n": 5203, "ondo": 5204, "ĠÃģlv": 5205, "ielo": 5206, "ĠCatalunya": 5207, "keting": 5208, "Ġnecesaria": 5209, "Ġjudicial": 5210, "ĠadministraciÃ³n": 5211, "ĠRus": 5212, "timos": 5213, "ĠHotel": 5214, "Ġllevado": 5215, "Ġsectores": 5216, "Ġindependiente": 5217, "Ġhija": 5218, "Ġmulti": 5219, "ĠÃº": 5220, "eÃ±o": 5221, "Ġnormal": 5222, "Ġartista": 5223, "Ġdiscurso": 5224, "posiciones": 5225, "pÃºbl": 5226, "Ġconcejal": 5227, "An": 5228, "Ġbuenos": 5229, "ĠvisiÃ³n": 5230, "@@": 5231, "abora": 5232, "fico": 5233, "Ġnormas": 5234, "ĠPuigdemont": 5235, "Ġdecisiones": 5236, "html": 5237, "Ġinver": 5238, "Ġbur": 5239, "Ġempa": 5240, "Ġconvir": 5241, "Ġdudas": 5242, "ĠpelÃŃculas": 5243, "enar": 5244, "ĠJorge": 5245, "Ġaproxim": 5246, "Ġdecidido": 5247, "ĠCarmen": 5248, "anzas": 5249, "ĠIgu": 5250, "Ġentra": 5251, "aldad": 5252, "ĠUno": 5253, "ĠNorte": 5254, "Ġenti": 5255, "Ġrefug": 5256, "gus": 5257, "ĠValladolid": 5258, "hn": 5259, "cienda": 5260, "Ġprofund": 5261, "ENT": 5262, "Ġconstante": 5263, "60": 5264, "tol": 5265, "ĠBien": 5266, "ĠMariano": 5267, "xto": 5268, "Ġcomba": 5269, "ĠBueno": 5270, "ĠseÃ±ala": 5271, "ĠpodrÃŃan": 5272, "ĠHospital": 5273, "Ã¡nica": 5274, "gentina": 5275, "Ġfuego": 5276, "tÃŃ": 5277, "ĠMal": 5278, "Ġmiembro": 5279, "como": 5280, "Ġacabar": 5281, "icciÃ³n": 5282, "Ġpudo": 5283, "ĠRadio": 5284, "pen": 5285, "Ġgobier": 5286, "ĠFal": 5287, "Ġcoincid": 5288, "Ġresca": 5289, "tismo": 5290, "Ġrevis": 5291, "Ġcolo": 5292, "Ġbuscando": 5293, "Ġcumplimiento": 5294, "Ġambas": 5295, "cab": 5296, "ĠRES": 5297, "Ġprogres": 5298, "quilib": 5299, "ĠEspe": 5300, "Ġperiodista": 5301, "ledo": 5302, "ĠConsejerÃŃa": 5303, "Ġexac": 5304, "17": 5305, "Ġaprender": 5306, "Ġglobal": 5307, "Ġanunciado": 5308, "Ġlin": 5309, "ĠZapa": 5310, "Ġaquellas": 5311, "ĠPerson": 5312, "logÃŃa": 5313, "Ġcontempor": 5314, "Ġrit": 5315, "ĠSobre": 5316, "ecÃŃa": 5317, "ĠUnido": 5318, "publ": 5319, "ĠÃ¡n": 5320, "ĠgeneraciÃ³n": 5321, "ĠSecre": 5322, "ĠSebas": 5323, "DA": 5324, "Ġgenera": 5325, "ĠAlf": 5326, "Ġidentidad": 5327, "ĠrecuperaciÃ³n": 5328, "Ġgrave": 5329, "ĠItalia": 5330, "Ġsimplemente": 5331, "Ġcoches": 5332, "Ġdocumentos": 5333, "del": 5334, "idez": 5335, "Ġnombr": 5336, "Ġdec": 5337, "Ġrequier": 5338, "deras": 5339, "Ġdolor": 5340, "Ġregal": 5341, "Ġautores": 5342, "Ã¨": 5343, "Ġplaya": 5344, "pyright": 5345, "Ġaumentar": 5346, "Ġreconocimiento": 5347, "Ġrecuperar": 5348, "Ġnecesarios": 5349, "Ġsexual": 5350, "tÃºa": 5351, "tag": 5352, "ĠCÃ³rdoba": 5353, "Ġrelacionados": 5354, "Ġacad": 5355, "Ġorganizaciones": 5356, "Ġeditorial": 5357, "gran": 5358, "ĠClas": 5359, "Ġsalv": 5360, "Ġenlace": 5361, "Ġguard": 5362, "ĠChina": 5363, "Ġinmig": 5364, "Ġtren": 5365, "ĠSab": 5366, "ĠpodrÃ¡s": 5367, "Ġhabitaciones": 5368, "tadores": 5369, "Ġlengu": 5370, "jor": 5371, "ĠRub": 5372, "Ġabre": 5373, "Ġdistancia": 5374, "Ġconsejero": 5375, "Ġasistencia": 5376, "ĠMir": 5377, "ĠÃ¡r": 5378, "iores": 5379, "ĠHern": 5380, "Ġconfer": 5381, "vel": 5382, "Ġverde": 5383, "Ġmarav": 5384, "Ġcasas": 5385, "ĠReyes": 5386, "Ġcadena": 5387, "uos": 5388, "Ġcierre": 5389, "lle": 5390, "Ġllevan": 5391, "Ġorien": 5392, "ĠespaÃ±olas": 5393, "ĠMen": 5394, "Ġinfer": 5395, "Ġrecurso": 5396, "ag": 5397, "ĠMunicipal": 5398, "Ġkm": 5399, "Ġsuje": 5400, "Ġrequis": 5401, "inado": 5402, "ĠIng": 5403, "ĠprÃ¡cticas": 5404, "Ġredu": 5405, "cida": 5406, "ĠBanco": 5407, "Ġotor": 5408, "Ġresolver": 5409, "Ġliteratura": 5410, "ĠSh": 5411, "ull": 5412, "ĠCopa": 5413, "echas": 5414, "Ġvicepres": 5415, "Ġincid": 5416, "Ġcorto": 5417, "Ġadelan": 5418, "ĠEncu": 5419, "ĠcorrupciÃ³n": 5420, "ĠPued": 5421, "ĠTeatro": 5422, "pÃºblica": 5423, "ĠPuede": 5424, "ĠValle": 5425, "ĠAlberto": 5426, "ADOS": 5427, "Ġdiver": 5428, "Ġartistas": 5429, "Ġformar": 5430, "Ġsituado": 5431, "Ġlectura": 5432, "ĠSala": 5433, "Ġgastron": 5434, "Ġses": 5435, "quez": 5436, "Ġilustr": 5437, "ierno": 5438, "ance": 5439, "ĠAlicante": 5440, "Ġciencia": 5441, "ane": 5442, "Ġdispar": 5443, "tacular": 5444, "Ġquedan": 5445, "Ġcomenz": 5446, "ecuencias": 5447, "Ġconm": 5448, "Ġsola": 5449, "ĠLO": 5450, "Ġpueblos": 5451, "Ġmanda": 5452, "bur": 5453, "Ġsale": 5454, "ĠPin": 5455, "ĠSebasti": 5456, "uelos": 5457, "Ġesperar": 5458, "ĠDef": 5459, "ua": 5460, "Ġbases": 5461, "cepciÃ³n": 5462, "Ġsorpres": 5463, "Ġalimentos": 5464, "Ġfutbol": 5465, "):": 5466, "riba": 5467, "Ġdefender": 5468, "Ġhubo": 5469, "yecto": 5470, "ĠdejÃ³": 5471, "ftware": 5472, "timo": 5473, "tz": 5474, "Ġdefinitiva": 5475, "ivamente": 5476, "ĠAlonso": 5477, "Ġnormativa": 5478, "Ġplanes": 5479, "Ġgrado": 5480, "Ġmovil": 5481, "Ġfres": 5482, "Ġideal": 5483, "ĠbaÃ±o": 5484, "Ġgalle": 5485, "ĠHistoria": 5486, "Re": 5487, "Ġurban": 5488, "ĠrÃŃo": 5489, "Ġaumen": 5490, "Ġmensajes": 5491, "ĠSÃŃ": 5492, "Ġcreado": 5493, "Ġfemen": 5494, "24": 5495, "Ġescuchar": 5496, "Ġeventos": 5497, "III": 5498, "ĠMel": 5499, "Ġhuman": 5500, "ĠAlba": 5501, "Ġmunicipios": 5502, "Ġhomenaje": 5503, "premo": 5504, "ĠEscuela": 5505, "Ġdispone": 5506, "iero": 5507, "----": 5508, "tuvo": 5509, "bus": 5510, "itamos": 5511, "olina": 5512, "Ġviajes": 5513, "Ġpiezas": 5514, "MP": 5515, "ĠLond": 5516, "Ġgasto": 5517, "oras": 5518, "Ġanal": 5519, "Ġreciente": 5520, "arnos": 5521, "Ġsuma": 5522, "Ġinfraestruc": 5523, ".\"": 5524, "emia": 5525, "ack": 5526, "ĠNavidad": 5527, "Ġantigua": 5528, "ĠEconomÃŃa": 5529, "Ġsabemos": 5530, "Ġreca": 5531, "Ġestadounidense": 5532, "Ġaplic": 5533, "Ġadul": 5534, "Ġconsecuencias": 5535, "IF": 5536, "Ġpropias": 5537, "ĠcÃ¡rcel": 5538, "let": 5539, "ĠDo": 5540, "ĠcomenzÃ³": 5541, "Ġconsulta": 5542, "13": 5543, "Ġboca": 5544, "Ã³gica": 5545, "usa": 5546, "Ġenorme": 5547, "quÃŃa": 5548, "Ġafron": 5549, "ĠtamaÃ±o": 5550, "Ġbarr": 5551, "Ġbici": 5552, "Ã¡ticos": 5553, "Ġcorpor": 5554, "irÃ¡n": 5555, "Ġanuncios": 5556, "Ġjusto": 5557, "Ġoro": 5558, "Ġrecibe": 5559, "Ġpaz": 5560, "Ġ2007": 5561, "Ġcifra": 5562, "Ġsituaciones": 5563, "ĠdÃ³lares": 5564, "Ġantiguo": 5565, "ĠMujer": 5566, "pira": 5567, "Ġquerido": 5568, "ĠLocal": 5569, "Ġpobre": 5570, "ĠTal": 5571, "ĠFederaciÃ³n": 5572, "Ġdefien": 5573, "ĠParque": 5574, "Ġrem": 5575, "Ġprecisamente": 5576, "Ġguar": 5577, "Ġcuestiones": 5578, "ĠRamÃ³n": 5579, "iciales": 5580, "tidas": 5581, "vas": 5582, "San": 5583, "ET": 5584, "IR": 5585, "ĠdetrÃ¡s": 5586, "ĠrepresentaciÃ³n": 5587, "Ġadmi": 5588, "Ġaquella": 5589, "pÃ³n": 5590, "ters": 5591, "ĠParÃŃs": 5592, "Ġespeciales": 5593, "igna": 5594, "ĠgrÃ¡": 5595, "ĠCÃ¡diz": 5596, "Ġiglesia": 5597, "Ġcarretera": 5598, "Ġmadera": 5599, "Ġafirm": 5600, "ĠTodas": 5601, "Ġcamp": 5602, "Ġasunto": 5603, "Ġanuncio": 5604, "ĠSil": 5605, "ĠPortu": 5606, "Ġhistorias": 5607, "Ġpopulares": 5608, "Ġconviv": 5609, "ĠJul": 5610, "Ġextraordin": 5611, "Ġvivo": 5612, "Ġlider": 5613, "ĠCopyright": 5614, "!!!!": 5615, "ĠrealizaciÃ³n": 5616, "Ġfol": 5617, "Ġisla": 5618, "ĠSeÃ±": 5619, "Ġherramienta": 5620, "Ġfestival": 5621, "IDAD": 5622, "Ġcritic": 5623, "Ġjard": 5624, "Ġimposible": 5625, "Ġentend": 5626, "ulo": 5627, "Ġocul": 5628, "bajo": 5629, "gaciones": 5630, "Ġmotivos": 5631, "Ġsexo": 5632, "Ġdebemos": 5633, "Ġincremento": 5634, "ĠTom": 5635, "dac": 5636, "ÃŃp": 5637, "Ġexistencia": 5638, "Ġciclo": 5639, "Ġidi": 5640, "ĠYork": 5641, "Ġrestaur": 5642, "Ġprovoc": 5643, "Ġrecordar": 5644, "Ġsiquiera": 5645, "Me": 5646, "ĠpresiÃ³n": 5647, "Ġrazones": 5648, "berg": 5649, "legio": 5650, "ĠcomisiÃ³n": 5651, "ĠEd": 5652, "14": 5653, "ĠautÃ©n": 5654, "ferencia": 5655, "Ġbra": 5656, "Ġestan": 5657, "Ġcompues": 5658, "22": 5659, "Lo": 5660, "Ġsolicitud": 5661, "Ġlengua": 5662, "ĠAR": 5663, "Ġpag": 5664, "tillas": 5665, "ĠGab": 5666, "Ġabord": 5667, "nidad": 5668, "Ġvein": 5669, "ĠHacienda": 5670, "Ġeuropeo": 5671, "dÃŃa": 5672, "ĠLle": 5673, "Ġeuropeos": 5674, "prim": 5675, "gica": 5676, "Ġpsic": 5677, "ĠFelipe": 5678, "ĠmÃ©dico": 5679, "Ġmodalidad": 5680, "Ġescas": 5681, "Ġartes": 5682, "ĠtecnologÃŃas": 5683, "Ġrestaurante": 5684, "izada": 5685, "Ġvul": 5686, "Ġros": 5687, "uena": 5688, "cesiÃ³n": 5689, "Ġapartado": 5690, "ÃŃdeos": 5691, "Ġesco": 5692, "Ġza": 5693, "ĠcolecciÃ³n": 5694, "Ġras": 5695, "Ġcanal": 5696, "ĠSegun": 5697, "Ġvotar": 5698, "Ġbara": 5699, "luencia": 5700, "Ã¡is": 5701, "ĠTweet": 5702, "Ġcompetencia": 5703, "Ġrema": 5704, "Ġenfren": 5705, "ĠXI": 5706, "Ġregistro": 5707, "ĠVasco": 5708, "Ar": 5709, "ĠConf": 5710, "ĠSub": 5711, "uebles": 5712, "ĠSerg": 5713, "Ġabierta": 5714, "ĠAP": 5715, "ivas": 5716, "ĠIU": 5717, "avera": 5718, "igur": 5719, "Ġventas": 5720, "Ġjuven": 5721, "Ġproduce": 5722, "Quieres": 5723, "Ġfras": 5724, "Ġaudio": 5725, "ĠHola": 5726, "Ġasi": 5727, "ĠDerecho": 5728, "ilares": 5729, "Ġespectacular": 5730, "ĠXV": 5731, "Ġcel": 5732, "ICO": 5733, "Ġvive": 5734, "Ġcontam": 5735, "Ġrevistas": 5736, "Ġdur": 5737, "ĠEstud": 5738, "Ġnegocios": 5739, "Ġpublicar": 5740, "ĠrÃ¡pido": 5741, "Ġformato": 5742, "Las": 5743, "ĠEspa": 5744, "Ġprotagonista": 5745, "Ġsom": 5746, "ato": 5747, "leza": 5748, "ĠSupremo": 5749, "Ġredac": 5750, "Ġvoluntad": 5751, "tista": 5752, "Ġmercados": 5753, "Ġeuropea": 5754, "bia": 5755, "Ġimpu": 5756, "ĠER": 5757, "ĠaÃ±adido": 5758, "Ġindustrial": 5759, "Ġadjud": 5760, "Ġconfirm": 5761, "ĠseÃ±or": 5762, "iversario": 5763, "Ġofrecen": 5764, "ĠÃ¡reas": 5765, "uelva": 5766, "ibuy": 5767, "Ġimpuestos": 5768, "Ġtranquil": 5769, "Ġfuente": 5770, "Ã©mica": 5771, "Ġtelef": 5772, "icultura": 5773, "-,": 5774, "Ġpasos": 5775, "ÃŃsticos": 5776, "orra": 5777, "Ġescal": 5778, "Ġdistribu": 5779, "GA": 5780, "ĠcelebrarÃ¡": 5781, "Ġapertura": 5782, "ĠTener": 5783, "ĠÌ": 5784, "ĠCuen": 5785, "Ġescrita": 5786, "Ġcomerci": 5787, "Ġmostrar": 5788, "Ġpatrimonio": 5789, "Ġadv": 5790, "Ġvues": 5791, "Ġfen": 5792, "olv": 5793, "ĠPA": 5794, "ĠÃ©sta": 5795, "Ġaerop": 5796, "Ġcanciones": 5797, "Ã³rm": 5798, "ks": 5799, "ni": 5800, "Ġestim": 5801, "ĠGuerra": 5802, "Ġconflicto": 5803, "Ġllu": 5804, "ĠSO": 5805, "Ġafi": 5806, "Ġcosta": 5807, "cipl": 5808, "ĠVe": 5809, "Ġrecoge": 5810, "Ġcalor": 5811, "Ġcontinuar": 5812, "ĠcÃ¡mara": 5813, "IP": 5814, "Ġexplicar": 5815, "Ġdecor": 5816, "ĠCamp": 5817, "Ġaspecto": 5818, "Ġactor": 5819, "Ġgrab": 5820, "Ġcerc": 5821, "Ġâ": 5822, "Ġdefens": 5823, "ĠProtecciÃ³n": 5824, "Ġcolegio": 5825, "Ġentrenador": 5826, "ĠTi": 5827, "Ġpasando": 5828, "ore": 5829, "bla": 5830, "Ġpros": 5831, "crito": 5832, "Ġgratuita": 5833, "500": 5834, "itor": 5835, "Ġdich": 5836, "ĠAgr": 5837, "ĠciudadanÃŃa": 5838, "ĠLondres": 5839, "ĠAudiencia": 5840, "Ġminuto": 5841, "Ġutiliza": 5842, "Ġcenten": 5843, "Ġplaneta": 5844, "Ġruta": 5845, "Ġ%": 5846, "Ã©tico": 5847, "ĠhÃ¡": 5848, "Ġvisitantes": 5849, "Ġsubray": 5850, "ĠMod": 5851, "Ġorganizado": 5852, "Ġdiscu": 5853, "ĠÃ³": 5854, "ĠCÃ¡mara": 5855, "Ġinvestidura": 5856, "Ġfl": 5857, "Ġpuso": 5858, "Ġband": 5859, "Ġaloj": 5860, "Ã³mez": 5861, "ren": 5862, "Ġganado": 5863, "ive": 5864, "Ġcomercio": 5865, "ĠSU": 5866, "erva": 5867, "ADA": 5868, "Ġsuele": 5869, "Ġjornadas": 5870, "Ġpond": 5871, "sal": 5872, "Ġbomb": 5873, "Ġ500": 5874, "Ġropa": 5875, "'s": 5876, "Ġsilen": 5877, "Ġimplan": 5878, "ĠDig": 5879, "Ã©ndum": 5880, "ĠPuerto": 5881, "Ġplantilla": 5882, "zco": 5883, "ĠEEUU": 5884, "Ġhonor": 5885, "ĠTV": 5886, "Ġano": 5887, "ĠPalacio": 5888, "Ġpref": 5889, "Ġindica": 5890, "Ġparo": 5891, "sen": 5892, "Ã³sito": 5893, "Ġprofesores": 5894, "Ġencanta": 5895, "ĠCr": 5896, "Ġasesor": 5897, "Ġreb": 5898, "Ġcarga": 5899, "Ġindicado": 5900, "Ġescuch": 5901, "Ġritmo": 5902, "Ġintens": 5903, "rÃ¡s": 5904, "quia": 5905, "Ġlav": 5906, "ĠinnovaciÃ³n": 5907, "Ġconocimientos": 5908, "Ġcuentan": 5909, "ajas": 5910, "Ġdesac": 5911, "Ġencontrado": 5912, "Ġcubier": 5913, "Ġdisponibles": 5914, "ĠComunicaciÃ³n": 5915, "Ġvincul": 5916, "Ġindirec": 5917, "Ġjam": 5918, "Ġvaya": 5919, "amanca": 5920, "eca": 5921, "Ġestablecer": 5922, "Ġaplicar": 5923, "Ġcuad": 5924, "ĠhacÃŃa": 5925, "istema": 5926, "Ġcomienza": 5927, "Ġempleados": 5928, "Ġ300": 5929, "ĠMil": 5930, "ĠEmpleo": 5931, "GO": 5932, "ĠDiario": 5933, "ĠrÃ¡pida": 5934, "Ġsalvo": 5935, "99": 5936, "Ġnaturales": 5937, "Ġpersonaje": 5938, "Ġdigo": 5939, "Ġprivado": 5940, "Ġdiputados": 5941, "Ġnacionales": 5942, "Ġpeligro": 5943, "Ġsimilar": 5944, "Ġopiniones": 5945, "tiquetas": 5946, "ĠSomos": 5947, "ĠSemana": 5948, "Ġmane": 5949, "Ġdetenido": 5950, "Ġpresentes": 5951, "icina": 5952, "Ġcantante": 5953, "ini": 5954, "Ġreserva": 5955, "SA": 5956, "ciar": 5957, "Ġindic": 5958, "Ġconstruir": 5959, "ĠIsabel": 5960, "Ġsuperficie": 5961, "Ġdep": 5962, "ss": 5963, "Ġcontratos": 5964, "ĠHol": 5965, "Ġorganiza": 5966, "Ġrig": 5967, "Ġtrim": 5968, "ĠpeticiÃ³n": 5969, "Ġpacto": 5970, "ĠcaÃŃda": 5971, "Ġarreg": 5972, "ĠpasÃ³": 5973, "Ġhicieron": 5974, "Ġformulario": 5975, "Ġlimpieza": 5976, "ĠVox": 5977, "amento": 5978, "Ġduro": 5979, "Ġquedar": 5980, "ĠFiscalÃŃa": 5981, "rael": 5982, "Ġestablecido": 5983, "ĠMes": 5984, "Ġsolicitar": 5985, "Ġempresarial": 5986, "ĠtÃ©rmino": 5987, "ĠpÃ©rdida": 5988, "ĠNuestro": 5989, "tena": 5990, "ĠdiÃ¡logo": 5991, "ĠPi": 5992, "Ġhid": 5993, "ĠcÃ¡ncer": 5994, "undo": 5995, "Ġsorte": 5996, "Ġrum": 5997, "isos": 5998, "ĠNuestra": 5999, "Ġsocios": 6000, "Ġhablando": 6001, "Ġtuv": 6002, "cra": 6003, "ĠAll": 6004, "ĠvÃŃctima": 6005, "Ġprome": 6006, "Ġoperaciones": 6007, "Ġacredi": 6008, "Ġcristi": 6009, "ĠcompaÃ±ÃŃas": 6010, "Ġgana": 6011, "ĠPan": 6012, "ĠexpresiÃ³n": 6013, "Ġconvierte": 6014, "Ġbi": 6015, "https": 6016, "Ġasociaciones": 6017, "ÃįA": 6018, "Ġhabitantes": 6019, "tecas": 6020, "ĠAvis": 6021, "emas": 6022, "Ġvisitas": 6023, "ĠGÃ³mez": 6024, "ĠQueda": 6025, "ĠMÃºs": 6026, "Ã³gico": 6027, "Ġaguas": 6028, "rir": 6029, "ombre": 6030, "ĠestÃ©n": 6031, "Ġaun": 6032, "uf": 6033, "ĠAmÃ©rica": 6034, "Ġtasa": 6035, "pp": 6036, "Ġactuales": 6037, "Ġalmacen": 6038, "dis": 6039, "Ġcomenzar": 6040, "Ġclara": 6041, "Ġleyes": 6042, "Ġhumor": 6043, "Ġmig": 6044, "Ġplantas": 6045, "izaje": 6046, "ude": 6047, "ĠSam": 6048, "Ġprivacidad": 6049, "Ġaprobado": 6050, "CIONES": 6051, "ĠEuskadi": 6052, "ĠreferÃ©ndum": 6053, "Ġdispositivo": 6054, "Ġespecie": 6055, "Ġnombres": 6056, "Ġarriba": 6057, "tieron": 6058, "ĠValenciana": 6059, "Ã±ar": 6060, "tistas": 6061, "Ġpublicada": 6062, "Ġedificios": 6063, "centa": 6064, "ĠSebastiÃ¡n": 6065, "grÃ¡fica": 6066, "ang": 6067, "Ġcuidado": 6068, "ĠBor": 6069, "Ġacepta": 6070, "Ġexperiencias": 6071, "Ġterreno": 6072, "ota": 6073, "ĠespectÃ¡culo": 6074, "Ġdirigido": 6075, "Ġocurre": 6076, "ĠcanciÃ³n": 6077, "Ã©u": 6078, "ty": 6079, "Ġemerg": 6080, "indo": 6081, "ĠtenÃŃan": 6082, "ĠJer": 6083, "ĠAmbiente": 6084, "lectual": 6085, "Ġsuperar": 6086, "egas": 6087, "Ġdecre": 6088, "Ġ32": 6089, "70": 6090, "ĠllevÃ³": 6091, "Ġliter": 6092, "Ġcarr": 6093, "Ġrueda": 6094, "ĠComercio": 6095, "Ġhacerse": 6096, "Ġenter": 6097, "ĠconexiÃ³n": 6098, "Ġperfecto": 6099, "Ġintercam": 6100, "ld": 6101, "Ã§a": 6102, "porta": 6103, "ĠBale": 6104, "Ġilus": 6105, "Ġ--": 6106, "up": 6107, "Ġsel": 6108, "ĠcondiciÃ³n": 6109, "ĠETA": 6110, "ĠgustarÃŃa": 6111, "ĠOc": 6112, "Ġparticipa": 6113, "Ġescolar": 6114, "Ġtrabaja": 6115, "IZ": 6116, "ĠEnrique": 6117, "Ġalternativa": 6118, "ĠSuperior": 6119, "ĠdocumentaciÃ³n": 6120, "endario": 6121, "Ġreconoce": 6122, "ĠAS": 6123, "Ġveo": 6124, "ĠUP": 6125, "ĠAdministra": 6126, "Ġenviar": 6127, "Ġparticulares": 6128, "Ġeliminar": 6129, "ĠCosta": 6130, "Ġtantos": 6131, "Ġrelev": 6132, "ĠSierra": 6133, "ham": 6134, "ĠFuer": 6135, "Ġdesen": 6136, "istido": 6137, "ĠsÃŃn": 6138, "Ġdro": 6139, "Ġmicro": 6140, "Ġcontes": 6141, "Ġlectores": 6142, "Ġabra": 6143, "Ġpreci": 6144, "ĠCanaria": 6145, "Ġdiputado": 6146, "Ġretras": 6147, "venir": 6148, "untamientos": 6149, "Ġpermiten": 6150, "ĠquedÃ³": 6151, "Ġinvestigadores": 6152, "ĠMAR": 6153, "21": 6154, "ĠvÃŃdeos": 6155, "aliciÃ³n": 6156, "Ġconvenio": 6157, "Ġoportunidades": 6158, "Ġhuelga": 6159, "Ġpropone": 6160, "teria": 6161, "Ġdispuesto": 6162, "mor": 6163, "ucciÃ³n": 6164, "ĠMundo": 6165, "Ġrecuerdo": 6166, "habil": 6167, "ĠPresidente": 6168, "ĠDomin": 6169, "Ġamplio": 6170, "ĠsueÃ±o": 6171, "Ġpractic": 6172, "ĠAnte": 6173, "jus": 6174, "ĠLog": 6175, "ĠAD": 6176, "Ġtranspar": 6177, "Ġconvoc": 6178, "ĠProvincial": 6179, "TOS": 6180, "Ġvender": 6181, "ĠDiego": 6182, "Ġvuelto": 6183, "80": 6184, "Ġplena": 6185, "Ġcubr": 6186, "lesc": 6187, "Ġ45": 6188, "pla": 6189, "ĠejecuciÃ³n": 6190, "ĠFe": 6191, "ĠJohn": 6192, "Ġlegis": 6193, "Ġconsta": 6194, "ĠRober": 6195, "ĠRepÃºblica": 6196, "frica": 6197, "ĠinstituciÃ³n": 6198, "icano": 6199, "ÃŃri": 6200, "ĠduraciÃ³n": 6201, "RAN": 6202, "Ġrecordado": 6203, "ĠGer": 6204, "ĠÌģ": 6205, "ĠVicente": 6206, "Ġperspec": 6207, "tizaciÃ³n": 6208, "Ġelegido": 6209, "ĠPrograma": 6210, "usos": 6211, "ĠFlor": 6212, "ĠInterior": 6213, "mÃ¡ticas": 6214, "Ġequilib": 6215, "Ġrese": 6216, "Ġdebajo": 6217, "Ġacuerdos": 6218, "Ġconoce": 6219, "Ġarmas": 6220, "gamos": 6221, "sar": 6222, "ĠÃļ": 6223, "Ġaniversario": 6224, "ificaciones": 6225, "ĠAma": 6226, "gs": 6227, "mes": 6228, "Ġdelan": 6229, "ĠniÃ±a": 6230, "ogra": 6231, "23": 6232, "ionales": 6233, "olÃ³gicos": 6234, "uces": 6235, "Ġculturales": 6236, "Ġcoti": 6237, "Ġporcenta": 6238, "ĠquerÃŃa": 6239, "ĠdÃ©cadas": 6240, "ĠSolo": 6241, "ĠTrabajo": 6242, "Ġimper": 6243, "Ġclim": 6244, "Ġimprescind": 6245, "quen": 6246, "Ġrevel": 6247, "Ġproducido": 6248, "reto": 6249, "ĠâĤ¬": 6250, "Ġsangre": 6251, "letas": 6252, "teo": 6253, "Ġcargos": 6254, "Ġnotificaciones": 6255, "ĠPER": 6256, "ĠmÃºlti": 6257, "Ġcau": 6258, "Ġlistas": 6259, "Ġpropietario": 6260, "cionamiento": 6261, "Ġsuf": 6262, "Ġperfectamente": 6263, "ĠreducciÃ³n": 6264, "ky": 6265, "ĠtrÃ¡": 6266, "Ġrefor": 6267, "Ġves": 6268, "lica": 6269, "ĠBre": 6270, "Ġincu": 6271, "Ġapunta": 6272, "Ã¡mica": 6273, "ĠContac": 6274, "Ġcelebrar": 6275, "ry": 6276, "Ġprotagonistas": 6277, "ash": 6278, "Ġprove": 6279, "dicionado": 6280, "Ġflor": 6281, "iri": 6282, "ĠToledo": 6283, "pens": 6284, "Ġescritor": 6285, "Ġaleg": 6286, "ĠJim": 6287, "Ġexam": 6288, "gano": 6289, "Ġmanifies": 6290, "Ġimporte": 6291, "Ġmam": 6292, "Ġsaben": 6293, "Ġcabal": 6294, "Ġsirve": 6295, "Ġrequer": 6296, "ĠtradiciÃ³n": 6297, "Ġaceite": 6298, "rano": 6299, "empl": 6300, "Ġcandidatos": 6301, "ĠIII": 6302, "Ġhar": 6303, "grÃŃa": 6304, "terna": 6305, "26": 6306, "Ġcompletamente": 6307, "Ġjuntos": 6308, "Ġcelebrado": 6309, "Ġinven": 6310, "inaria": 6311, "Ġpresupuestos": 6312, "ĠCristina": 6313, "ueve": 6314, "Ġmenti": 6315, "ĠeconÃ³micos": 6316, "ezuela": 6317, "alia": 6318, "Ġsurg": 6319, "Ġtiendas": 6320, "Ġproducir": 6321, ":'": 6322, "Ġelector": 6323, "Ġdismin": 6324, "ĠTenerife": 6325, "ĠTierra": 6326, "ĠRusia": 6327, "Ġenf": 6328, "Ġestad": 6329, "Ġtej": 6330, "ÃŃsima": 6331, "Ġportal": 6332, "tellano": 6333, "IOS": 6334, "Ġdue": 6335, "45": 6336, "Ġgusto": 6337, "...)": 6338, "ĠpequeÃ±as": 6339, "Ġexcelente": 6340, "lÃ©tico": 6341, "grÃ¡fico": 6342, "Ġparecer": 6343, "Ġsober": 6344, "hu": 6345, "Ġdelitos": 6346, "Ġmecan": 6347, "Ġdesplaz": 6348, "Ġconciertos": 6349, "genda": 6350, "Ġdesarrollado": 6351, "ĠAsamblea": 6352, "Ġepis": 6353, "RES": 6354, "Ġmostrado": 6355, "Ġlidera": 6356, "Ġprestig": 6357, "ĠRafael": 6358, "ĠSanidad": 6359, "Ġcatalana": 6360, "Ġestudiar": 6361, "ĠUsu": 6362, "tella": 6363, "dr": 6364, "ĠestaciÃ³n": 6365, "Ġpartida": 6366, "zz": 6367, "enses": 6368, "ĠArgentina": 6369, "Ġescena": 6370, "Ġescon": 6371, "ALES": 6372, "oya": 6373, "ĠCastell": 6374, "Ġinvers": 6375, "Ġiniciar": 6376, "Ġran": 6377, "ĠAra": 6378, "Com": 6379, "Ġperiodistas": 6380, "ĠIgna": 6381, "icales": 6382, "Ġbru": 6383, "ĠTÃ©cnico": 6384, "ĠdaÃ±os": 6385, "Ġcontribu": 6386, "Ġdedicado": 6387, "Ġmanifiesta": 6388, "Ġlegislatura": 6389, "Ġcriterios": 6390, "Ġcontexto": 6391, "Â¡Â¡": 6392, "ĠPortugal": 6393, "Ġclima": 6394, "Ġrequisitos": 6395, "Ġpiso": 6396, "est": 6397, "Ġ+]": 6398, "ĠAndr": 6399, "Ġcompetencias": 6400, "Ġtarjeta": 6401, "Ġprol": 6402, "Ġllegan": 6403, "ĠGe": 6404, "Ġdesper": 6405, "ĠInvestigaciÃ³n": 6406, "Ġrefiere": 6407, "Ġcabe": 6408, "Ġtrayec": 6409, "fi": 6410, "Ġinstan": 6411, "Ġvolumen": 6412, "ĠPÃºblica": 6413, "Ġbil": 6414, "Ġposterior": 6415, "cultad": 6416, "Ġic": 6417, "izaciones": 6418, "Ġanimal": 6419, "Ġdirectora": 6420, "Ġtendencia": 6421, "Ã©rcito": 6422, "Ġabsoluta": 6423, "Ġgoles": 6424, "Ġsegundos": 6425, "Ġorgul": 6426, "ĠMÃºsica": 6427, "Ġtransform": 6428, "ĠcrÃ©dito": 6429, "Ġestrellas": 6430, "ĠprÃ¡cticamente": 6431, "Ġestrella": 6432, "ĠOficial": 6433, "ĠSte": 6434, "viamente": 6435, "tn": 6436, "ĠDem": 6437, "Ġordenador": 6438, "rup": 6439, "Ġfeliz": 6440, "tano": 6441, "ĠlÃŃderes": 6442, "Ġapell": 6443, "Ġcitada": 6444, "Ġdeseo": 6445, "Ġexpul": 6446, "rito": 6447, "Ġfunciona": 6448, "mm": 6449, "ĠdÃ©cada": 6450, "ĠcompeticiÃ³n": 6451, "ĠNoticias": 6452, "Ġmargen": 6453, "Ġreconocer": 6454, "Ġdescubrir": 6455, "Ġempieza": 6456, "Ġsubida": 6457, "ĠaÃ±adir": 6458, "icen": 6459, "Ġafectados": 6460, "Ġocup": 6461, "tarÃ¡n": 6462, "Ġunidades": 6463, "ĠTODOS": 6464, "ĠAcad": 6465, "Ġtelevis": 6466, "venida": 6467, "ĠArte": 6468, "90": 6469, "Ġacumul": 6470, "Ġproduci": 6471, "Ġrelacionadas": 6472, "ĠfotografÃŃa": 6473, "cÃ³": 6474, "Ġbancos": 6475, "Ġenfermedades": 6476, "Ġcatalanes": 6477, "ĠRuiz": 6478, "ĠCentral": 6479, "ĠIgnacio": 6480, "Ġcercan": 6481, "Ġsencillo": 6482, "olucion": 6483, "Ġtales": 6484, "Ġmeta": 6485, "ĠfÃŃsica": 6486, "Ġcomienzo": 6487, "ĠCreo": 6488, "nar": 6489, "ĠPh": 6490, "ĠprogramaciÃ³n": 6491, "Ġrival": 6492, "ĠFr": 6493, "\":": 6494, "Ġdarle": 6495, "Ġpocas": 6496, "Ġfechas": 6497, "Ġsitios": 6498, "acion": 6499, "Ġbanco": 6500, "mÃ¡tico": 6501, "Ġdestacar": 6502, "Ġinfl": 6503, "ĠvÃ¡l": 6504, "Ġtana": 6505, "Ġcorte": 6506, "IV": 6507, "tones": 6508, "SE": 6509, "Ġsocio": 6510, "ĠdeberÃ¡n": 6511, "Ġencontramos": 6512, "ĠFeria": 6513, "Ġreconocido": 6514, "Le": 6515, "Ġtalleres": 6516, "use": 6517, "Ġhumana": 6518, "Ġcausas": 6519, "ate": 6520, "bos": 6521, "ĠcontrataciÃ³n": 6522, "Ġdesemp": 6523, "Ġalco": 6524, "ĠtÃŃtulos": 6525, "ĠToda": 6526, "TM": 6527, "NV": 6528, "28": 6529, "ĠSanto": 6530, "Ġerrores": 6531, "Ġanual": 6532, "omento": 6533, "Ġdocumental": 6534, "Ġvoc": 6535, "Que": 6536, "ĠpermitirÃ¡": 6537, "tÃº": 6538, "Ġsoftware": 6539, "Ġhoteles": 6540, "Ġriesgos": 6541, "Ġalcaldesa": 6542, "ĠRib": 6543, "Ġactitud": 6544, "Ġech": 6545, "GU": 6546, "Ġameric": 6547, "Ġdiscapacidad": 6548, "ĠLor": 6549, "Ġrobo": 6550, "Ġprivada": 6551, "Ġpensiones": 6552, "Ġafecta": 6553, "sin": 6554, "Ġpista": 6555, "Ġestablece": 6556, "Ġinaugur": 6557, "Ġpropon": 6558, "ĠelecciÃ³n": 6559, "ÃŃritu": 6560, "ĠprÃ³ximas": 6561, "Ġrendimiento": 6562, "Ġcaer": 6563, "Ġequip": 6564, "ĠMA": 6565, "caso": 6566, "36": 6567, "Ġiniciativas": 6568, "ĠGuadal": 6569, "tÃŃas": 6570, "rasil": 6571, "cales": 6572, "Ġsosp": 6573, ",'": 6574, "ĠhistÃ³rica": 6575, "ley": 6576, "Ġpermanente": 6577, "ĠMag": 6578, "andro": 6579, "ĠsensaciÃ³n": 6580, "enciales": 6581, "Ġlicencia": 6582, "Ġbelleza": 6583, "Ġlech": 6584, "uza": 6585, "**": 6586, "Ġefectu": 6587, "Madrid": 6588, "Ġinsul": 6589, "Ġadolesc": 6590, "Ġafirmado": 6591, "Ġsindicatos": 6592, "teral": 6593, "Ġcifras": 6594, "Ġcomprobar": 6595, "Ã©ndo": 6596, "osotros": 6597, "Ġconcej": 6598, "int": 6599, "Ġdecidir": 6600, "Ġventajas": 6601, "Ġexperim": 6602, "Ġtorn": 6603, "ĠCorpor": 6604, "Ġflu": 6605, "Ġnumerosos": 6606, "cete": 6607, "Ġluch": 6608, "ĠSergio": 6609, "ĠdecÃŃa": 6610, "ideos": 6611, "Ġcapaces": 6612, "Ġabajo": 6613, "ĠAviso": 6614, "ĠSÃ³lo": 6615, "ĠLav": 6616, "Ãºmenes": 6617, "ĠCD": 6618, "Ġlaborales": 6619, "ICI": 6620, "Ġhacemos": 6621, "ĠDepartamento": 6622, "Ġprincipalmente": 6623, "ĠPrincip": 6624, "ienta": 6625, "Ġpec": 6626, "Ġactriz": 6627, "entarios": 6628, "Ġconocida": 6629, "Ġdispositivos": 6630, "clo": 6631, "ĠCiencias": 6632, "Ġgalard": 6633, "ĠColegio": 6634, "Ġfactores": 6635, "dia": 6636, "Ġpuerto": 6637, "ĠJuven": 6638, "Ġconsultar": 6639, "ĠArt": 6640, "Ġconvertirse": 6641, "iller": 6642, "Ġsubir": 6643, "ĠfenÃ³m": 6644, "Ġmovimientos": 6645, "ĠOtro": 6646, "ÃŃmp": 6647, "ĠAntes": 6648, "Ġincluido": 6649, "Ġevidente": 6650, "ĠMac": 6651, "hol": 6652, "Ġresponder": 6653, "esos": 6654, "Ġpublica": 6655, "Ġpresent": 6656, "Ġincendio": 6657, "Ġnutr": 6658, "Ġinversiones": 6659, "ĠCultural": 6660, "ĠLin": 6661, "ĠBern": 6662, "ĠniÃ±as": 6663, "Ġorganismo": 6664, "Ġcarne": 6665, "Ġdivid": 6666, "Ġclic": 6667, "Ġvulner": 6668, "?.": 6669, "cionalidad": 6670, "Ġinferior": 6671, "ĠPad": 6672, "ĠVa": 6673, "ĠpresentÃ³": 6674, "ĠVillar": 6675, "ĠDecreto": 6676, "Ġadver": 6677, "ĠDirector": 6678, "dice": 6679, "todos": 6680, "ĠraÃŃ": 6681, "Ġtemporal": 6682, "Ġproto": 6683, "ĠmÃ³viles": 6684, "Ġenca": 6685, "Ġcandidatura": 6686, "Ġdesf": 6687, "Ġdescanso": 6688, "Ġmuertos": 6689, "Ġacos": 6690, "ĠCamino": 6691, "Ġparticipado": 6692, "Ġ196": 6693, "Ġelemento": 6694, "OC": 6695, "Ġtrimestre": 6696, "bran": 6697, "Ġlogrado": 6698, "Ġacercar": 6699, "Ġhermos": 6700, "35": 6701, "ĠðŁ": 6702, "Ġpiloto": 6703, "Ġbreve": 6704, "Ġchica": 6705, "Ġsorpresa": 6706, "ĠsalÃ³n": 6707, "Ġanalizar": 6708, "Ġsuelen": 6709, "ĠAtlÃ©tico": 6710, "Ġespero": 6711, "ĠFranco": 6712, "ĠSalv": 6713, "ĠinstantÃ¡n": 6714, "Ġcircunstancias": 6715, "Ġregular": 6716, "Ġgar": 6717, "Ġseguidores": 6718, "ĠAB": 6719, "ĠfotografÃŃas": 6720, "Ġemi": 6721, "Ġejempl": 6722, "Ã³mico": 6723, "ĠnegociaciÃ³n": 6724, "mÃ¡s": 6725, "TRA": 6726, "amor": 6727, "ĠMuy": 6728, "ean": 6729, "Ġcierta": 6730, "Ã³logo": 6731, "Ġnecesarias": 6732, "ilio": 6733, "ĠestratÃ©": 6734, "ĠSalamanca": 6735, "ĠCampo": 6736, "ĠLE": 6737, "ĠVenta": 6738, "ĠJorn": 6739, "Ġempresarios": 6740, "ĠComitÃ©": 6741, "Ġcuidad": 6742, "rada": 6743, "presiÃ³n": 6744, "Ġfactura": 6745, "Ġbeneficio": 6746, "Ġrecientemente": 6747, "ĠÃºnicamente": 6748, "ĠPrimera": 6749, "ĠCe": 6750, "ĠSiempre": 6751, "Ġgig": 6752, "ĠÃºtil": 6753, "Ġcens": 6754, "Ġmodern": 6755, "Ã©nez": 6756, "iosos": 6757, "Ġthe": 6758, "ucle": 6759, "ĠEse": 6760, "Ġexperimen": 6761, "Ġaprue": 6762, "comun": 6763, "FE": 6764, "ĠHor": 6765, "icadas": 6766, ".[": 6767, "ader": 6768, "Ġimped": 6769, "tori": 6770, "ĠaÃ±ade": 6771, "Ġrequiere": 6772, "Ġintento": 6773, "Ġoficiales": 6774, "cib": 6775, "ĠVenezuela": 6776, "Ġmotiv": 6777, "Ġgama": 6778, "Ãļ": 6779, "ĠBlog": 6780, "Ġmaqu": 6781, "Ġperiodismo": 6782, "letÃŃn": 6783, "Ġmuestran": 6784, "Ġcerrar": 6785, "Ġpermiso": 6786, "Ġcaja": 6787, "Ġvigil": 6788, "real": 6789, "iguraciÃ³n": 6790, "Ġperf": 6791, "Ġ36": 6792, "Ġmuerto": 6793, "Ġepisod": 6794, "ĠRosa": 6795, "Ġaeropuerto": 6796, "ĠSegunda": 6797, "ĠVirgen": 6798, "Ġactuar": 6799, "ĠTres": 6800, "irmar": 6801, "ĠFormaciÃ³n": 6802, "ĠArch": 6803, "Ġdetalle": 6804, "PP": 6805, "uma": 6806, "ĠRon": 6807, "Ġolvidar": 6808, "ERA": 6809, "ĠMuchas": 6810, "Ġge": 6811, "ijo": 6812, "Ġaclar": 6813, "ĠForo": 6814, "Ġsilencio": 6815, "Ġinicial": 6816, "formas": 6817, "ĠAlgunos": 6818, "Ġzapa": 6819, "Ġcolectivos": 6820, "ĠCA": 6821, "ĠFoto": 6822, "Ġproteger": 6823, "Ġfranqu": 6824, "ANT": 6825, "ĠBiblioteca": 6826, "Ġdesea": 6827, "ĠAlmerÃŃa": 6828, "Ġhel": 6829, "Ġhorario": 6830, "han": 6831, "ĠVald": 6832, "ĠEmpresa": 6833, "Ġcho": 6834, "Ġconsigue": 6835, "ienes": 6836, "ĠSociales": 6837, "li": 6838, "uselas": 6839, "itÃ³": 6840, "ĠplÃ¡s": 6841, "Ġatender": 6842, "ĠhÃ¡bi": 6843, "ĠbotÃ³n": 6844, "ĠprÃ©s": 6845, "ĠOtra": 6846, "estas": 6847, "Ġpreten": 6848, "ĠFil": 6849, "iÃ±o": 6850, "Ġrojo": 6851, "ĠTiene": 6852, "cribir": 6853, "Ġalcance": 6854, "oder": 6855, "adajo": 6856, "misiÃ³n": 6857, "Ġasesina": 6858, "allorca": 6859, "Ġ2020": 6860, "Ġpenal": 6861, "Ġsecund": 6862, "ĠelaboraciÃ³n": 6863, "Ġcoloc": 6864, "Ġnecesitan": 6865, "icin": 6866, "Ġfemin": 6867, "Ġgenerar": 6868, "ĠAlfonso": 6869, "Ġoficina": 6870, "Ġ2006": 6871, "ĠÃ¡rbol": 6872, "adajoz": 6873, "Ġdefiend": 6874, "Ġdefiende": 6875, "ĠasegurÃ³": 6876, "Ġexige": 6877, "ĠIncluye": 6878, "Ã³rmula": 6879, "inter": 6880, "Ġflo": 6881, "Ã±ez": 6882, "oni": 6883, "Ġaconte": 6884, "Ġdesped": 6885, "ĠAir": 6886, "Ġexis": 6887, "Ġconsiderado": 6888, "uraciÃ³n": 6889, "Ġrealizada": 6890, "Ġsuspend": 6891, "ĠQuer": 6892, "Ġolvid": 6893, "ĠDatos": 6894, "Ġdescenso": 6895, "Ġnumerosas": 6896, "Ġconstruc": 6897, "itarias": 6898, "cula": 6899, "ĠReina": 6900, "Ġpele": 6901, "ĠVol": 6902, "ĠconcentraciÃ³n": 6903, "Ġanaliz": 6904, "Ġpotencial": 6905, "Ġmani": 6906, "Ġmili": 6907, "Cas": 6908, "ĠalemÃ¡n": 6909, "Ġanuncia": 6910, "Ġtareas": 6911, "Des": 6912, "Ġgobiernos": 6913, "Ġpositivo": 6914, "Ġvio": 6915, "Ġamenaza": 6916, "Bar": 6917, "Ġforo": 6918, "ĠAutÃ³noma": 6919, "Ġhermano": 6920, "ĠNatural": 6921, "ĠcrÃŃtica": 6922, "Ġembara": 6923, "ĠAlej": 6924, "Ġeuropeas": 6925, "Ġdesactiv": 6926, "Ġgala": 6927, "lav": 6928, "trato": 6929, "ĠCin": 6930, "ĠInform": 6931, "utu": 6932, "Ġmera": 6933, "Ġfuertes": 6934, "Ġreper": 6935, "ĠJulio": 6936, "Ġdificultades": 6937, "Ġviajar": 6938, "ĠPilar": 6939, "Ġporcentaje": 6940, "Ġenga": 6941, "Ġterminar": 6942, "Ġape": 6943, "Ġferia": 6944, "zon": 6945, "ĠGestiÃ³n": 6946, "ĠcoaliciÃ³n": 6947, "Ġacusado": 6948, "Ġesperanza": 6949, "Ġatre": 6950, "RECH": 6951, "Ġgira": 6952, "ĠUnidas": 6953, "ĠilusiÃ³n": 6954, "Ġsostenible": 6955, "Ġprovis": 6956, "Ġcartel": 6957, "ĠDiv": 6958, "Ġconclu": 6959, "roÃ±o": 6960, "ĠguÃŃa": 6961, "Ġreformas": 6962, "Ġconsejos": 6963, "olÃ³gicas": 6964, "Ġvariedad": 6965, "ĠgarantÃŃa": 6966, "Ġpotencia": 6967, "Ġmach": 6968, "ĠDerechos": 6969, "Ġcostes": 6970, "Ġsuces": 6971, "Ã©ndose": 6972, "Ġtuvieron": 6973, "Ġforman": 6974, "Ġdirigida": 6975, "MO": 6976, "Ġpronunci": 6977, "Ġingenier": 6978, "gues": 6979, "ĠRoc": 6980, "Ġexpec": 6981, "Ġasturi": 6982, "ĠexplicÃ³": 6983, "ĠHan": 6984, "ĠCoruÃ±a": 6985, "ionar": 6986, "camiento": 6987, "To": 6988, "Ġbatalla": 6989, "ĠCampe": 6990, "ume": 6991, "ĠPresu": 6992, "Ġconsiste": 6993, "Ġocurrido": 6994, "JA": 6995, "traciones": 6996, "ĠSim": 6997, "ĠBruselas": 6998, "ĠBrasil": 6999, "Ġdesconoci": 7000, "ĠEX": 7001, "Ġenfrentar": 7002, "Ġrep": 7003, "Ġcomportamiento": 7004, "Ġfortal": 7005, "Ġtrayectoria": 7006, "lecciÃ³n": 7007, "inario": 7008, "ung": 7009, "Ġprobar": 7010, "Ġterra": 7011, "ĠTorres": 7012, "ulos": 7013, "Ġvale": 7014, "Ġdiferencias": 7015, "ĠAcu": 7016, "arez": 7017, "tara": 7018, "ĠdecidiÃ³": 7019, "Ġesperando": 7020, "adero": 7021, "idaridad": 7022, "Ġger": 7023, "Ġdr": 7024, "Ġinvierno": 7025, "amentos": 7026, "ĠreseÃ±as": 7027, "ĠGol": 7028, "Ġarras": 7029, "ave": 7030, "ĠDERECH": 7031, "ĠBea": 7032, "Ġveg": 7033, "ĠcrÃŃticas": 7034, "Ġuniversidad": 7035, "ii": 7036, "Ġcamis": 7037, "Ġmovilidad": 7038, "truy": 7039, "Ġpeligros": 7040, "ms": 7041, "cada": 7042, "Ġpresentan": 7043, "Ġobjetos": 7044, "Ġponen": 7045, "ĠPalma": 7046, "Ġreclama": 7047, "Ġformado": 7048, "Ġofrecemos": 7049, "viedo": 7050, "ĠDiseÃ±o": 7051, "trÃ³": 7052, "Ġviento": 7053, "ĠBos": 7054, "Ġviven": 7055, "ifer": 7056, "ĠMoreno": 7057, "Ġvalenci": 7058, "ĠESPA": 7059, "ĠprevenciÃ³n": 7060, "ĠmillÃ³n": 7061, "ĠRÃŃo": 7062, "Ġenem": 7063, "Ġapoyar": 7064, "Ġinmobili": 7065, "Ġdifund": 7066, "Ġtriunfo": 7067, "ĠBlanco": 7068, "ĠevaluaciÃ³n": 7069, "itaciones": 7070, "Ġincon": 7071, "ĠEsp": 7072, "zando": 7073, "Ġhal": 7074, "ĠArtes": 7075, "Ġtribu": 7076, "Ġgrav": 7077, "Ġestablecimiento": 7078, "ceres": 7079, "Ġvidas": 7080, "Ġmonum": 7081, "ĠBarÃ§a": 7082, "hor": 7083, "ĠcÃ¡l": 7084, "ĠubicaciÃ³n": 7085, "ENTE": 7086, "ĠLi": 7087, "UD": 7088, "tive": 7089, "ĠMayor": 7090, "Ġilum": 7091, "cino": 7092, "Ġportu": 7093, "onte": 7094, "ĠlÃŃmite": 7095, "Ġcorrespondientes": 7096, "Ġpermitido": 7097, "ĠBu": 7098, "ĠCs": 7099, "ĠJordi": 7100, "Ġaspir": 7101, "Ġvar": 7102, "rÃ¡neo": 7103, "Ġaprendizaje": 7104, "idaciÃ³n": 7105, "Ġcastellano": 7106, "ĠOtros": 7107, "ĠeconÃ³micas": 7108, "ĠperiÃ³dico": 7109, "ĠrecibiÃ³": 7110, "Ġlenguaje": 7111, "Ġespecies": 7112, "cenas": 7113, "ĠDigital": 7114, "ĠCel": 7115, "Ġrestos": 7116, "UC": 7117, "Ġreferente": 7118, "ĠclÃŃn": 7119, "Ġrell": 7120, "Ġdeportivo": 7121, "Ġmate": 7122, "ĠmÃºltiples": 7123, "Ġgraves": 7124, "Ġcicl": 7125, "ĠtÃŃp": 7126, "Mar": 7127, "Ġhabido": 7128, "ĠintegraciÃ³n": 7129, "Ġvasco": 7130, "ĠreÃºn": 7131, "38": 7132, "ĠDescu": 7133, "27": 7134, "Ġllamar": 7135, "Ġocio": 7136, "ĠaprobaciÃ³n": 7137, "iten": 7138, "Ġcorre": 7139, "gÃ³": 7140, "Ġsecu": 7141, "ĠEdu": 7142, "Ġusando": 7143, "Ġpremi": 7144, "Ġced": 7145, "ĠAuto": 7146, "Ġincluyen": 7147, "ĠmÃ©dicos": 7148, "eja": 7149, "Ġcien": 7150, "Ġbod": 7151, "Ġsuger": 7152, "Ġdesaf": 7153, "Ã³mica": 7154, "ĠlegislaciÃ³n": 7155, "ĠbalÃ³n": 7156, "Ġabor": 7157, "ĠclasificaciÃ³n": 7158, "Ġtradicionales": 7159, "Ġbicic": 7160, "ĠIl": 7161, "ĠnÃºmeros": 7162, "ĠVigo": 7163, "Ġnarra": 7164, "usto": 7165, "Ġindis": 7166, "ĠDES": 7167, "Ġbos": 7168, "Ġpensando": 7169, "Ġfinalidad": 7170, "ĠJoa": 7171, "Ġdejando": 7172, "ria": 7173, "ĠempezÃ³": 7174, "As": 7175, "ĠDaniel": 7176, "Ġbor": 7177, "Ġvemos": 7178, "Ġviendo": 7179, "osofÃŃa": 7180, "Ã±ado": 7181, "aval": 7182, "quÃŃn": 7183, "Ġmetro": 7184, "ĠTar": 7185, "ĠIz": 7186, "Ġprivi": 7187, "bum": 7188, "Ġvistas": 7189, "Ġencontraba": 7190, "anta": 7191, "ĠPNV": 7192, "ĠMis": 7193, "Ġdul": 7194, "ĠEsper": 7195, "wn": 7196, "emen": 7197, "Ġmagistr": 7198, "Ġaceptas": 7199, ".)": 7200, "Ġcalendario": 7201, "Ġintegral": 7202, "OO": 7203, "Ã¡nico": 7204, "Ġreivind": 7205, "ĠLes": 7206, "Ġvers": 7207, "amora": 7208, "ĠcompaÃ±ero": 7209, "ĠMc": 7210, "ARIO": 7211, "terra": 7212, "Ġquiera": 7213, "ĠZapatero": 7214, "Ġcomunes": 7215, "Ġaparecen": 7216, "guen": 7217, "Ġpintura": 7218, "Ġaltas": 7219, "ĠRob": 7220, "Ġmerece": 7221, "vila": 7222, "Ġactores": 7223, "Ġpromover": 7224, "Ġsimilares": 7225, "ĠHernÃ¡ndez": 7226, "Ġtemperatura": 7227, "uerta": 7228, "ĠPlata": 7229, "Ġsubvenciones": 7230, "ĠÃ³rgano": 7231, "fÃ©": 7232, "ĠId": 7233, "Ġlujo": 7234, "ĠSant": 7235, "tega": 7236, "eler": 7237, "Ġrein": 7238, "diario": 7239, "Ġsencilla": 7240, "ĠEnc": 7241, "Ġculpa": 7242, "Ġespos": 7243, "ĠFomento": 7244, "pra": 7245, "Ġingles": 7246, "ĠdarÃ¡": 7247, "ĠSir": 7248, "Ġmira": 7249, "ERO": 7250, "Ġturistas": 7251, "cribe": 7252, "Ġimplica": 7253, "Ġreales": 7254, "ĠmanifestaciÃ³n": 7255, "esper": 7256, "ĠAM": 7257, "Ġrecomendamos": 7258, "Ġ150": 7259, "cionada": 7260, "Ġsonido": 7261, "EZ": 7262, "Ġincom": 7263, "ĠIngenier": 7264, "Ġpoli": 7265, "Ġtambien": 7266, "ĠvÃŃas": 7267, "Ġministra": 7268, "Ġmaravillos": 7269, "Ġoficinas": 7270, "Ġamis": 7271, "Ġtarif": 7272, "Ġcuarta": 7273, "ĠestarÃ¡n": 7274, "pÃ³": 7275, "ĠAustr": 7276, "ĠMedia": 7277, "ĠconfiguraciÃ³n": 7278, "ĠInnov": 7279, "Ġrestaurantes": 7280, "ĠERC": 7281, "ĠtendrÃŃa": 7282, "enden": 7283, "Ġayuntamiento": 7284, "Ġelectrod": 7285, "Ġfundamentales": 7286, "Ġ75": 7287, "brica": 7288, "39": 7289, "Ġeficaz": 7290, "ĠMarta": 7291, "Ġayuntamientos": 7292, "Ġimpuesto": 7293, "Ġsiglos": 7294, "Ã³stico": 7295, "ĠCir": 7296, "Ġdominio": 7297, "Ġhermanos": 7298, "Ġrepas": 7299, "bit": 7300, "trol": 7301, "Ġcay": 7302, "Ma": 7303, "Ġmente": 7304, "Ġpared": 7305, "Ġcambiado": 7306, "Ġdespa": 7307, "ÃŃodo": 7308, "ĠRecibe": 7309, "Ġ400": 7310, "Ġventaja": 7311, "ĠaÃ©": 7312, "jÃ³n": 7313, "Ġcontrolar": 7314, "Pres": 7315, "Ġcontribuy": 7316, "29": 7317, "ajaj": 7318, "ood": 7319, "Ġsabor": 7320, "ĠMallorca": 7321, "rÃ³": 7322, "ajara": 7323, "NA": 7324, "ĠdifusiÃ³n": 7325, "Ġpies": 7326, "Ġocupa": 7327, "ĠfÃŃsico": 7328, "Ġvienen": 7329, "ĠUR": 7330, "Ġheridos": 7331, "ĠSch": 7332, "xo": 7333, "ĠCompr": 7334, "gico": 7335, "Ġcondena": 7336, "Ġfirmado": 7337, "Ġsolamente": 7338, "UP": 7339, "Ġprocl": 7340, "Ġecol": 7341, "Ġoscu": 7342, "icana": 7343, "itud": 7344, "metros": 7345, "izados": 7346, "Ġtrabajan": 7347, "ĠIndustria": 7348, "ualmente": 7349, "Ġcorresponde": 7350, "Ġtarea": 7351, "Ġdiscipl": 7352, "Ġdeclarado": 7353, "ĠanunciÃ³": 7354, "Ġutilizando": 7355, "pio": 7356, "Ġarchivo": 7357, "Ġclaves": 7358, "Ġconfirmado": 7359, "Ġais": 7360, "ariamente": 7361, "fal": 7362, "Ġsing": 7363, "tamen": 7364, "ĠCasado": 7365, "Ġindirectamente": 7366, "Ġpaciente": 7367, "Ġrealizan": 7368, "ĠcontraseÃ±a": 7369, "Ġadministr": 7370, "Ġtoca": 7371, "ĠCristo": 7372, "Ġconductor": 7373, "paracion": 7374, "umbre": 7375, "ĠprevÃ©": 7376, "?,": 7377, "ĠturÃŃstico": 7378, "Ġmental": 7379, "osos": 7380, "iod": 7381, "Ġurbano": 7382, "ierto": 7383, "ingÃ¼": 7384, "ĠNuestros": 7385, "Ġbienestar": 7386, "ĠalimentaciÃ³n": 7387, "ĠcientÃŃficos": 7388, "Ġinaugu": 7389, "Ġchicas": 7390, "Ġgratuito": 7391, "ĠJam": 7392, "lamen": 7393, "Ġdespe": 7394, "ĠVie": 7395, "Ġvigor": 7396, "Ġresponsab": 7397, "erse": 7398, "ĠEspecial": 7399, "Ġlleno": 7400, "Ġitaliano": 7401, "ezca": 7402, "ĠOro": 7403, "Ġinteresa": 7404, "ierta": 7405, "ĠobligaciÃ³n": 7406, "Ġabogado": 7407, "Ġadquis": 7408, "Ġpiedra": 7409, "Ġrealizadas": 7410, "Ġsalido": 7411, "ĠquizÃ¡s": 7412, "ĠSenado": 7413, "ĠEstamos": 7414, "tela": 7415, "Ġmatrimonio": 7416, "Ġseguros": 7417, "mart": 7418, "Ġinfraestructuras": 7419, "ĠDom": 7420, "cientes": 7421, "indows": 7422, "ĠperÃŃodo": 7423, "iona": 7424, "Ġpublici": 7425, "Ġpiscina": 7426, "Ġadecuado": 7427, "Ġmoto": 7428, "Ġbiblio": 7429, "ĠPÃºblico": 7430, "ĠIntrodu": 7431, "ĠBurgos": 7432, "Ġdepartamento": 7433, "TAS": 7434, "ĠAf": 7435, "ĠOrganizaciÃ³n": 7436, "Ġ33": 7437, "ĠAndrÃ©s": 7438, "Ġacudir": 7439, "Ġsabes": 7440, "Ġinstitucional": 7441, "Ġtriste": 7442, "Ġrepetir": 7443, "ĠUS": 7444, "Ġincluir": 7445, "ĠdaÃ±o": 7446, "Ġahorr": 7447, "Ġcontiene": 7448, "udas": 7449, "inta": 7450, "itorio": 7451, "Ġbajas": 7452, "crÃŃ": 7453, "Ġausencia": 7454, "usiones": 7455, "Ġresponde": 7456, "Ġmarketing": 7457, "ĠmÃ©todo": 7458, "Ġeconom": 7459, "esÃŃa": 7460, "Ġrazon": 7461, "Ġasistentes": 7462, "Ġagre": 7463, "Ġconciencia": 7464, "Ġaconse": 7465, "cierto": 7466, "ĠQuÃ©": 7467, "Ġign": 7468, "Ġagencia": 7469, "ionado": 7470, "Ġelectrodom": 7471, "Ġrestr": 7472, "Ġconvivencia": 7473, "ĠSusana": 7474, "isas": 7475, "Ġseguido": 7476, "ÃŃfico": 7477, "Ġactivos": 7478, "Ġinmigrantes": 7479, "Ġperros": 7480, "ubil": 7481, "ĠFinalmente": 7482, "Ġirreg": 7483, "ĠlÃŃmites": 7484, "imina": 7485, "Ġeducativo": 7486, "ombia": 7487, "Ġespal": 7488, "identa": 7489, "ĠmisiÃ³n": 7490, "Ġasuntos": 7491, "onÃŃa": 7492, "Ġdelegado": 7493, "ĠAlbert": 7494, "Ġlegales": 7495, "ĠenseÃ±anza": 7496, "Ġlucra": 7497, "Ġaquello": 7498, "ĠÃĵ": 7499, "gadas": 7500, "Ġseguimiento": 7501, "ĠpublicÃ³": 7502, "ĠEra": 7503, "ĠMesa": 7504, "emente": 7505, "amo": 7506, "ciles": 7507, "Ġcruz": 7508, "ganos": 7509, "ĠUs": 7510, "Ġtextos": 7511, "Ġmadru": 7512, "ĠCastro": 7513, "Ġentregar": 7514, "Ġavances": 7515, "Ġcarb": 7516, "ĠJuegos": 7517, "Ġlanzamiento": 7518, "ĠbritÃ¡nico": 7519, "Ġmapa": 7520, "ĠinscripciÃ³n": 7521, "Ġposteriormente": 7522, "utas": 7523, "ĠDr": 7524, "wa": 7525, "Ġmirada": 7526, "ĠacadÃ©m": 7527, "ĠacompaÃ±ado": 7528, "ĠespÃŃritu": 7529, "ĠME": 7530, "ĠmontaÃ±a": 7531, "ĠMonte": 7532, "Ġmoderna": 7533, "jada": 7534, "Ġatend": 7535, "Ġhaz": 7536, "ĠCla": 7537, "Ġexclusiva": 7538, "ariales": 7539, "ĠenvÃŃo": 7540, "Ġleche": 7541, "Ġtier": 7542, "Ġutilizado": 7543, "Ġtantas": 7544, "Ġreduci": 7545, "Ġimprescindible": 7546, "Ġmilitares": 7547, "ions": 7548, "Ġcompras": 7549, "Ġcielo": 7550, "Ġejercer": 7551, "Ġadministraciones": 7552, "Ġreceta": 7553, "Ġfuncionarios": 7554, "Ġ)": 7555, "ĠapariciÃ³n": 7556, "Ġciudadano": 7557, "QUIER": 7558, "Ġmand": 7559, "Ġnave": 7560, "lÃ³": 7561, "ĠDoc": 7562, "ĠcÃ¡": 7563, "ĠvolviÃ³": 7564, "mentado": 7565, "ĠnavegaciÃ³n": 7566, "Ġllena": 7567, "Ġasigna": 7568, "zgo": 7569, "Ġcuesta": 7570, "ĠNuevo": 7571, "Ġrique": 7572, "ĠmociÃ³n": 7573, "Ġrepi": 7574, "Ġsufrir": 7575, "Ġgarantiz": 7576, "Ġsolid": 7577, "Ġdoctor": 7578, "ĠCap": 7579, "ĠCristi": 7580, "Ġderrota": 7581, "icol": 7582, "Ġindividual": 7583, "Ġreuniones": 7584, "Ġdescuento": 7585, "Ġdepende": 7586, "ĠresÃºmenes": 7587, "Ġhier": 7588, "Ġconfirma": 7589, "Te": 7590, "ĠCi": 7591, "ĠJaÃ©n": 7592, "Ġdetenidos": 7593, "Ġnaran": 7594, "nado": 7595, "ĠHar": 7596, "Ġaficionados": 7597, "Ġdedicada": 7598, "Ġconsumidores": 7599, "Ġtribunal": 7600, "vern": 7601, "Ġperjud": 7602, "Ġampliar": 7603, "ĠConsulta": 7604, "Ġinjus": 7605, "Ġborr": 7606, "maras": 7607, "Ġexhib": 7608, "ĠquizÃ¡": 7609, "Ġpierd": 7610, "ĠÃ¡l": 7611, "ERV": 7612, "Ġpuntu": 7613, "aste": 7614, "Ġnar": 7615, "Ġataques": 7616, "Ġpierde": 7617, "Ġinspir": 7618, "Ġjapon": 7619, "ĠaverÃŃa": 7620, "ĠhabitaciÃ³n": 7621, "DI": 7622, "Ġsufrido": 7623, "Ġflex": 7624, "hi": 7625, "mu": 7626, "Ġresal": 7627, "Ġdescargar": 7628, "ĠDol": 7629, "Ġservir": 7630, "Ġmuseo": 7631, "ĠInnovaciÃ³n": 7632, "Ġparecen": 7633, "odos": 7634, "Ġatribu": 7635, "Ġseries": 7636, "Ġpanor": 7637, "Ġcomplejo": 7638, "ĠTrabaj": 7639, "iada": 7640, "Ġarre": 7641, "Ġ34": 7642, "Ġmercan": 7643, "Ġvay": 7644, "Ġrele": 7645, "Ġcientos": 7646, "izan": 7647, "ĠParti": 7648, "Ġresistencia": 7649, "Ġrecogida": 7650, "Ġbom": 7651, "ĠXIX": 7652, "ualidad": 7653, "ĠsitÃºa": 7654, "Ġfinanciera": 7655, "ĠcampeÃ³n": 7656, "Ġmanifiesto": 7657, "ĠcontarÃ¡": 7658, "Ġluchar": 7659, "Ġdoce": 7660, "Ġcomarca": 7661, "Ġserio": 7662, "icha": 7663, "alizaciones": 7664, "ĠIra": 7665, "az": 7666, "Ġpieza": 7667, "ibil": 7668, "erÃŃas": 7669, "uesca": 7670, "ket": 7671, "ĠTenemos": 7672, "ux": 7673, "Ġsoporte": 7674, "crimin": 7675, "enz": 7676, "Ã³nico": 7677, "ĠCAR": 7678, "ĠVitoria": 7679, "ĠrÃ¡pidamente": 7680, "ĠsaliÃ³": 7681, "Ġinfluencia": 7682, "ONA": 7683, "Ġtorneo": 7684, "Ġrepresentante": 7685, "Ġvigente": 7686, "Ġretro": 7687, "ĠHemos": 7688, "Ã¡rez": 7689, "ÃŃna": 7690, "Ġtin": 7691, "tesis": 7692, "Ġaltos": 7693, "Ġmeter": 7694, "Ġfarma": 7695, "Ġalar": 7696, "lados": 7697, "Ġdieron": 7698, "Ġnub": 7699, "Ġcontinua": 7700, "Ġdemostrado": 7701, "ĠComentarios": 7702, "ĠFamil": 7703, "ider": 7704, "tagram": 7705, "pil": 7706, "Ġfomentar": 7707, "Ġperro": 7708, "Ġinmediato": 7709, "tologÃŃa": 7710, "Ġfrancesa": 7711, "mica": 7712, "quie": 7713, "ĠcÃ³m": 7714, "atos": 7715, "Ġcomplicado": 7716, "Ãºcar": 7717, "ĠelectrÃ³nica": 7718, "ĠacabÃ³": 7719, "Ġganador": 7720, "Ġintelectual": 7721, "ĠÃģlvarez": 7722, "ieren": 7723, "Ġnerv": 7724, "ĠreciÃ©n": 7725, "Ġesencial": 7726, "ĠSistema": 7727, "gros": 7728, "ĠcuÃ¡n": 7729, "Ġ65": 7730, "Ġpaseo": 7731, "ĠLeer": 7732, "Ġrepubl": 7733, "Ġterrorismo": 7734, "Ã¡z": 7735, "Ġrespectivamente": 7736, "Ġactiva": 7737, "Ġpred": 7738, "Ġverdadero": 7739, "guna": 7740, "Ġaceptar": 7741, "Ġje": 7742, "ĠCalle": 7743, "Ġactivo": 7744, "Ġoriginales": 7745, "Ġapla": 7746, "Ġextin": 7747, "Ġvisu": 7748, "bes": 7749, "alizadas": 7750, "Ġbandera": 7751, "Ġhubi": 7752, "Ġrecoger": 7753, "Ġdirigentes": 7754, "VO": 7755, "Ġtanatorios": 7756, "ĠUnidad": 7757, "ĠMU": 7758, "ĠRoma": 7759, "Ġ---": 7760, "Ġescul": 7761, "ĠCaja": 7762, "trado": 7763, "Ġrin": 7764, "habilitaciÃ³n": 7765, "ĠclÃ¡sico": 7766, "abe": 7767, "grado": 7768, "%)": 7769, "Yo": 7770, "Ġexplic": 7771, "ĠNA": 7772, "his": 7773, "Ġlibres": 7774, "Ġvosotros": 7775, "cismo": 7776, "Ġdesn": 7777, "ĠHuelva": 7778, "Ġrefugiados": 7779, "Ġinteresantes": 7780, "Ġexclusivamente": 7781, "Ġpasan": 7782, "ites": 7783, "Ġsumar": 7784, "Ġtradu": 7785, "ĠEstudios": 7786, "ĠCook": 7787, "ĠApple": 7788, "Ġcolegios": 7789, "Ġdejan": 7790, "hora": 7791, "ĠJuz": 7792, "Ġasistir": 7793, "trocin": 7794, "blog": 7795, "ĠbebÃ©": 7796, "ĠPalmas": 7797, "sula": 7798, "Ġonce": 7799, "tinos": 7800, "gando": 7801, "Ġelectorales": 7802, "ĠganÃ³": 7803, "ure": 7804, "Ġarquitectura": 7805, "Ġfinanciero": 7806, "Ġamp": 7807, "Ġimporta": 7808, "ĠVia": 7809, "Ġfelici": 7810, "istorio": 7811, "Ġconstitucional": 7812, "ĠclimÃ¡tico": 7813, "portes": 7814, "lament": 7815, "Ġmalos": 7816, "ĠCerv": 7817, "Ġdemuestra": 7818, "Hay": 7819, "Ġalcohol": 7820, "2019": 7821, "Ġhablamos": 7822, "ĠOrtega": 7823, "Ġprobablemente": 7824, "Ġarchivos": 7825, "Ġcerrado": 7826, "Ġespiri": 7827, "ĠAran": 7828, "37": 7829, "Ġalerta": 7830, "Ġconsideran": 7831, "Ġrespuestas": 7832, "ĠMediter": 7833, "Ġchoc": 7834, "Ġ48": 7835, "media": 7836, "Ġimpulsar": 7837, "ĠEnerg": 7838, "Ġcolocar": 7839, "Ġahorro": 7840, "Ġindependentistas": 7841, "ĠCrea": 7842, "Ġperspectiva": 7843, "ĠHen": 7844, "ĠEsa": 7845, "Ġ\"Â¿": 7846, "Ġcontactar": 7847, "Ġfeder": 7848, "Ġexplos": 7849, "Ġsiento": 7850, "ficit": 7851, "Ġbonito": 7852, "ĠSÃ¡": 7853, "ĠnaciÃ³": 7854, "tibles": 7855, "amas": 7856, "ĠBB": 7857, "ĠMario": 7858, "Ġaparecer": 7859, "Ġ2000": 7860, "Ġmoral": 7861, "terr": 7862, "Ġestuv": 7863, "Ġestabilidad": 7864, "muy": 7865, "ionante": 7866, "ĠRegistro": 7867, "ĠDI": 7868, "Ġencab": 7869, "ĠaviÃ³n": 7870, "Ġ2005": 7871, "ĠconversaciÃ³n": 7872, "Ġgras": 7873, "Ġnacimiento": 7874, "lin": 7875, "ĠconservaciÃ³n": 7876, ".....": 7877, "paÃ±as": 7878, "Ġtanta": 7879, "Ġadultos": 7880, "tedral": 7881, "Ġsusp": 7882, "Ġcober": 7883, "cidental": 7884, "Ġregalo": 7885, "Ġrap": 7886, "Ġbuscan": 7887, "ĠProyecto": 7888, "ĠfrÃŃo": 7889, "ĠIma": 7890, "Ġtocar": 7891, "rero": 7892, "Ġcuadro": 7893, "Ġmex": 7894, "Ġfrase": 7895, "ĠparecÃŃa": 7896, "Ġmedioamb": 7897, "Ġasis": 7898, "ĠvaloraciÃ³n": 7899, "Ġ=": 7900, "ĠBra": 7901, "Ġcancel": 7902, "ecas": 7903, "ĠLogroÃ±o": 7904, "ĠCUAL": 7905, "Ġmono": 7906, "Ġmodificar": 7907, "ĠpolÃ©mica": 7908, "Ġsecreto": 7909, "Ġresidencia": 7910, "ĠJimÃ©nez": 7911, "Ġcuestion": 7912, "ĠBlanca": 7913, "Ġ37": 7914, "Ġaportar": 7915, "Ġsiguiendo": 7916, "Ġafrontar": 7917, "ĠBla": 7918, "arme": 7919, "ĠlÃ¡": 7920, "Ġpudiera": 7921, "ebro": 7922, "ĠDERECHOS": 7923, "Ġpiden": 7924, "ulaciÃ³n": 7925, "Ġbasado": 7926, "46": 7927, "ĠNin": 7928, "ĠvotaciÃ³n": 7929, "eramente": 7930, "Ã¡mico": 7931, "Ġblogs": 7932, "Ġaviso": 7933, "Ġprivados": 7934, "art": 7935, "Ġambiental": 7936, "ĠOviedo": 7937, "ĠSigue": 7938, "rim": 7939, "Ġprepara": 7940, "ĠlogrÃ³": 7941, "Ġsubs": 7942, "Ġprovincial": 7943, "ĠAlejandro": 7944, "ĠreflexiÃ³n": 7945, "tente": 7946, "ĠNew": 7947, "Ġplantea": 7948, "Ġsociedades": 7949, "ĠTeresa": 7950, "iciones": 7951, "Ġsituada": 7952, "ĠseguirÃ¡": 7953, "Ġpobreza": 7954, "ĠexplotaciÃ³n": 7955, "Ġentiende": 7956, "Ġdor": 7957, "ĠcuÃ¡l": 7958, "tÃ¡logo": 7959, "Ġaprovechar": 7960, "UES": 7961, "Ġord": 7962, "tificaciÃ³n": 7963, "Ġelig": 7964, "Ġconsejo": 7965, "Ġcostum": 7966, "Ġaventura": 7967, "govia": 7968, "ĠBaleares": 7969, "by": 7970, "Ġechar": 7971, "Ġmarido": 7972, "ĠAÃ±": 7973, "Ġsesiones": 7974, "Ġpuente": 7975, "taban": 7976, "Ġmarcar": 7977, "econ": 7978, "ĠmodificaciÃ³n": 7979, "Ġsindic": 7980, "Ġcreen": 7981, "ĠVan": 7982, "ĠProduc": 7983, "piraciÃ³n": 7984, "ĠQuiz": 7985, "ĠRegiÃ³n": 7986, "icantes": 7987, "Ġreparto": 7988, "diciones": 7989, "Ġesperan": 7990, "Ġpasaj": 7991, "cidas": 7992, "Ġincumpl": 7993, "ĠmÃŃnima": 7994, "Ġlector": 7995, "Ġquitar": 7996, "Ġplacer": 7997, "Ġespecialistas": 7998, "Ġarque": 7999, "Ġaval": 8000, "Ġcama": 8001, "Ġponerse": 8002, "Ġcerv": 8003, "Ġrecaud": 8004, "Ġadquirir": 8005, "ĠrealizÃ³": 8006, "Ġretr": 8007, "ĠjamÃ¡s": 8008, "ĠLiber": 8009, "unas": 8010, "ĠMejor": 8011, "Ġleyendo": 8012, "Pro": 8013, "Ġdemostrar": 8014, "cesto": 8015, "ĠDefensa": 8016, "Ġtalento": 8017, "Ġpensamiento": 8018, "Ġresiduos": 8019, "Ġplatos": 8020, "Ġvideos": 8021, "ney": 8022, "Ġconstituy": 8023, "Ġconsiderar": 8024, "ĠCoo": 8025, "Ġdejo": 8026, "Ġtemperaturas": 8027, "Ġmete": 8028, "ĠJapÃ³n": 8029, "Ġexces": 8030, "aldo": 8031, "ĠTanto": 8032, "Ġliqu": 8033, "Ġasegurar": 8034, "ĠtransformaciÃ³n": 8035, "bu": 8036, "cinto": 8037, "Ġquis": 8038, "Ġexter": 8039, "Ġcotidi": 8040, "PS": 8041, "Ġdato": 8042, "lia": 8043, "Ġpeg": 8044, "ĠcooperaciÃ³n": 8045, "Ġadecuada": 8046, "ORA": 8047, "Ġago": 8048, "Ġlucrativos": 8049, "Ġbancar": 8050, "gÃ¡nica": 8051, "Ġpoca": 8052, "Ġuniversidades": 8053, "Ġdeportiva": 8054, "Ġriqueza": 8055, "Ġcurios": 8056, "Ġsole": 8057, "BL": 8058, "Ġchar": 8059, "fra": 8060, "egr": 8061, "EspaÃ±a": 8062, "Ġmarcado": 8063, "ĠSAN": 8064, "Ġninguno": 8065, "Ġsolar": 8066, "Ġexpediente": 8067, "ĠCASO": 8068, "ĠJosep": 8069, "ĠInte": 8070, "Ġsorteo": 8071, "ĠcontinÃº": 8072, "Ġaproximadamente": 8073, "Ġdesempe": 8074, "Ġagenda": 8075, "jeron": 8076, "itadas": 8077, "Ġandaluz": 8078, "ĠLocales": 8079, "ĠPleno": 8080, "ijÃ³n": 8081, "ĠOficina": 8082, "Ġhuev": 8083, "ĠGir": 8084, "eco": 8085, "ĠCortes": 8086, "ĠdeberÃŃan": 8087, "Ġmedie": 8088, "Ã³cra": 8089, "Ġdesarrolla": 8090, "mbol": 8091, "Ġprovincias": 8092, "ĠIV": 8093, "Ġrock": 8094, "zados": 8095, "Ġtum": 8096, "ĠCUALQUIER": 8097, "ĠConsell": 8098, "ĠcategorÃŃas": 8099, "ĠColombia": 8100, "Ġconferencia": 8101, "Ġfantas": 8102, "Ġblanca": 8103, "ĠAutor": 8104, "Ġinteligencia": 8105, "Ġhol": 8106, "ologia": 8107, "Ġacoge": 8108, "ĠWar": 8109, "Ġextranjero": 8110, "Ġagru": 8111, "ĠEditorial": 8112, "ĠpasiÃ³n": 8113, "Ġavance": 8114, "Ġexistentes": 8115, "Ġcontado": 8116, "Ġfiscales": 8117, "Ġseres": 8118, "Ġfactor": 8119, "ieg": 8120, "ĠClasificados": 8121, "ĠteorÃŃa": 8122, "Ġcolabora": 8123, "ambre": 8124, "oluciones": 8125, "tativas": 8126, "Ġinterac": 8127, "Ġpresupues": 8128, "Ã©cord": 8129, "ĠAcademia": 8130, "Ġenlaces": 8131, "Ġvicepresidente": 8132, "cipe": 8133, "Ġvinos": 8134, "Ġportada": 8135, "risa": 8136, "ĠChris": 8137, "Ġilegal": 8138, "ĠFuente": 8139, "ĠParlament": 8140, "ĠCR": 8141, "Ġdesigu": 8142, "ĠCuenca": 8143, "Ġinformes": 8144, "Ġnegociaciones": 8145, "Ã©sticos": 8146, "ĠIzquier": 8147, "Ġronda": 8148, "Ġpreparado": 8149, "ĠFun": 8150, "ĠpÃ¡r": 8151, "ĠDeportes": 8152, "Ġplato": 8153, "ĠDeporte": 8154, "Ġprodujo": 8155, "riel": 8156, "ĠArm": 8157, "ĠconsiguiÃ³": 8158, "JD": 8159, "tenido": 8160, "ĠÃģfrica": 8161, "Ġvirtual": 8162, "Ġnucle": 8163, "ĠPatrimonio": 8164, "ministro": 8165, "Ġrebel": 8166, "anea": 8167, "Ġcorrectamente": 8168, "Ġcomis": 8169, "Ġrode": 8170, "ĠBon": 8171, "ĠLuc": 8172, "Ã¡les": 8173, "ĠDomingo": 8174, "Ġdesign": 8175, "Ġtoque": 8176, "oncesto": 8177, "Ġalumno": 8178, "Ġciviles": 8179, "Ġpaque": 8180, "Ġconsideramos": 8181, "ĠdÃ©ficit": 8182, "Ġencargado": 8183, "Ġ38": 8184, "Ġparecido": 8185, "ĠllevarÃ¡": 8186, "fin": 8187, "ĠrenovaciÃ³n": 8188, "Ġmalo": 8189, "Ġpoderos": 8190, "ANA": 8191, "Ġrenunci": 8192, "zadas": 8193, "Ġfallecido": 8194, "Ġgestionar": 8195, "ĠCiencia": 8196, "Ġpiensa": 8197, "loj": 8198, "rÃ³n": 8199, "ĠCad": 8200, "Ġsolicitudes": 8201, "Ġmirar": 8202, "ĠCH": 8203, "irre": 8204, "34": 8205, "ĠLan": 8206, "ĠRESERV": 8207, "ombi": 8208, "ĠWill": 8209, "Ġdestacan": 8210, "ĠMol": 8211, "acu": 8212, "orld": 8213, "uelve": 8214, "toriales": 8215, "ĠincreÃŃ": 8216, "Ġescala": 8217, "ficial": 8218, "Ġinspec": 8219, "ĠÃ¡lbum": 8220, "ĠCS": 8221, "05": 8222, "Ġfamoso": 8223, "ĠPresidencia": 8224, "Ġmadrugada": 8225, "Ġplataformas": 8226, "ĠHu": 8227, "gui": 8228, "Ġreiter": 8229, "ĠfenÃ³meno": 8230, "Ġmultitud": 8231, "laterra": 8232, "ĠseÃ±alÃ³": 8233, "Ġrecal": 8234, "ĠWindows": 8235, "ĠWord": 8236, "zcan": 8237, "IDA": 8238, "ĠÃ¡nimo": 8239, "ĠinterpretaciÃ³n": 8240, "ĠAlc": 8241, "Ġbrill": 8242, "','": 8243, "Ġdiscre": 8244, "Ġlamenta": 8245, "Ġtramo": 8246, "Ġapa": 8247, "ĠIsrael": 8248, "Ġeficiencia": 8249, "ĠBadajoz": 8250, "colo": 8251, "Ã¡zquez": 8252, "Ġelaborado": 8253, "Ġfues": 8254, "Ġpantal": 8255, "Ġincluidos": 8256, "Ġguer": 8257, "Ġcrimin": 8258, "Ġmezcla": 8259, "Ġpisos": 8260, "Ġdil": 8261, "ĠalegrÃŃa": 8262, "Ġcreer": 8263, "poco": 8264, "Ġgrados": 8265, "ĠtensiÃ³n": 8266, "ĠMov": 8267, "Ġpermita": 8268, "Ġcrecer": 8269, "Ġclaramente": 8270, "Ġperju": 8271, "Ġmenudo": 8272, "ĠCine": 8273, "Ġcopi": 8274, "ĠSar": 8275, "Ġcanales": 8276, "ĠcapÃŃtulo": 8277, "ĠFerr": 8278, "ĠLuego": 8279, "Ġlluvia": 8280, "ientales": 8281, "ĠLim": 8282, "lamos": 8283, "Ġconversaciones": 8284, "ith": 8285, "guardia": 8286, "Ġsolidaridad": 8287, "ĠelÃ©ctrica": 8288, "Ġhagan": 8289, "Ġmascul": 8290, "Ġguste": 8291, "terÃŃas": 8292, "COO": 8293, "BRE": 8294, "Ġinstruc": 8295, "ĠAtenciÃ³n": 8296, "Ġestancia": 8297, "Ġvalle": 8298, "Ġperfecta": 8299, "Ġpendientes": 8300, "Ġvecino": 8301, "ĠCorporaciÃ³n": 8302, "Ġveter": 8303, "Ġgeo": 8304, "Ġguitar": 8305, "ĠescaÃ±os": 8306, "Ġcristal": 8307, "istente": 8308, "Ġestatal": 8309, "iamente": 8310, "roid": 8311, "Ġdelantero": 8312, "Ġcola": 8313, "Ġpreced": 8314, "Ġfirme": 8315, "ĠAlex": 8316, "ĠRESERVADOS": 8317, "ĠRSS": 8318, "Ġextranjeros": 8319, "Ġseleccion": 8320, "tualmente": 8321, "ION": 8322, "ĠbaterÃŃa": 8323, "ĠpreocupaciÃ³n": 8324, "enza": 8325, "Ã¡bamos": 8326, "Ġvideoj": 8327, "ibar": 8328, "Ġejemplos": 8329, "Ġprovocar": 8330, "Ġdigitales": 8331, "Ġaceler": 8332, "Ġdaba": 8333, "ĠÃ³p": 8334, "iam": 8335, "toÃ±o": 8336, "ÃįS": 8337, "gona": 8338, "ĠActualmente": 8339, "empo": 8340, "Ġprocedentes": 8341, "Ġdirige": 8342, "ĠconvirtiÃ³": 8343, "Ġlog": 8344, "Ġremon": 8345, "ierten": 8346, "ĠFÃºtbol": 8347, "ĠquÃŃm": 8348, "ĠGovern": 8349, "ĠGenerales": 8350, "Ġbras": 8351, "ey": 8352, "Ġjurado": 8353, "ografÃŃa": 8354, "tornos": 8355, "Ġsiente": 8356, "toras": 8357, "ĠampliaciÃ³n": 8358, "BI": 8359, "manes": 8360, "Ġalternativas": 8361, "Ġvital": 8362, "Ġencuesta": 8363, "ĠEduardo": 8364, "Ġintroducir": 8365, "ĠPaco": 8366, "eamente": 8367, "Ġidentificar": 8368, "Ġpatrocin": 8369, "Ġretos": 8370, "Ġrealizando": 8371, "The": 8372, "Ġabon": 8373, "Ġhablado": 8374, "Ġcomponentes": 8375, "tanas": 8376, "Ġpendiente": 8377, "Ġcuel": 8378, "lave": 8379, "JO": 8380, "ĠBildu": 8381, "Ġ2004": 8382, "Ġdiagn": 8383, "Ġinser": 8384, "Ġespecif": 8385, "ĠMedios": 8386, "ĠCuer": 8387, "Ġmanifestado": 8388, "ĠMul": 8389, "Ġfrecuencia": 8390, "ĠpreparaciÃ³n": 8391, "Ġgarantiza": 8392, "Ġutilizan": 8393, "ĠIsla": 8394, "Ġemisiones": 8395, "ĠrÃ©cord": 8396, "ĠRural": 8397, "ĠDeleg": 8398, "illan": 8399, "cita": 8400, "Ġprocedimientos": 8401, "Ġcerebro": 8402, "ĠJoan": 8403, "Ġtem": 8404, "Ġcontactos": 8405, "cidentes": 8406, "ĠCuenta": 8407, "unales": 8408, "ĠAlbacete": 8409, "igas": 8410, "ĠUGT": 8411, "ĠPresupuestos": 8412, "Ġconocidos": 8413, "Ġsuperiores": 8414, "Ġinteresados": 8415, "vedra": 8416, "ĠsÃŃmbol": 8417, "Ġsup": 8418, "Ġjuega": 8419, "ĠCono": 8420, "Ġbl": 8421, "ĠGan": 8422, "Ġapas": 8423, "Ġirregular": 8424, "Ġinquie": 8425, "temp": 8426, "ĠSuÃ¡rez": 8427, "icho": 8428, "Ġestablecimientos": 8429, "Ġjubil": 8430, "ampions": 8431, "gina": 8432, "Ġcuento": 8433, "ĠrevisiÃ³n": 8434, "ĠKa": 8435, "ĠbÃ¡sicos": 8436, "Ġautoridad": 8437, "Ġvuelo": 8438, "ENCIA": 8439, "ĠQuin": 8440, "Ġcorriente": 8441, "Ġrelato": 8442, "ĠJur": 8443, "Ġtela": 8444, "Ġocurr": 8445, "Ġensayo": 8446, "Ġestreno": 8447, "Ġproducen": 8448, "ĠBro": 8449, "ender": 8450, "Ġgenial": 8451, "orios": 8452, "Ġmasa": 8453, "Ġtecnico": 8454, "Ġcircuito": 8455, "Ġrecortes": 8456, "Ġprote": 8457, "Ġfelicidad": 8458, "ĠleÃŃdo": 8459, "Ġapartam": 8460, "Ġempresario": 8461, "Ġplano": 8462, "Ġmedic": 8463, "Ġespecializada": 8464, "Ġtotalidad": 8465, "Ġascenso": 8466, "vos": 8467, "cioso": 8468, "ĠEstu": 8469, "@@@@": 8470, "Ġbolsa": 8471, "Ġbalance": 8472, "Ġcercano": 8473, "Ġtrabajador": 8474, "ĠCN": 8475, "EB": 8476, "ires": 8477, "ĠconcesiÃ³n": 8478, "Ġdiferenci": 8479, "Ġcubrir": 8480, "Ġextrema": 8481, "Ġparticipan": 8482, "ĠAnti": 8483, "Ġesfuerzos": 8484, "ĠUNA": 8485, "ĠEncuen": 8486, "Ġpolic": 8487, "Ġtenden": 8488, "orcio": 8489, "Ġromper": 8490, "ĠAlim": 8491, "ĠPublicaciÃ³n": 8492, "don": 8493, "ortun": 8494, "Ġporno": 8495, "Ġvenir": 8496, "Ġfes": 8497, "Ġmezcl": 8498, "Ġtercero": 8499, "Ġprimavera": 8500, "Ġespecializados": 8501, "Ãºc": 8502, "fu": 8503, "Ġmandato": 8504, "quinas": 8505, "ĠcampaÃ±as": 8506, "Ġsexuales": 8507, "Ġllegue": 8508, "ĠafirmÃ³": 8509, "Ġpreparar": 8510, "Ġestren": 8511, "vio": 8512, "ĠXXI": 8513, "ĠMerced": 8514, "Ġ195": 8515, "Ġcero": 8516, "Ġelectricidad": 8517, "Pa": 8518, "orar": 8519, "top": 8520, "Ġalojamiento": 8521, "Ġocupar": 8522, "oros": 8523, "ĠCurso": 8524, "Ġlocalidades": 8525, "ĠcientÃŃfico": 8526, "Ġpose": 8527, "Ġdiciendo": 8528, "Ġidioma": 8529, "ĠEmpresas": 8530, "ĠIber": 8531, "Ã¡ticas": 8532, "ĠDen": 8533, "ĠDispon": 8534, "ĠPRE": 8535, "Ġtitulares": 8536, "],": 8537, "ĠPD": 8538, "tarias": 8539, "Ġexpresidente": 8540, "ĠVega": 8541, "Ġdecreto": 8542, "timon": 8543, "Ġdiversidad": 8544, "Val": 8545, "Ġproporcion": 8546, "09": 8547, "ĠcontemporÃ¡n": 8548, "ÃĳA": 8549, "ĠJef": 8550, "Ġposiciones": 8551, "emn": 8552, "Ġveinte": 8553, "Ġcontemporanea": 8554, "Ġtrato": 8555, "Ġposee": 8556, "Ġfij": 8557, "Ġestrategias": 8558, "urales": 8559, "Ġmover": 8560, "Ġletras": 8561, "ĠPaz": 8562, "tedes": 8563, "iver": 8564, "ĠEstÃ¡s": 8565, "ĠContra": 8566, "Ġextremo": 8567, "Car": 8568, "Ġhin": 8569, "endaciones": 8570, "cones": 8571, "PSOE": 8572, "mÃ¡ticos": 8573, "ĠelÃ©ctrico": 8574, "Ġestatu": 8575, "ĠChile": 8576, "Ġexpon": 8577, "Ġprestaciones": 8578, "uo": 8579, "Ġnorteameric": 8580, "Ġenfo": 8581, "hat": 8582, "ĠGuadalajara": 8583, "thle": 8584, "Ġtransparencia": 8585, "avaj": 8586, "Ġirre": 8587, "portar": 8588, "ÃŃdos": 8589, "Ġcomunicaciones": 8590, "Ġevi": 8591, "Ġhue": 8592, "Ġpresidencia": 8593, "Ġgustan": 8594, "Ġmaterias": 8595, "ĠautonomÃŃa": 8596, "Ġplayas": 8597, "MI": 8598, "Ha": 8599, "ĠElectr": 8600, "Ġdescubier": 8601, "icciones": 8602, "Ġmarcados": 8603, "ĠNie": 8604, "tagena": 8605, "ĠLic": 8606, "Ġescuelas": 8607, "ĠIgualdad": 8608, "01": 8609, "ĠEscu": 8610, "ĠPonte": 8611, "Ġinfec": 8612, "ĠTRA": 8613, "Ġtomado": 8614, "Ġintenta": 8615, "ĠEstatu": 8616, "Ġdieta": 8617, "Ġapellido": 8618, "Ch": 8619, "QUE": 8620, "enzo": 8621, "Ġprivileg": 8622, "Ġcuadrados": 8623, "Ġmando": 8624, "ĠONG": 8625, "Ġtiro": 8626, "Ġtestimon": 8627, "vistas": 8628, "Ġversiones": 8629, "arragona": 8630, "Ex": 8631, "didas": 8632, "Ġdipl": 8633, "Ġantiguos": 8634, "Ġcomplementar": 8635, "ĠcientÃŃfica": 8636, "Ġvotantes": 8637, "ĠFuentes": 8638, "ĠprofesiÃ³n": 8639, "cripciones": 8640, "ĠCookies": 8641, "ĠJud": 8642, "ĠClar": 8643, "ami": 8644, "ĠLegal": 8645, "Ġfrontera": 8646, "Ġbasada": 8647, "Ġservidor": 8648, "garÃ¡": 8649, "pot": 8650, "eis": 8651, "Ġemergencia": 8652, "Ġpolicial": 8653, "Ġdefec": 8654, "Ġsien": 8655, "ĠÃ¡mbitos": 8656, "ĠrealizarÃ¡": 8657, "Ġexactamente": 8658, "Ġdivul": 8659, "ĠPolÃŃ": 8660, "Ġacondicionado": 8661, "Ġchicos": 8662, "Ġconforme": 8663, "Ġturno": 8664, "fera": 8665, "ĠCorreo": 8666, "________": 8667, "Ġcombus": 8668, "Ġfruto": 8669, "Ġatentado": 8670, "ĠMuchos": 8671, "ĠBajo": 8672, "Ġsanidad": 8673, "Ġllevaba": 8674, "Ġpropietarios": 8675, "ĠadaptaciÃ³n": 8676, "Para": 8677, "Ġtono": 8678, "Ġcobertura": 8679, "Ġcolum": 8680, "Ġcuyos": 8681, "/...": 8682, "idal": 8683, "Ġsof": 8684, "ĠfÃ¡cilmente": 8685, "ĠCaball": 8686, "Ġexperto": 8687, "uelta": 8688, "Ġalcanzado": 8689, "ĠficciÃ³n": 8690, "Ġflores": 8691, "Ġinstrumentos": 8692, "ington": 8693, "08": 8694, "Ġlabores": 8695, "cro": 8696, "ĠpidiÃ³": 8697, "sta": 8698, "titudes": 8699, "ĠMara": 8700, "ÃŃctor": 8701, "ĠgastronomÃŃa": 8702, "Ġtendencias": 8703, "Ġpreocupa": 8704, "chado": 8705, "Ġpropa": 8706, "iaciÃ³n": 8707, "ĠGrecia": 8708, "thletic": 8709, "199": 8710, "cista": 8711, "ĠÃ³rganos": 8712, "Ġobtenido": 8713, "mÃ³vil": 8714, "Ġaporta": 8715, "ĠCondiciones": 8716, "Ġacostum": 8717, "ĠInterna": 8718, "Ġjuzgado": 8719, "Ġferro": 8720, "Ġimple": 8721, "ĠCastillo": 8722, "Ġdeportivas": 8723, "Ġces": 8724, "Ġfach": 8725, "Ġasumir": 8726, "ild": 8727, "Ġrecetas": 8728, "ĠCuatro": 8729, "48": 8730, "Ã±oz": 8731, "Ġlogra": 8732, "Ġquieran": 8733, "ĠTags": 8734, "Ġhago": 8735, "Ġlanza": 8736, "ox": 8737, "MS": 8738, "Ġimpon": 8739, "Ġeducativos": 8740, "Ġvenido": 8741, "iversidad": 8742, "ĠNavarro": 8743, "Ġalber": 8744, "ĠcelebrÃ³": 8745, "Ã©ro": 8746, "itÃ¡n": 8747, "Ã¡ndole": 8748, "Ġobligado": 8749, "TC": 8750, "ĠaportaciÃ³n": 8751, "ĠStar": 8752, "Ġadicional": 8753, "ĠsÃ³l": 8754, "ĠmadrileÃ±o": 8755, "Ġinmediata": 8756, "ĠCanal": 8757, "ĠReserv": 8758, "Ġsobreviv": 8759, "Ġpus": 8760, "Ġencuestas": 8761, "Ġcog": 8762, "ĠÃį": 8763, "ĠEntr": 8764, "Ġperteneci": 8765, "Ġpercib": 8766, "pias": 8767, "Ġpala": 8768, "ĠregulaciÃ³n": 8769, "antiles": 8770, "Ġrechazo": 8771, "xit": 8772, "ibuye": 8773, "Ġsubrayado": 8774, "amar": 8775, "xi": 8776, "Ġmejoras": 8777, "ĠNadal": 8778, "Ġequiv": 8779, "ĠNeces": 8780, "Ġquerer": 8781, "Ġadvierte": 8782, "its": 8783, "Ġgustado": 8784, "Ġviaj": 8785, "Ġhoriz": 8786, "ow": 8787, "Ġempu": 8788, "Ġciudadana": 8789, "ĠHumanos": 8790, "Ġmantienen": 8791, "ensiones": 8792, "ĠLen": 8793, "Ġcompletar": 8794, "ĠEntonces": 8795, "ĠSI": 8796, "Ġprotec": 8797, "Ġllegaron": 8798, "Can": 8799, "ĠsÃŃnto": 8800, "Ġsolicitado": 8801, "yn": 8802, "Ġparal": 8803, "ĠAbr": 8804, "Ġasesinato": 8805, "Ġaudiovis": 8806, "ĠCompra": 8807, "fas": 8808, "ĠParece": 8809, "ĠnÃºc": 8810, "Ġ600": 8811, "Ġdemand": 8812, "......": 8813, "plica": 8814, "cciÃ³n": 8815, "07": 8816, "Ġurgente": 8817, "Ġexamen": 8818, "ĠSeÃ±or": 8819, "ĠJoaquÃŃn": 8820, "Ġcensura": 8821, "ĠSalvador": 8822, "06": 8823, "Ġnaranja": 8824, "Ġrefuer": 8825, "tualidad": 8826, "Ġremi": 8827, "itivo": 8828, "ĠConstitucional": 8829, "ĠTan": 8830, "mal": 8831, "Ġinformar": 8832, "Ġdescend": 8833, "CU": 8834, "Ġciertos": 8835, "gentino": 8836, "lÃŃn": 8837, "critos": 8838, "verd": 8839, "ĠVÃŃctor": 8840, "ĠTri": 8841, "ĠÃģlvaro": 8842, "Ġconta": 8843, "ĠTerri": 8844, "Ġterritorial": 8845, "Ġsenten": 8846, "Ġabsolutamente": 8847, "Ġlabora": 8848, "Ġpersonalidad": 8849, "Mo": 8850, "Ġalimentar": 8851, "ĠdivisiÃ³n": 8852, "ZA": 8853, "tinas": 8854, "ĠcontaminaciÃ³n": 8855, "Ġoperativo": 8856, "Ġmusicales": 8857, "Ġdefendido": 8858, "Ġdesgra": 8859, "gl": 8860, "ĠDiputados": 8861, "ĠcÃ¡maras": 8862, "Ġvuelos": 8863, "ĠrevoluciÃ³n": 8864, "Ġacabado": 8865, "Ġorganismos": 8866, "ĠBl": 8867, "Ġtratamientos": 8868, "quito": 8869, "Ġremate": 8870, "ĠMuer": 8871, "ĠIVA": 8872, "Ġsindicato": 8873, "Ġama": 8874, "Ġinfancia": 8875, "Ġasign": 8876, "ĠCCOO": 8877, "Ġprobable": 8878, "Ġintercambio": 8879, "Ġviejo": 8880, "Ġgir": 8881, "iadas": 8882, "ĠJose": 8883, "''": 8884, "rosoft": 8885, "Ġ39": 8886, "icanos": 8887, "Ġindemn": 8888, "ets": 8889, "Ġnegra": 8890, "ĠPremios": 8891, "Ġune": 8892, "Ġsolucionar": 8893, "Ġnieve": 8894, "Ġmantenido": 8895, "Ã¨n": 8896, "Ġcorta": 8897, "33": 8898, "Ġcuerpos": 8899, "Ġpublicaciones": 8900, "iese": 8901, "Ġdeportes": 8902, "ĠCL": 8903, "ĠPes": 8904, "Ġabandonar": 8905, "ĠturÃŃstica": 8906, "Ġdeterminar": 8907, "Ġfirmas": 8908, "Ġigualmente": 8909, "Ġprofundidad": 8910, "Ġbajar": 8911, "fÃ³nica": 8912, "Ġpodremos": 8913, "ĠXunta": 8914, "ot": 8915, "Ġcuota": 8916, "Ġconstituye": 8917, "ĠprestaciÃ³n": 8918, "ĠMediterrÃ¡neo": 8919, "Ġaudiencia": 8920, "avajillas": 8921, "TAN": 8922, "Pal": 8923, "caba": 8924, "Ġterminado": 8925, "ĠMuÃ±oz": 8926, "Ġencuentros": 8927, "Ġbeso": 8928, "jante": 8929, "ĠCAM": 8930, "Ġabund": 8931, "Ġcolectiva": 8932, "Ġafili": 8933, "tund": 8934, "Ġfemenino": 8935, "iguras": 8936, "Ġaprueba": 8937, "Ġhered": 8938, "ĠRodr": 8939, "ixa": 8940, "ĠVO": 8941, "Ġinteresado": 8942, "ĠUsuario": 8943, "Ġaos": 8944, "Ġsegura": 8945, "Ġresumen": 8946, "Ġaumenta": 8947, "ĠChampions": 8948, "Ġdichos": 8949, "ĠGr": 8950, "TV": 8951, "ĠdiseÃ±ado": 8952, "ego": 8953, "Ġentrenamiento": 8954, "Ġpertenece": 8955, "Ġtrama": 8956, "bÃºs": 8957, "ĠjurÃŃdica": 8958, "Ġponiendo": 8959, "Ġsupera": 8960, "Ġsalen": 8961, "osten": 8962, "Ġconceptos": 8963, "Ġcomod": 8964, "ĠGil": 8965, "Ġproporcionar": 8966, "Ġclaus": 8967, "gia": 8968, "ĠTE": 8969, "ĠhÃ¡bitos": 8970, "ĠOR": 8971, "Ġbiblioteca": 8972, "Ġcambia": 8973, "ĠOJD": 8974, "ĠInstal": 8975, "Ġpaisaje": 8976, "ĠLibro": 8977, "orio": 8978, "Ã©ramos": 8979, "75": 8980, "Sal": 8981, "Ġabsoluto": 8982, "ĠJuzgado": 8983, "Ġnecesitas": 8984, "iosas": 8985, "ĠFacultad": 8986, "Ġrutas": 8987, "Ġquede": 8988, "Ġtierras": 8989, "ĠCarm": 8990, "Ġsucede": 8991, "ĠautÃ³nomas": 8992, "ĠRespon": 8993, "ĠProfesional": 8994, "brado": 8995, "Ġliga": 8996, "Ġingred": 8997, "Ġtriunf": 8998, "Ġinvertir": 8999, "ĠsabÃŃa": 9000, "ĠAire": 9001, "aller": 9002, "Ġeficacia": 9003, "ĠraÃŃz": 9004, "Ġterrorista": 9005, "Ġpublicados": 9006, "ĠCOR": 9007, "Ġverdadera": 9008, "Ġintr": 9009, "Ġregiones": 9010, ":)": 9011, "Ġusa": 9012, "Ġrepercu": 9013, "Ġpene": 9014, "esto": 9015, "Ġesposa": 9016, "ARC": 9017, "ĠAcciÃ³n": 9018, "Ġsimul": 9019, "Ġcere": 9020, "ĠcafÃ©": 9021, "Ġllamadas": 9022, "ergencias": 9023, "Ġdesay": 9024, "mend": 9025, "Ġregu": 9026, "ĠPuente": 9027, "Ciudad": 9028, "tÃ³graf": 9029, "fob": 9030, "Gran": 9031, "Ġcartas": 9032, "cript": 9033, "ĠincorporaciÃ³n": 9034, "ĠautÃ³nomos": 9035, "Ġrecomendaciones": 9036, "Ġ[+": 9037, "ĠSantos": 9038, "Ġkilos": 9039, "dol": 9040, "ĠEstoy": 9041, "CIO": 9042, "ĠPC": 9043, "ĠNeg": 9044, "ĠAÃºn": 9045, "Ġretirada": 9046, "Ġreglas": 9047, "Ġindustriales": 9048, "Ġsufre": 9049, "Ġcarreras": 9050, "Ġespectadores": 9051, "ĠCÃ³mo": 9052, "Ġvivido": 9053, "Ġuniversal": 9054, "Ġsalvar": 9055, "Ġhabituales": 9056, "lÃ¡n": 9057, "Ca": 9058, "Ġurnas": 9059, "quilla": 9060, "Ġejercicios": 9061, "vante": 9062, "ĠHIS": 9063, "Ġplas": 9064, "ĠpodÃ©is": 9065, "iki": 9066, "ĠTR": 9067, "ĠSr": 9068, "ther": 9069, "Ġcorrecto": 9070, "Ġobservar": 9071, "Ã³logos": 9072, "Ġfinalizar": 9073, "ĠConce": 9074, "ÃŃes": 9075, "Ġsiga": 9076, "Ġfallo": 9077, "Ġcompens": 9078, "ĠInstagram": 9079, "Ġvirus": 9080, "mis": 9081, "Ġintensidad": 9082, "cens": 9083, "ĠPir": 9084, "ĠInglaterra": 9085, "Ġ2003": 9086, "Ġlesiones": 9087, "ĠFron": 9088, "Ġrecientes": 9089, "Ġcondenado": 9090, "ĠCC": 9091, "ĠLaura": 9092, "Ġprolon": 9093, "Ġviajeros": 9094, "Ġcontinuidad": 9095, "quillo": 9096, "Ġanaliza": 9097, "Ġinvitados": 9098, "uelto": 9099, "Ġrespal": 9100, "ĠPac": 9101, "Ġestima": 9102, "Ġcriterio": 9103, "Ġefectivo": 9104, "Ġcarreteras": 9105, "Ġizquierdas": 9106, "ĠjardÃŃn": 9107, "ifin": 9108, "Ġlum": 9109, "Ġcha": 9110, "Ġconocemos": 9111, "Ġcarn": 9112, "INA": 9113, "Ġhablan": 9114, "ÃŃnsula": 9115, "Ġvestido": 9116, "Ġestadio": 9117, "Ġpata": 9118, "ĠMora": 9119, "ike": 9120, "Ġprotesta": 9121, "31": 9122, "Ġtrabajado": 9123, "Ġbro": 9124, "Ġcompuesto": 9125, "ĠSoy": 9126, "Ġfur": 9127, "gip": 9128, "ries": 9129, "Ġ155": 9130, "Ġamiga": 9131, "stru": 9132, "illar": 9133, "Ġexpectativas": 9134, "inados": 9135, "Ġcomenta": 9136, "Ġpositiva": 9137, "Ġplen": 9138, "untamente": 9139, "Ġiban": 9140, "ĠVill": 9141, "ĠSoria": 9142, "Ġpreviamente": 9143, "Ã©rico": 9144, "ĠNor": 9145, "Ġquiso": 9146, "ĠCual": 9147, "ĠTampoco": 9148, "ih": 9149, "ĠCarr": 9150, "IE": 9151, "Ġanuales": 9152, "cÃ³mo": 9153, "TS": 9154, "Ġpreocup": 9155, "Ġagente": 9156, "Ġremo": 9157, "dias": 9158, "Ġpanorama": 9159, "ĠgarantÃŃas": 9160, "ĠfilosofÃŃa": 9161, "Ġcantidades": 9162, "Ġrescate": 9163, "ĠsatisfacciÃ³n": 9164, "Per": 9165, "Ġpresunto": 9166, "Ġbord": 9167, "Ġdrogas": 9168, "Ġobligaciones": 9169, "Ġbrasile": 9170, "ĠimpresiÃ³n": 9171, "ĠSen": 9172, "how": 9173, "amÃ©rica": 9174, "Ġvel": 9175, "Ġprevista": 9176, "Ġinvestigaciones": 9177, "Ġvalorar": 9178, "Ġimpulso": 9179, "ĠSue": 9180, "ĠdecoraciÃ³n": 9181, "Ġ55": 9182, "anim": 9183, "ĠIncluso": 9184, "verde": 9185, "Ġdevolver": 9186, "rante": 9187, "Ġasal": 9188, "ĠLorenzo": 9189, "udela": 9190, "ĠaficiÃ³n": 9191, "ENA": 9192, "iÃ©ndose": 9193, "Ġuniverso": 9194, "inosa": 9195, "Ġaseguran": 9196, "ĠIP": 9197, "ĠApar": 9198, "Ġmanipul": 9199, "Ġrol": 9200, "Ġcorred": 9201, "idel": 9202, "Ġrebaj": 9203, "Ġorganizada": 9204, "adura": 9205, "ĠMercedes": 9206, "medio": 9207, "Ġcomenzado": 9208, "Ġbarco": 9209, "ĠautonÃ³mico": 9210, "mina": 9211, "Ġincrementar": 9212, "%),": 9213, "Ġ[+]": 9214, "ipu": 9215, "Ġamistad": 9216, "rafo": 9217, "kia": 9218, "Ġinstrumento": 9219, "ĠGlo": 9220, "Ġmoderno": 9221, "Ġsalas": 9222, "Ġfavoritos": 9223, "Ġhumanidad": 9224, "Gu": 9225, "Ġargentino": 9226, "ĠreÃºne": 9227, "ĠExper": 9228, "ĠIzquierda": 9229, "ĠpolicÃŃas": 9230, "abuena": 9231, "Ġprima": 9232, "ĠEspero": 9233, "Ġcongreso": 9234, "TML": 9235, "Ġinoc": 9236, "ĠHerman": 9237, "2018": 9238, "Ġpasajeros": 9239, "ĠRamos": 9240, "arre": 9241, "Ġfiguras": 9242, "press": 9243, "ĠGijÃ³n": 9244, "ORES": 9245, "rol": 9246, "geno": 9247, "ĠPÃºblicas": 9248, "Ġustedes": 9249, "Ġdesempleo": 9250, "Ġcitado": 9251, "ĠimplantaciÃ³n": 9252, "ĠPul": 9253, "LAN": 9254, "65": 9255, "Ġaccidentes": 9256, "Ġestados": 9257, "quilidad": 9258, "Ġapuntado": 9259, "Ġdespl": 9260, "ds": 9261, "ĠDentro": 9262, "ĠContin": 9263, "Ġdeterminados": 9264, "Ġsecretaria": 9265, "Ġexpans": 9266, "utube": 9267, "ĠextensiÃ³n": 9268, "ragon": 9269, "ueble": 9270, "ĠcoordinaciÃ³n": 9271, "diales": 9272, "ĠcrÃ©ditos": 9273, "segur": 9274, "Ġprestar": 9275, "omÃ©": 9276, "ispo": 9277, "Ġascend": 9278, "Ġemble": 9279, "loria": 9280, "ĠReglamento": 9281, "Ġparlamentario": 9282, "hum": 9283, "ics": 9284, "ĠPersonal": 9285, "Ġci": 9286, "ĠMicrosoft": 9287, "ÃŃtimo": 9288, "Ġreivin": 9289, "Ġenrique": 9290, "ĠONU": 9291, "Ten": 9292, "ĠChar": 9293, "Ġubicado": 9294, "ĠotoÃ±o": 9295, "ĠmetÃ¡": 9296, "Ġconcejales": 9297, "Ġvoces": 9298, "ĠHuesca": 9299, "Ġcomprender": 9300, "ĠGrand": 9301, "Ġlanzado": 9302, "ĠResoluciÃ³n": 9303, "Ġdarse": 9304, "ĠSiria": 9305, "estr": 9306, "ĠpropÃ³sito": 9307, "Ġprovocado": 9308, "ĠenergÃ©tica": 9309, "Ġaprobar": 9310, "Ġapuestas": 9311, "Ġboda": 9312, "Ġdenunciado": 9313, "tadura": 9314, "ĠMartin": 9315, "Ġend": 9316, "Ġvuestra": 9317, "Ġcorrecta": 9318, "Ġsanitarios": 9319, "ĠlesiÃ³n": 9320, "ĠFl": 9321, "Ġnotas": 9322, "ĠAthletic": 9323, "Ġquedarse": 9324, "Ġavanzar": 9325, "Ġdecide": 9326, "ĠocupaciÃ³n": 9327, "ĠObs": 9328, "Ġriv": 9329, "ĠDeportivo": 9330, "Ġjueces": 9331, "Ġatro": 9332, "OG": 9333, "Ġtermina": 9334, "ĠCompar": 9335, "Ġrato": 9336, "illera": 9337, "ENES": 9338, "piÃ©": 9339, "ĠCastellÃ³n": 9340, "OE": 9341, "Ġventana": 9342, "Ġenmar": 9343, "Ġetiquetas": 9344, "Ġhorm": 9345, "ĠcatÃ¡logo": 9346, "quista": 9347, "Ġbille": 9348, "Ġnotable": 9349, "04": 9350, "tito": 9351, "ĠVictoria": 9352, "Ġanteriormente": 9353, "ĠFre": 9354, "ĠreacciÃ³n": 9355, "cloa": 9356, "ides": 9357, "ĠTour": 9358, "irman": 9359, "Ġcaliente": 9360, "Ġfracaso": 9361, "ĠinformÃ³": 9362, "Nav": 9363, "quera": 9364, "Barcelona": 9365, "Ġsemifin": 9366, "ĠpresentarÃ¡": 9367, "Ġeduc": 9368, "Ġsanitario": 9369, "ĠRegional": 9370, "ĠDocu": 9371, "Ġincendios": 9372, "Ġcentenar": 9373, "Ġchico": 9374, "Ġprovoca": 9375, "Ġom": 9376, "ecidos": 9377, "Ġdesigualdad": 9378, "Ġparar": 9379, "ĠAdministraciones": 9380, "Ġapropi": 9381, "ĠmÃ¡quina": 9382, "ĠComunidades": 9383, "gor": 9384, "ÃŃncipe": 9385, "Ġcompetir": 9386, "IDO": 9387, "ĠSerÃ¡": 9388, "Ġtoros": 9389, "Ġgobernar": 9390, "Ġauditada": 9391, "Ġencabez": 9392, "Ã©lulas": 9393, "Ġbarrios": 9394, "ruecos": 9395, "ĠPese": 9396, "osas": 9397, "ĠcombinaciÃ³n": 9398, "Ã¡us": 9399, "queras": 9400, "lleer": 9401, "Ġmaestro": 9402, "Ġnacido": 9403, "Una": 9404, ",,": 9405, "CL": 9406, "Ġconsciente": 9407, "Ġterraza": 9408, "ME": 9409, "ĠSor": 9410, "Ġciertas": 9411, "ĠPIB": 9412, "ĠPrincipado": 9413, "Ġverse": 9414, "Ġempe": 9415, "ĠMossos": 9416, "--------": 9417, "ĠInm": 9418, "Ġregreso": 9419, "ĠHA": 9420, "ĠCara": 9421, "Ġacusa": 9422, "ĠHom": 9423, "Ġeducativa": 9424, "Ġpresos": 9425, "Ġelevado": 9426, "Ġsold": 9427, "ĠdetenciÃ³n": 9428, "Ġabordar": 9429, "Ġcandidata": 9430, "Ġalf": 9431, "Ġodio": 9432, "ĠAdri": 9433, "ĠReparacion": 9434, "Ġhermana": 9435, "Ġequilibrio": 9436, "Ġnoches": 9437, "ĠAgricultura": 9438, "Ġmarch": 9439, "ĠdemocrÃ¡tica": 9440, "Ġcalef": 9441, "ĠAyer": 9442, "IAS": 9443, "Ġlanzar": 9444, "Ġpensado": 9445, "Ġmorir": 9446, "Ġcombatir": 9447, "Pod": 9448, "sh": 9449, "Ġfuese": 9450, "Ġseguramente": 9451, "ight": 9452, "ĠescribiÃ³": 9453, "ĠPepa": 9454, "Ġtabl": 9455, "Ġtea": 9456, "Ġparejas": 9457, "Ġrecomienda": 9458, "Ġofens": 9459, "Ġconflictos": 9460, "ciado": 9461, "Ġsepara": 9462, "ÃŃcula": 9463, "Ġbols": 9464, "Ġrecinto": 9465, "ĠfÃ³rmula": 9466, "Ġescolares": 9467, "Ġ42": 9468, "oll": 9469, "Ġproporciona": 9470, "ĠfantÃ¡s": 9471, "ĠDar": 9472, "ĠAlma": 9473, "Ġprivadas": 9474, "Ã³nimo": 9475, "iden": 9476, "Ġrelacionado": 9477, "ĠGabriel": 9478, "tenga": 9479, "orado": 9480, "venido": 9481, "terapia": 9482, "Ġfib": 9483, "Ġfores": 9484, "ĠEstad": 9485, "bios": 9486, "cera": 9487, "hael": 9488, "FA": 9489, "Ġcocin": 9490, "cinco": 9491, "ej": 9492, "wood": 9493, "ARA": 9494, "Ġperegr": 9495, "Ġdecis": 9496, "estar": 9497, "ĠcirculaciÃ³n": 9498, "ĠToni": 9499, "ĠcariÃ±o": 9500, "ĠNicol": 9501, "Ġpartid": 9502, "Ã©ticos": 9503, "Ġreducido": 9504, "Ġllor": 9505, "Ġfinancieras": 9506, "QuiÃ©n": 9507, "Ġcasco": 9508, "TIC": 9509, "Ġexcu": 9510, "cesa": 9511, "ĠOtras": 9512, "ĠRen": 9513, "telerÃŃa": 9514, "Ġdiscur": 9515, "ĠagresiÃ³n": 9516, "ĠGRA": 9517, "Ġquinto": 9518, "Ġtabla": 9519, "Ġexposiciones": 9520, "Ġalumnado": 9521, "ĠautonÃ³micas": 9522, "Ġsingular": 9523, "ĠRepar": 9524, "Ã±igo": 9525, "ĠResul": 9526, "ĠmostrÃ³": 9527, "Ġescenarios": 9528, "ĠNaciones": 9529, "ĠRecuer": 9530, "inio": 9531, "ĠexcepciÃ³n": 9532, "vic": 9533, "ĠMetro": 9534, "Ġislas": 9535, "Ġdedica": 9536, "ĠApro": 9537, "pista": 9538, "ĠRoja": 9539, "ĠSL": 9540, "Ġaux": 9541, "Ġconsejera": 9542, "iremos": 9543, "Ġrevela": 9544, "Ġorganizar": 9545, "Ġtarjetas": 9546, "Ġjuventud": 9547, "Ġdestinos": 9548, "ĠVER": 9549, "Ġcumplen": 9550, "ĠOf": 9551, "Ġalemana": 9552, "garse": 9553, "ADR": 9554, "ĠEqui": 9555, "ish": 9556, "ĠTim": 9557, "Ġresponsabilidades": 9558, "cura": 9559, "Ġojo": 9560, "Ġlema": 9561, "Ġefectiva": 9562, "bir": 9563, "Ġnovedad": 9564, "ĠLugo": 9565, "Ã±Ã³n": 9566, "Ġhall": 9567, "ĠautobÃºs": 9568, "tÃ³lica": 9569, "Ġconstruy": 9570, "bete": 9571, "Ġabrazo": 9572, "Ġdestinado": 9573, "ĠUtil": 9574, "Ġdrama": 9575, "ĠSegovia": 9576, "taÃ±a": 9577, "Ġruido": 9578, "Ġbicicleta": 9579, "Ġjugue": 9580, "Ġculp": 9581, "Ġcontrad": 9582, "tuario": 9583, "Ġdignidad": 9584, "inete": 9585, "Ġentreten": 9586, "tamo": 9587, "ĠPromo": 9588, "ĠRoberto": 9589, "cieron": 9590, "Ġadj": 9591, "sado": 9592, "ĠGuar": 9593, "Ġespecialista": 9594, "vol": 9595, "ĠAndroid": 9596, "Ġconsultas": 9597, "ĠsuspensiÃ³n": 9598, "Ġmusul": 9599, "Ġconclusiones": 9600, "Cs": 9601, "Ġcum": 9602, "Ġganad": 9603, "Ġenamor": 9604, "leer": 9605, "ecida": 9606, "Ġhaberse": 9607, "Ġladr": 9608, "TORIA": 9609, "Ġhoja": 9610, "ĠadquisiciÃ³n": 9611, "Ġorgullos": 9612, "iblemente": 9613, "Ġdecenas": 9614, "ĠestarÃŃa": 9615, "Ġsuperviv": 9616, "ĠDivisiÃ³n": 9617, "Ġreporta": 9618, "arle": 9619, "Ġsalto": 9620, "Ġmadres": 9621, "Ġgallego": 9622, "ĠCientÃŃf": 9623, "Ġimpedir": 9624, "Ġexpor": 9625, "oraciÃ³n": 9626, "ĠmenÃº": 9627, "Ġlibr": 9628, "ĠSalÃ³n": 9629, "Ġprecip": 9630, "Ġrealizados": 9631, "ionistas": 9632, "vie": 9633, "NO": 9634, "Ġequival": 9635, "Ġevidencia": 9636, "horabuena": 9637, "Ġcampeonato": 9638, "ĠllegarÃ¡": 9639, "PO": 9640, "ĠmÃ©todos": 9641, "Ġdeterior": 9642, "ĠSocialista": 9643, "Ġinsu": 9644, "adu": 9645, "Ġconfes": 9646, "emato": 9647, "Ġdiscos": 9648, "ĠVamos": 9649, "efin": 9650, "jano": 9651, "Ġcena": 9652, "inidad": 9653, "Ġcertificado": 9654, "Ġdesas": 9655, "tenta": 9656, "ĠGarrido": 9657, "tÃºan": 9658, "Ġidiomas": 9659, "ĠEjÃ©rcito": 9660, "ĠteÃ³r": 9661, "Ġestup": 9662, "ĠaverÃŃas": 9663, "bano": 9664, "abell": 9665, "ĠED": 9666, "32": 9667, "Ġdirigente": 9668, "questa": 9669, "ilas": 9670, "iesa": 9671, "ĠCorte": 9672, "nal": 9673, "ĠQU": 9674, "ĠWorld": 9675, "ĠsufriÃ³": 9676, "Ġsuyo": 9677, "trate": 9678, "Ġimpro": 9679, "ĠVOL": 9680, "Ġinstalar": 9681, "denes": 9682, "Ġnecesitamos": 9683, "47": 9684, "Ġtraslado": 9685, "Ġmetodo": 9686, "Ġinvol": 9687, "ser": 9688, "ĠMarruecos": 9689, "Ġespalda": 9690, "Ġmanifestaciones": 9691, "ĠCOMP": 9692, "Ġmatar": 9693, "Ġestructuras": 9694, "ĠConven": 9695, "Ġimpac": 9696, "Ġpatron": 9697, "Ġhec": 9698, "Ġfamosa": 9699, "CIAS": 9700, "Ġllen": 9701, "Co": 9702, "lando": 9703, "uri": 9704, "Ġregalos": 9705, "49": 9706, "oles": 9707, "ÃŃfica": 9708, "baco": 9709, "ianos": 9710, "ĠTes": 9711, "Ġenviado": 9712, "ĠMayo": 9713, "certid": 9714, "ĠFondo": 9715, "ĠHaz": 9716, "cinas": 9717, "ĠPrivacidad": 9718, "Ġjudiciales": 9719, "ĠperdiÃ³": 9720, "ĠEtiquetas": 9721, "ĠharÃ¡n": 9722, "ĠcÃ©lulas": 9723, "ĠCUP": 9724, "Ġpropiedades": 9725, "Ġtendr": 9726, "trÃŃa": 9727, "ĠXVI": 9728, "Esto": 9729, "Ġterroristas": 9730, "ĠCartagena": 9731, "ĠMelilla": 9732, "orros": 9733, "Ġdeterminado": 9734, "mico": 9735, "ĠfabricaciÃ³n": 9736, "Ġsanitaria": 9737, "Ġpostura": 9738, "Ġcierra": 9739, "Ġacogida": 9740, "uncias": 9741, "ĠCÃ¡ceres": 9742, "Ġinvestiga": 9743, "wer": 9744, "Ġcontigo": 9745, "ĠInfantil": 9746, "ganda": 9747, "Su": 9748, "mir": 9749, "ĠcrÃŃtico": 9750, "fran": 9751, "Ġdiscrimin": 9752, "Ġabiertas": 9753, "fia": 9754, "ĠPs": 9755, "ĠLea": 9756, "fund": 9757, "ezol": 9758, "Ġreforzar": 9759, "ĠMercado": 9760, "ence": 9761, "ĠjurÃŃdico": 9762, "ĠNet": 9763, "ĠResta": 9764, "................": 9765, "ĠposesiÃ³n": 9766, "Ġhabilidades": 9767, "Ġaer": 9768, "ĠtendrÃ¡s": 9769, "Ġnegociar": 9770, "Ġpreferencias": 9771, "Ġintrod": 9772, "Ġaqui": 9773, "Ġcontratar": 9774, "ĠMessi": 9775, "Ġasesoramiento": 9776, "ĠdestacÃ³": 9777, "Press": 9778, "Ġsonrisa": 9779, "Ġvalora": 9780, "ĠdÃ©ci": 9781, "uto": 9782, "Ġinversores": 9783, "Nos": 9784, "Ġcontempla": 9785, "Ġfigur": 9786, "Ġpreguntar": 9787, "Ġpion": 9788, "Ġalcanza": 9789, "Ġquince": 9790, "ĠAlcalÃ¡": 9791, "Ġdistinto": 9792, "Ġbajos": 9793, "ĠMoncloa": 9794, "ciende": 9795, "ĠAllÃŃ": 9796, "Ġnecesitar": 9797, "istemas": 9798, "Ġcomparec": 9799, "Ġflamen": 9800, "ment": 9801, "Ġvuestro": 9802, "Ġsufren": 9803, "Ġruedas": 9804, "ses": 9805, "Ġconfigur": 9806, "ĠPola": 9807, "Ġfija": 9808, "Ġembaj": 9809, "Ġheridas": 9810, "Ġtranquilidad": 9811, "ĠPSC": 9812, "Man": 9813, "Ġmanual": 9814, "izÃ³": 9815, "Ġdistingu": 9816, "Ġec": 9817, "100": 9818, "Ġpermanecer": 9819, "ĠObama": 9820, "onesa": 9821, "Ġaplica": 9822, "Ġtreinta": 9823, "tempor": 9824, "ificada": 9825, "ĠSA": 9826, "Ġpobres": 9827, "Ġtrasladado": 9828, "ĠCoordin": 9829, "ĠÃģrea": 9830, "ĠSAL": 9831, "ĠElena": 9832, "ĠBolsa": 9833, "ĠCarre": 9834, "ĠPrimaria": 9835, "Ġfraude": 9836, "Ġfestiv": 9837, "ĠAlta": 9838, "Ġpreven": 9839, "03": 9840, "Ġdormir": 9841, "Ġrepresentar": 9842, "burgo": 9843, "ĠRomero": 9844, "Ġcae": 9845, "ĠdiagnÃ³stico": 9846, "pod": 9847, "ĠincreÃŃble": 9848, "Ġvuelva": 9849, "udos": 9850, "ĠCeuta": 9851, "Ġrevolucion": 9852, "ĠGen": 9853, "Ġcorrer": 9854, "lla": 9855, "Ġglob": 9856, "Ġconcluy": 9857, "Ġhubiese": 9858, "Ġpagos": 9859, "tificar": 9860, "Ġinteligente": 9861, "Ġdisponer": 9862, "IENTO": 9863, "Ġexigir": 9864, "tizado": 9865, "Ġliderazgo": 9866, "Ġdeclarar": 9867, "ĠCarles": 9868, "Ġinn": 9869, "Ġtendremos": 9870, "ĠPiso": 9871, "movil": 9872, "Ġroja": 9873, "ĠTro": 9874, "tines": 9875, "Ġnegativa": 9876, "EE": 9877, "metro": 9878, "ĠPel": 9879, "ĠTex": 9880, "Ġcontribuir": 9881, "ĠLis": 9882, "primir": 9883, "traje": 9884, "ĠPepe": 9885, "Ġcuantos": 9886, "Ġingreso": 9887, "Ġatractivo": 9888, "ILLA": 9889, "timedia": 9890, "Ġplazos": 9891, "Ġpoderes": 9892, "eral": 9893, "ĠTengo": 9894, "Ġmadrid": 9895, "izca": 9896, "timidad": 9897, "tecn": 9898, "TES": 9899, "Ġemails": 9900, "asterio": 9901, "ĠrestauraciÃ³n": 9902, "ĠPaul": 9903, "Ġarres": 9904, "Ġbasa": 9905, "ĠIndia": 9906, "Ġenm": 9907, "ĠPlay": 9908, "ĠMich": 9909, "Ġconfirmar": 9910, "icardo": 9911, "Ġsuficientes": 9912, "ĠOpen": 9913, "ĠelectrodomÃ©sticos": 9914, "Ġconvocar": 9915, "Ġreina": 9916, "inada": 9917, "85": 9918, "Ġnovia": 9919, "ĠautÃ©ntico": 9920, "POR": 9921, "ĠocurriÃ³": 9922, "ĠuniÃ³n": 9923, "Ġespecializado": 9924, "Ġformaciones": 9925, "ĠcomposiciÃ³n": 9926, "icias": 9927, "2011": 9928, "Ġfinancieros": 9929, "Ġsuici": 9930, "Ġmel": 9931, "ĠCampeonato": 9932, "Ġclick": 9933, "ĠNosotros": 9934, "Ġmecanismos": 9935, "Ġlevantar": 9936, "Ġtratados": 9937, "ĠZamora": 9938, "Ġbes": 9939, "ĠplÃ¡stico": 9940, "ĠautomÃ³vil": 9941, "Ġlici": 9942, "Ġdefinitivo": 9943, "Ġsuman": 9944, "ĠLar": 9945, "izando": 9946, "Ġfronteras": 9947, "Ġprovisional": 9948, "Ġ250": 9949, "Ġmuestras": 9950, "Ġarma": 9951, "ÃŃg": 9952, "Ġsuministro": 9953, "ĠtransiciÃ³n": 9954, "ĠVAL": 9955, "Ġcontamos": 9956, "Ġinfantiles": 9957, "ĠUniversitario": 9958, "Ġproclam": 9959, "ĠactualizaciÃ³n": 9960, "tiende": 9961, "Ġimponer": 9962, "Ġconquis": 9963, "Ġprimarias": 9964, "Ġpromov": 9965, "ĠcomparaciÃ³n": 9966, "ĠLabor": 9967, "Ġempate": 9968, "Ġfans": 9969, "Ġpienso": 9970, "aso": 9971, "Ġconces": 9972, "martph": 9973, "ĠKe": 9974, "Ġamenazas": 9975, "Ġdesm": 9976, "Ġbanca": 9977, "quero": 9978, "Ġrecurr": 9979, "ĠNorm": 9980, "abal": 9981, "Ġdejamos": 9982, "crÃŃbete": 9983, "ĠOrgÃ¡nica": 9984, "Ġhorarios": 9985, "ĠÃģngeles": 9986, "ĠGala": 9987, "tional": 9988, "ĠSea": 9989, "ĠEv": 9990, "Ġprevenir": 9991, "Ġurgencia": 9992, "ny": 9993, "ĠCÃ³digo": 9994, "ĠMaria": 9995, "Ġcomunicar": 9996, "ĠhistÃ³ricos": 9997, "ĠViviendas": 9998, "ĠPeÃ±a": 9999, "ĠCuba": 10000, "Ġejecutivo": 10001, "Ġargumentos": 10002, "utos": 10003, "Ã©ndez": 10004, "Ġconsenso": 10005, "Ġabogados": 10006, "rÃ¡tico": 10007, "ĠFotos": 10008, "ĠEva": 10009, "95": 10010, "Ġfum": 10011, "ings": 10012, "Ġsacr": 10013, "plan": 10014, "Ġcajas": 10015, "Ġavanzado": 10016, "ĠCala": 10017, "Ġhambre": 10018, "Ġmetal": 10019, "Ġviviendo": 10020, "Ġreproduc": 10021, "isco": 10022, "Ãºr": 10023, "esas": 10024, "ĠdefiniciÃ³n": 10025, "URL": 10026, "soci": 10027, "Ġvende": 10028, "Ã±e": 10029, "Ġconferencias": 10030, "Ġasom": 10031, "Ġretra": 10032, "ĠBlack": 10033, "ĠEsteban": 10034, "Ġquinta": 10035, "Ġindividuales": 10036, "ĠComple": 10037, "ĠemisiÃ³n": 10038, "ĠMedicina": 10039, "Ġtasas": 10040, "Ġprogreso": 10041, "Ġbron": 10042, "Ġbac": 10043, "Ġincidencia": 10044, "Ġpistas": 10045, "Ġrepresentan": 10046, "ĠINF": 10047, "ÃŃnea": 10048, "Ġinex": 10049, "Ġcaza": 10050, "Ġfutur": 10051, "ceta": 10052, "02": 10053, "ĠelectrÃ³nicos": 10054, "ĠJaime": 10055, "ĠeliminaciÃ³n": 10056, "Ġdas": 10057, "Ġ44": 10058, "Ġdiputada": 10059, "Ġroj": 10060, "Ġtribunales": 10061, "ĠÃīl": 10062, "Ġpiernas": 10063, "ĠContacto": 10064, "Ġpresentada": 10065, "gÃ¼enza": 10066, "Ġestrena": 10067, "ĠFon": 10068, "ĠpoesÃŃa": 10069, "gÃ³n": 10070, "Ġsobres": 10071, "ĠautÃ³noma": 10072, "ĠiniciÃ³": 10073, "Ġcorpora": 10074, "Ġcapaci": 10075, "ĠCristiano": 10076, "Ġrefleja": 10077, "Ġestric": 10078, "timas": 10079, "Ġduelo": 10080, "vias": 10081, "ĠdebÃŃa": 10082, "Ġincertid": 10083, "Ġediciones": 10084, "ĠJames": 10085, "Ġescribe": 10086, "idencial": 10087, "Ġsaludo": 10088, "ĠAngel": 10089, "Ã¡ndal": 10090, "Ġconcer": 10091, "Ġrelevantes": 10092, "Ġetique": 10093, "Ġreciben": 10094, "cionistas": 10095, "Ġagradable": 10096, "Ġrio": 10097, "Ġtranscur": 10098, "Ġjugada": 10099, "ĠOscar": 10100, "Ġresidentes": 10101, "Ġdocentes": 10102, "ava": 10103, "Ġtejido": 10104, "unciÃ³n": 10105, "Ġtratado": 10106, "Ġelimina": 10107, "nis": 10108, "ĠsÃŃntomas": 10109, "Ġmedieval": 10110, "aunque": 10111, "Ġrelacionada": 10112, "ika": 10113, "END": 10114, "eladas": 10115, "ĠGU": 10116, "culaciÃ³n": 10117, "Ġletra": 10118, "ĠÃ©stos": 10119, "Ġarena": 10120, "ĠsueÃ±os": 10121, "hay": 10122, "Ġproveedores": 10123, "ĠvolverÃ¡": 10124, "ĠreligiÃ³n": 10125, "ĠpÃ©rdidas": 10126, "gresos": 10127, "Ġcolaborar": 10128, "tiner": 10129, "ĠPapa": 10130, "Ġdespla": 10131, "blogs": 10132, "Ġfutbolista": 10133, "eciendo": 10134, "Ġaparte": 10135, "AA": 10136, "Ġcamiseta": 10137, "urense": 10138, "Ġinmediatamente": 10139, "ĠrecepciÃ³n": 10140, "ejo": 10141, "Ġchoque": 10142, "Ġganan": 10143, "Ġbandas": 10144, "Ã¨ncia": 10145, "ĠVisita": 10146, "Ġcentrales": 10147, "Ġignor": 10148, "Ġcopia": 10149, "ise": 10150, "ĠfotÃ³graf": 10151, "Ġdescarga": 10152, "Ġnavide": 10153, "Ġconcluye": 10154, "ĠUrban": 10155, "ĠJunto": 10156, "Ġsueldo": 10157, "Ġlateral": 10158, "Ġregistrados": 10159, "ĠVÃ¡zquez": 10160, "Ġbrillante": 10161, "Ġterritorios": 10162, "trar": 10163, "partamentos": 10164, "ificio": 10165, "Ġcharla": 10166, "Ġtecho": 10167, "ĠestÃ©tica": 10168, "ĠPlataforma": 10169, "Ġtemporadas": 10170, "ĠautonÃ³mica": 10171, "ĠRaÃºl": 10172, "EG": 10173, "ĠpodÃŃan": 10174, "Ġcomisiones": 10175, "ĠSanz": 10176, "Ġrico": 10177, "Ġvigilancia": 10178, "Ġdios": 10179, "ĠDani": 10180, "Ġ2001": 10181, "Ġmedicina": 10182, "Ġsentimientos": 10183, "Ġcoopera": 10184, "Ġcaras": 10185, "Ġfrag": 10186, "Ġquieras": 10187, "ĠmÃ¡g": 10188, "JE": 10189, "cela": 10190, "Ġsuperado": 10191, "Ġfueran": 10192, "ĠZona": 10193, "mÃ¡ticamente": 10194, "Ġnoc": 10195, "ĠbritÃ¡nica": 10196, "2017": 10197, "ĠportÃ¡": 10198, "cando": 10199, "ril": 10200, "Ġ(\"": 10201, "Ġparlamentaria": 10202, "Ġparro": 10203, "Ġsalario": 10204, "ĠAlgunas": 10205, "imnas": 10206, "Ġinfrac": 10207, "Ġconsumidor": 10208, "ĠÃģvila": 10209, "ciosa": 10210, "ficos": 10211, "Ġadvers": 10212, "ĠEH": 10213, "Ġcitas": 10214, "Ġempresariales": 10215, "ĠHuman": 10216, "Ġvisual": 10217, "ĠredacciÃ³n": 10218, "Ġindependentista": 10219, "ĠReservados": 10220, "Ġchocola": 10221, "Ġestudiante": 10222, "Ġcondu": 10223, "vÃ¡n": 10224, "ĠcontÃ³": 10225, "ĠNunca": 10226, "Ġparada": 10227, "ĠCond": 10228, "Ġsensibilidad": 10229, "Ġportero": 10230, "fl": 10231, "Ġpoeta": 10232, "ĠPropi": 10233, "iti": 10234, "Ġconvocado": 10235, "Ġpotente": 10236, "Ġdesprend": 10237, "Ġicono": 10238, "ĠMolina": 10239, "Ġrup": 10240, "Ġmaestra": 10241, "Ġcombina": 10242, "Ġnace": 10243, "Ġhaces": 10244, "ĠMarcos": 10245, "ĠPeriod": 10246, "tÃ©r": 10247, "ĠSara": 10248, "Ġhabil": 10249, "kin": 10250, "Ġdeje": 10251, "Ġcurr": 10252, "Ġmuebles": 10253, "Ġsug": 10254, "ĠSpa": 10255, "ĠMichael": 10256, "ecimiento": 10257, "Ġdestru": 10258, "ĠinauguraciÃ³n": 10259, "Ġenfrenta": 10260, "Ġmontaje": 10261, "ĠCervantes": 10262, "Ġjugando": 10263, "ĠrehabilitaciÃ³n": 10264, "ervatorio": 10265, "Ġingredientes": 10266, "lava": 10267, "Este": 10268, "ĠInicio": 10269, "Ġcubierta": 10270, "iedad": 10271, "ĠEstatal": 10272, "Ġreservas": 10273, "Ġnomin": 10274, "iko": 10275, "Ġaustr": 10276, "ĠWordPress": 10277, "ĠvÃ¡lido": 10278, "ĠFC": 10279, "Ġacontecimientos": 10280, "ĠRevista": 10281, "pue": 10282, "Ġpoliciales": 10283, "Ġreparar": 10284, "Ġcircular": 10285, "Ġvalenciano": 10286, "Ġllegando": 10287, "Ġriguros": 10288, "uertos": 10289, "Ġrub": 10290, "gono": 10291, "ĠÃ¡ra": 10292, "Ã¡menes": 10293, "Ġesque": 10294, "ĠHistÃ³r": 10295, "Ġinformaciones": 10296, "Ġtransmi": 10297, "Ġtransmitir": 10298, "Ġbasura": 10299, "Ġsombra": 10300, "ĠconclusiÃ³n": 10301, "ĠCAL": 10302, "Ġsostiene": 10303, "Ã³nicas": 10304, "Ġbaloncesto": 10305, "Ġseme": 10306, "ĠNoche": 10307, "ĠRespecto": 10308, "ĠnaciÃ³n": 10309, "ĠazÃºcar": 10310, "Ġdocente": 10311, "ĠAmbos": 10312, "ĠelÃ©ctricos": 10313, "Ġllaman": 10314, "44": 10315, "ĠAguirre": 10316, "ĠJornadas": 10317, "Ġprioridad": 10318, "Ġsabido": 10319, "Ġacoso": 10320, "Ġconscientes": 10321, "ĠLugar": 10322, "ĠLeon": 10323, "Ġensay": 10324, "bor": 10325, "Ġmediados": 10326, "Ġpaga": 10327, "Ġcuartos": 10328, "Ġintentando": 10329, "Ġpudieron": 10330, "terial": 10331, "Ġfavorito": 10332, "ÃģS": 10333, "Ġluces": 10334, "pitales": 10335, "guÃ©s": 10336, "sable": 10337, "::": 10338, "Ġhem": 10339, "ĠObtenga": 10340, "ĠFalta": 10341, "drÃ¡n": 10342, "ĠVillan": 10343, "Ġconmigo": 10344, "Ġdegus": 10345, "88": 10346, "ĠPontevedra": 10347, "Ġsinies": 10348, "ĠfundaciÃ³n": 10349, "Ġcaminos": 10350, "ÃŃcola": 10351, "Ġvilla": 10352, "ciÃĥ": 10353, "Ġtable": 10354, "Ġactualizaciones": 10355, "roga": 10356, "ĠMarina": 10357, "Ġcerem": 10358, "ĠSecciÃ³n": 10359, "Ġcreada": 10360, "Ġvenezol": 10361, "ĠnotificaciÃ³n": 10362, "Ġinterno": 10363, "venta": 10364, "Ġargumento": 10365, "ĠMÃ¡ster": 10366, "Ġdiga": 10367, "Ġcelebrada": 10368, "lara": 10369, "Ġnoctur": 10370, "Ġincen": 10371, "Ġqueso": 10372, "iÃ¡n": 10373, "ĠDonald": 10374, "Ġdefinir": 10375, "Ġcomunic": 10376, "Ġdistinta": 10377, "ĠXVIII": 10378, "Ġdesvel": 10379, "Ġvasca": 10380, "Ġrecorrer": 10381, "Ġ120": 10382, "ĠBuenos": 10383, "Ġcomentado": 10384, "Ġocta": 10385, "ĠJuventud": 10386, "Ġexceso": 10387, "ede": 10388, "ĠespecÃŃfico": 10389, "ĠSofÃŃa": 10390, "ĠbÃ¡sicas": 10391, "ĠKar": 10392, "Ġafr": 10393, "ĠPRES": 10394, "lico": 10395, "Ġverdes": 10396, "ĠMÃ¡r": 10397, "ĠÃŃndice": 10398, "dÃ³n": 10399, "ĠTurquÃŃa": 10400, "Ġcometido": 10401, "Ġdiaria": 10402, "Ġsecretos": 10403, "ĠRT": 10404, "abas": 10405, "Ġgeneraciones": 10406, "Ġsostenibilidad": 10407, "ĠÃ¡rboles": 10408, "Ġdescubierto": 10409, "Ġperpe": 10410, "Ġestando": 10411, "Ġcoger": 10412, "Ġdenunciar": 10413, "ĠLavadoras": 10414, "ube": 10415, "Ġwebs": 10416, "Ġdeterminadas": 10417, "Ġagra": 10418, "Ġvayan": 10419, "tizar": 10420, "ecre": 10421, "ĠVideo": 10422, "ĠCursos": 10423, "izka": 10424, "Ã©sped": 10425, "ĠEduca": 10426, "Ġpur": 10427, "Ġcolon": 10428, "Ġceb": 10429, "ĠAgus": 10430, "ÃŃstrate": 10431, "Ġdemandas": 10432, "Ġadministrativa": 10433, "Ġeco": 10434, "Ġpunta": 10435, "Ġjeje": 10436, "Ġcomicios": 10437, "ximo": 10438, "ĠBay": 10439, "Ġcercana": 10440, "Ġcaballo": 10441, "tea": 10442, "stica": 10443, "till": 10444, "Ġmemor": 10445, "adilla": 10446, "Ġpuro": 10447, "Ġcreatividad": 10448, "ormes": 10449, "Ġrurales": 10450, "dicas": 10451, "Ġvascos": 10452, "].": 10453, "Ġ46": 10454, "Ġpeligroso": 10455, "ĠBru": 10456, "ejas": 10457, "ĠcomitÃ©": 10458, "izas": 10459, "ĠRA": 10460, "Ġdulce": 10461, "Ġsupuestos": 10462, "Ġtorre": 10463, "Ġtrae": 10464, "Ġadolescentes": 10465, "Ġrelevante": 10466, "Ġinsistido": 10467, "ĠAznar": 10468, "Ġconlle": 10469, "Ġtuviera": 10470, "Ġdichas": 10471, "PD": 10472, "iciosa": 10473, "Ġtesis": 10474, "Ġcinta": 10475, "Ġagradecer": 10476, "Ġpudieran": 10477, "Ġaparato": 10478, "ĠRibera": 10479, "bral": 10480, "ĠabriÃ³": 10481, "Ġ47": 10482, "Ġdespre": 10483, "ĠRicardo": 10484, "\";": 10485, "Ġhiper": 10486, "CN": 10487, "Ġabusos": 10488, "eran": 10489, "ĠSelec": 10490, "ĠMAN": 10491, "Ġdibujos": 10492, "Ġacusados": 10493, "Ġclubes": 10494, "Ã¡ver": 10495, "lamiento": 10496, "Ġdescuentos": 10497, "Â©": 10498, "Ġindican": 10499, "ĠTorra": 10500, "Ġestaciones": 10501, "ĠGirona": 10502, "ĠbaÃ±": 10503, "Ġarbi": 10504, "Ġcurioso": 10505, "Ġcreciente": 10506, "grad": 10507, "incu": 10508, "Ġterrenos": 10509, "Ġcomposi": 10510, "ĠCro": 10511, "Ġparado": 10512, "Ġcruc": 10513, "Ġconducir": 10514, "Ġdictadura": 10515, "CR": 10516, "ĠtramitaciÃ³n": 10517, "zano": 10518, "icioso": 10519, "Ġlogo": 10520, "Ġefectivos": 10521, "ĠINTER": 10522, "Ġcreemos": 10523, "tusias": 10524, "arquÃŃa": 10525, "bloque": 10526, "Ġvoluntarios": 10527, "ĠaprobÃ³": 10528, "Ġvid": 10529, "ĠDIS": 10530, "ĠSpor": 10531, "Ġrespaldo": 10532, "Ġhogares": 10533, "Ġcontund": 10534, "tone": 10535, "Ġcolombi": 10536, "ĠencontrÃ³": 10537, "ĠAustralia": 10538, "Ġvirtud": 10539, "TAR": 10540, "ĠcuÃ¡les": 10541, "DAD": 10542, "Ġbrazos": 10543, "cara": 10544, "ĠConcurso": 10545, "Ġcreciendo": 10546, "ant": 10547, "Ġreti": 10548, "ĠEstra": 10549, "ĠEstre": 10550, "haus": 10551, "ĠTweets": 10552, "ĠCOMUN": 10553, "Ġaspira": 10554, "ĠvacÃŃo": 10555, "Ġcod": 10556, "tren": 10557, "lum": 10558, "ĠIslas": 10559, "Ġvege": 10560, "Ġregistros": 10561, "Ġri": 10562, "Ġemis": 10563, "Ġcoron": 10564, "ĠTel": 10565, "Ġconcienci": 10566, "ĠDin": 10567, "xa": 10568, "ĠaceptaciÃ³n": 10569, "ORMA": 10570, "Ġguardar": 10571, "ĠAlgo": 10572, "OLA": 10573, "Ġreligion": 10574, "isteria": 10575, "ĠMED": 10576, "ĠControl": 10577, "Ġexplicaciones": 10578, "Ġafectado": 10579, "Ġconjunta": 10580, "ĠconsideraciÃ³n": 10581, "uca": 10582, "Ġllevando": 10583, "Ġrelativa": 10584, "ĠterminÃ³": 10585, "ĠOF": 10586, "Ġvicepresidenta": 10587, "ĠÃºnicos": 10588, "Ġvuelven": 10589, "Ġincorpora": 10590, "ĠcÃ³": 10591, "Ġandaluza": 10592, "-.": 10593, "Ġviva": 10594, "Ad": 10595, "estro": 10596, "ĠTab": 10597, "ĠMUN": 10598, "ferm": 10599, "ĠSud": 10600, "ĠclÃ¡us": 10601, "Ġfrac": 10602, "ciano": 10603, "ĠLuna": 10604, "Ġesencia": 10605, "adra": 10606, "Ġinsufici": 10607, "ĠAlquil": 10608, "Ġcach": 10609, "Ġemocional": 10610, "lÃ¡mico": 10611, "ritos": 10612, "ÃŃrculo": 10613, "ĠirÃ¡": 10614, "ĠPeriÃ³": 10615, "ĠsÃ©pti": 10616, "ĠNada": 10617, "Ġfacilita": 10618, "Ġilustrada": 10619, "ĠcadÃ¡ver": 10620, "Ġdebatir": 10621, "Ġaparcamiento": 10622, "ĠmÃ¡quinas": 10623, "Ġafectan": 10624, "Ġprecar": 10625, "ĠorientaciÃ³n": 10626, "ĠDemoc": 10627, "Ġempiez": 10628, "ĠturÃŃsticos": 10629, "URO": 10630, "ĠcomenzarÃ¡": 10631, "Ġ,": 10632, "Ġbailar": 10633, "Ġgigante": 10634, "allas": 10635, "Ġdestacados": 10636, "Ġbarro": 10637, "ĠCic": 10638, "popul": 10639, "Ġevolu": 10640, "Ġalej": 10641, "ucos": 10642, "Ġcuidar": 10643, "Ġcritica": 10644, "Ġintervenciones": 10645, "Ġevid": 10646, "jon": 10647, "Ġexplican": 10648, "Ġfinaliz": 10649, "Ġnuclear": 10650, "tividades": 10651, "ĠPublicidad": 10652, "abra": 10653, "chi": 10654, "Ġfui": 10655, "Ġmesas": 10656, "ĠOri": 10657, "Ġejemplares": 10658, "Ġvisitante": 10659, "ĠdeclarÃ³": 10660, "Ġesperamos": 10661, "ĠCadena": 10662, "edas": 10663, "Mi": 10664, "Ġcron": 10665, "igh": 10666, "Ġseleccionar": 10667, "ĠTomÃ¡s": 10668, "Ġdeportivos": 10669, "VD": 10670, "Ġemociones": 10671, "Ġcompartido": 10672, "ĠpondrÃ¡": 10673, "buses": 10674, "Ġabsor": 10675, "Ġfundador": 10676, "aÃ±os": 10677, "Ġaluminio": 10678, "ĠinclusiÃ³n": 10679, "Ġfabricantes": 10680, "Ġprestigio": 10681, "Ã©lgica": 10682, "Ġconcretamente": 10683, "Sab": 10684, "Ġfus": 10685, "pedia": 10686, "Ġreduce": 10687, "Par": 10688, "Ġlistado": 10689, "ionista": 10690, "Ġinsta": 10691, "ueso": 10692, "Ġdenuncias": 10693, "ĠPra": 10694, "Ġcaj": 10695, "Ã³gicos": 10696, "Ġreferencias": 10697, "Ġbaile": 10698, "Ġprofunda": 10699, "Ġsentar": 10700, "Ġrentabilidad": 10701, "ĠWal": 10702, "Ġdirigir": 10703, "Ġfemenina": 10704, "Ġcuadros": 10705, "ĠGuti": 10706, "Ġapoya": 10707, "Ġprotestas": 10708, "Ġcompromisos": 10709, "ADRID": 10710, "ĠlÃŃqu": 10711, "ĠSecretarÃŃa": 10712, "ĠexpansiÃ³n": 10713, "ĠAcuerdo": 10714, "EA": 10715, "Ġentiendo": 10716, "ashington": 10717, "Ġsaga": 10718, "Ġhojas": 10719, "ĠEbro": 10720, "Ġdimensiones": 10721, "Ġpodamos": 10722, "Ġamantes": 10723, "ĠTudela": 10724, "Ġuniversitarios": 10725, "Ã³sitos": 10726, "frad": 10727, "ĠVÃŃa": 10728, "ĠGro": 10729, "Ġemprendedores": 10730, "Ġescond": 10731, "ĠmuriÃ³": 10732, "Ġlong": 10733, "alismo": 10734, "CD": 10735, "ĠfÃ¡brica": 10736, "Ġdisponen": 10737, "Ġexistente": 10738, "ĠexÃ¡menes": 10739, "iforn": 10740, "Ġjoy": 10741, "ĠCasas": 10742, "daje": 10743, "Ġentusias": 10744, "Ġincluida": 10745, "ĠCorea": 10746, "Ġreaccion": 10747, "tipo": 10748, "Ġexcelencia": 10749, "entre": 10750, "ĠPenal": 10751, "Ġesquina": 10752, "Ġjuris": 10753, "ĠTarragona": 10754, "Ġextraordinario": 10755, "Ġpinta": 10756, "ĠCAN": 10757, "ĠFrente": 10758, "Ġpropuesto": 10759, "ĠVillanueva": 10760, "izadas": 10761, "ĠbÃ¡sico": 10762, "reos": 10763, "Ġgesto": 10764, "Ġricos": 10765, "pam": 10766, "Ġinstante": 10767, "ĠJunqueras": 10768, "Ġedil": 10769, "ĠcÃº": 10770, "ĠAuton": 10771, "Cuando": 10772, "Ġprofundo": 10773, "tigos": 10774, "lanos": 10775, "clip": 10776, "tock": 10777, "Ġinfraestructura": 10778, "Ġcriticado": 10779, "Ġcapacidades": 10780, "Ġaqu": 10781, "Ġfavorecer": 10782, "Ġhisp": 10783, "ifu": 10784, "ĠPrimero": 10785, "Ġniega": 10786, "Ġreparaciones": 10787, "Ġfirmar": 10788, "trices": 10789, "ĠBerlÃŃn": 10790, "mado": 10791, "ĠtransmisiÃ³n": 10792, "ture": 10793, "Ġdisponibilidad": 10794, "Ġcuyas": 10795, "Ġretirar": 10796, "Ġcrimen": 10797, "Ġentrevistas": 10798, "Ġdefinitivamente": 10799, "ĠRecur": 10800, "Ġ2002": 10801, "my": 10802, "Ġcobrar": 10803, "ĠBach": 10804, "ĠYou": 10805, "Ġrob": 10806, "Ġbarra": 10807, "ĠespecÃŃfica": 10808, "ĠUnida": 10809, "vera": 10810, "ĠAsuntos": 10811, "Ġizquierdo": 10812, "ĠOfer": 10813, "Mu": 10814, "Ya": 10815, "Ġbrind": 10816, "ĠLeo": 10817, "Ġconformidad": 10818, "ĠBelÃ©n": 10819, "Ġinvita": 10820, "Ġjuvenil": 10821, "Ġcalderas": 10822, "ĠMarc": 10823, "Ġsello": 10824, "Ġcorreg": 10825, "aras": 10826, "Ġsaque": 10827, "Ġacero": 10828, "Ġpapeles": 10829, "Ġesperaba": 10830, "ĠIR": 10831, "Pero": 10832, "Ġbomberos": 10833, "etafe": 10834, "sor": 10835, "Ġdinam": 10836, "aves": 10837, "omina": 10838, "Ġchino": 10839, "Ġsanciones": 10840, "CIAL": 10841, "ĠTeruel": 10842, "ĠInglÃ©s": 10843, "Ġasociados": 10844, "ĠMarketing": 10845, "Ġcumplido": 10846, "ĠromÃ¡n": 10847, "ĠmÃŃnimas": 10848, ".@": 10849, "Ġdisfra": 10850, "Ġelaborar": 10851, "Ġrecuerdos": 10852, "itiva": 10853, "Ġponga": 10854, "Ġcomentando": 10855, "ĠHel": 10856, "ĠAT": 10857, "Ġepisodios": 10858, "gadores": 10859, "Ġregula": 10860, "trico": 10861, "ITA": 10862, "illermo": 10863, "Ġintenso": 10864, "IÃĵN": 10865, "tibilidad": 10866, "ĠEMP": 10867, "Ġfabricante": 10868, "Ġprotagonismo": 10869, "Ġepisodio": 10870, "Ġaca": 10871, "Ġdamos": 10872, "Ġline": 10873, "rie": 10874, "ĠLl": 10875, "ĠplanificaciÃ³n": 10876, "ĠDur": 10877, "Ġina": 10878, "ĠprÃ©stamo": 10879, "ĠtelÃ©fonos": 10880, "Ġcontempl": 10881, "tense": 10882, "cerdo": 10883, "Ġcoher": 10884, "ĠacadÃ©mico": 10885, "edora": 10886, "ĠVerd": 10887, "Ġmagia": 10888, "Ġeficiente": 10889, "Ġmedicamentos": 10890, "Ġinterrump": 10891, "Ġhund": 10892, "Ġmachista": 10893, "ĠAnim": 10894, "ĠArquitec": 10895, "ĠMujeres": 10896, "Ġprotocolo": 10897, "ĠForal": 10898, "Ġdetectar": 10899, "ĠFinanci": 10900, "itando": 10901, "TICA": 10902, "bana": 10903, "TRO": 10904, "ĠmamÃ¡": 10905, "ĠMinistros": 10906, "Ġtestigo": 10907, "comunicaciones": 10908, "Ġutilidad": 10909, "ĠclÃ¡sicos": 10910, "ĠFA": 10911, "ĠNUE": 10912, "Ġ43": 10913, "ĠRev": 10914, "ĠConferencia": 10915, "CÃ¡": 10916, "Ġtrascend": 10917, "Ġnormalmente": 10918, "ĠSosten": 10919, "Ã²": 10920, "Ġvideojuegos": 10921, "Ġiguales": 10922, "trica": 10923, "Ġatac": 10924, "ĠGR": 10925, "ĠCalidad": 10926, "Ġrenuncia": 10927, "ĠaÃ±adiÃ³": 10928, "Ġrechaza": 10929, "Ġanticip": 10930, "Ġradical": 10931, "Ġeje": 10932, "Ġsent": 10933, "Ġprecisa": 10934, "Ġpea": 10935, "Ġcuidados": 10936, "Ġalza": 10937, "Ġrostro": 10938, "Ġabur": 10939, "ĠEdiciones": 10940, "lash": 10941, "uez": 10942, "Ġconserva": 10943, "Ġintegrantes": 10944, "idÃ¡c": 10945, "Ġpersegu": 10946, "ĠgrÃ¡fico": 10947, "55": 10948, "ĠWashington": 10949, "ĠCaixa": 10950, "Ġventanas": 10951, "Ġsolitario": 10952, "ĠPeriÃ³dico": 10953, "Ġveremos": 10954, "ĠAri": 10955, "quetas": 10956, "Ġrosa": 10957, "Ġcortes": 10958, "work": 10959, "mental": 10960, "util": 10961, "Ġcomedia": 10962, "ĠHerrera": 10963, "Ġinvoluc": 10964, "Ġcertamen": 10965, "Ġhecha": 10966, "clar": 10967, "Ġdeportistas": 10968, "fos": 10969, "Ġmilitantes": 10970, "Ġconocen": 10971, "ste": 10972, "Ġembal": 10973, "ĠAtres": 10974, "mons": 10975, "Ġseria": 10976, "ĠSitu": 10977, "Ġadmite": 10978, "Ġpotenciar": 10979, "ĠNicolÃ¡s": 10980, "olas": 10981, "Ġestablecidos": 10982, "ĠindicÃ³": 10983, "Ġatentados": 10984, "66": 10985, "Ġsirven": 10986, "Ġpecul": 10987, "ĠespecÃŃficos": 10988, "ederaciÃ³n": 10989, "Ġautoma": 10990, "TB": 10991, "Ġcanta": 10992, "scar": 10993, "ĠHoteles": 10994, "Ġzapatos": 10995, "Ġobtuvo": 10996, "queta": 10997, "ĠBoletÃŃn": 10998, "Ġgracia": 10999, "Ġentrevis": 11000, "Ġtemplo": 11001, "igan": 11002, "ĠComunitat": 11003, "puestamente": 11004, "ĠCity": 11005, "PI": 11006, "orge": 11007, "Ã©sar": 11008, "ĠdemocrÃ¡tico": 11009, "Ġinvestigar": 11010, "trÃ³leo": 11011, "GE": 11012, "ondas": 11013, "ĠdimisiÃ³n": 11014, "abellÃ³n": 11015, "Ġmultipl": 11016, "ugÃŃa": 11017, "ĠabstenciÃ³n": 11018, "Ġexcepcional": 11019, "ÃŃv": 11020, "Ġitaliana": 11021, "ige": 11022, "Ġdebates": 11023, "biar": 11024, "ĠprÃ©stamos": 11025, "Ġinsiste": 11026, "Ġimpre": 11027, "ĠHal": 11028, "Ġelegante": 11029, "ĠtenÃ©is": 11030, "Ġlargas": 11031, "Ġinto": 11032, "PER": 11033, "ĠidentificaciÃ³n": 11034, "Ġcontinente": 11035, "ĠCand": 11036, "Ġapreci": 11037, "Ġorgullo": 11038, "ĠHTML": 11039, "cepto": 11040, "ĠJerez": 11041, "Ġsignificado": 11042, "ĠveÃŃa": 11043, "Ġcafe": 11044, "aS": 11045, "Ġdije": 11046, "ĠJack": 11047, "ciÃ©ndo": 11048, "Ġbecas": 11049, "Ã©rida": 11050, "Ġguardia": 11051, "ĠURL": 11052, "Ġllevo": 11053, "ĠExteriores": 11054, "Ġindign": 11055, "Ġmotores": 11056, "BR": 11057, "ĠAÃ±o": 11058, "ĠmÃºsicos": 11059, "Ġembarazo": 11060, "ĠMI": 11061, "ÃŃdas": 11062, "Ġmari": 11063, "isto": 11064, "Ġzan": 11065, "Ġagricultura": 11066, "Ġ800": 11067, "Ġcoordinador": 11068, "Ġsalarios": 11069, "Ġsuave": 11070, "ĠMoto": 11071, "Ġbaratos": 11072, "alizamos": 11073, "Ġansi": 11074, "Ġrea": 11075, "Ġunif": 11076, "Ġinstalado": 11077, "ÃĳO": 11078, "politan": 11079, "hara": 11080, "Ġdesin": 11081, "ĠClÃŃn": 11082, "ĠTre": 11083, "Ġancho": 11084, "Ġpermitan": 11085, "Ġperjuicio": 11086, "grafia": 11087, "Ġcongel": 11088, "Ġusos": 11089, "ĠtelefÃ³nica": 11090, "ĠcuÃ¡ndo": 11091, "ĠHi": 11092, "Ġsube": 11093, "Ġleyenda": 11094, "ĠVOLUM": 11095, "Ġnacionalistas": 11096, "ĠDolores": 11097, "Ġacome": 11098, "Ġasignatura": 11099, "Ġafectadas": 11100, "Ġtarifas": 11101, "ĠprevisiÃ³n": 11102, "Ġruso": 11103, "ĠEmilio": 11104, "Ġdependencia": 11105, "ĠFederal": 11106, "ĠMarco": 11107, "ĠSello": 11108, "dor": 11109, "ueba": 11110, "Ġaguan": 11111, "Ġamarillo": 11112, "Ġpresentarse": 11113, "Ġcomparecencia": 11114, "ĠCambio": 11115, "ĠPregun": 11116, "ata": 11117, "Ġtoneladas": 11118, "Ġincorporar": 11119, "Ġvotado": 11120, "ĠPuerta": 11121, "ĠestrÃ©s": 11122, "Ġgor": 11123, "Ġnaz": 11124, "ĠUnos": 11125, "Ġhospitales": 11126, "ĠDescubre": 11127, "ĠTecnologÃŃa": 11128, "Ġcuello": 11129, "Ġutilizados": 11130, "ĠRodrigo": 11131, "ĠentrÃ³": 11132, "ĠGor": 11133, "Ġ(...)": 11134, "ĠIngenierÃŃa": 11135, "Ġtoler": 11136, "Ġenfoque": 11137, "GP": 11138, "Ġfiel": 11139, "ĠtrÃ¡mite": 11140, "Ġrivales": 11141, "Ġmodificaciones": 11142, "igen": 11143, "Ġingen": 11144, "ĠmadrileÃ±a": 11145, "anista": 11146, "Ġformada": 11147, "anismo": 11148, "Ġpuedas": 11149, "ĠHISTORIA": 11150, "Ġbonita": 11151, "ĠWa": 11152, "Ġinvitado": 11153, "Ġpoblaciones": 11154, "Ġdices": 11155, "Ġpierdas": 11156, "Ġfacilidad": 11157, "ĠGuillermo": 11158, "ĠSand": 11159, "ĠejÃ©rcito": 11160, "Ġexitos": 11161, "Ġneum": 11162, "ges": 11163, "ĠSecretario": 11164, "Ġeusk": 11165, "yendo": 11166, "oto": 11167, "ĠUb": 11168, "Ġinformativo": 11169, "adÃ¡": 11170, "Ġperfiles": 11171, "Ġsalga": 11172, "Ġpracticar": 11173, "Ġcorrup": 11174, "Ġseguimos": 11175, "ĠAU": 11176, "Ġmaneras": 11177, "Ġox": 11178, "Ġhorno": 11179, "Ġhilo": 11180, "Ã±al": 11181, "ĠHenares": 11182, "Ġdivertido": 11183, "Ġdespacho": 11184, "Ġ52": 11185, "Ġcreando": 11186, "Ġabiertos": 11187, "ĠdesapariciÃ³n": 11188, "Ġradi": 11189, "ote": 11190, "ls": 11191, "Ġestadounidenses": 11192, "Ġactitudes": 11193, "Ġincertidumbre": 11194, "Ġitiner": 11195, "ĠbÃ¡sica": 11196, "Di": 11197, "bella": 11198, "lace": 11199, "turado": 11200, "Ġmentira": 11201, "Ġmier": 11202, "ĠLlam": 11203, "Ġdestinados": 11204, "ĠArro": 11205, "ĠmuchÃŃsimo": 11206, "ĠEnergÃŃa": 11207, "Ġbares": 11208, "Ġofreciendo": 11209, "ĠAso": 11210, "REC": 11211, "ĠtecnolÃ³gica": 11212, "Ġgris": 11213, "Ġcinemato": 11214, "ĠBara": 11215, "ĠDelegaciÃ³n": 11216, "ĠPublicaciones": 11217, "Ġculmin": 11218, "Ġconstruido": 11219, "87": 11220, "Ġprocedente": 11221, "Ġintegrado": 11222, "ĠSOL": 11223, "koa": 11224, "ĠIbiza": 11225, "Ġtambin": 11226, "Ġrenovables": 11227, "Ġabus": 11228, "Ġaparatos": 11229, "tanos": 11230, "ium": 11231, "Ġcrece": 11232, "ĠAv": 11233, "Ġrecep": 11234, "ĠserÃŃan": 11235, "Ġsaludable": 11236, "ĠAtresmedia": 11237, "CON": 11238, "ning": 11239, "ĠVin": 11240, "ĠdifÃŃciles": 11241, "Ġgenerado": 11242, "Ġmarcador": 11243, "ĠUsted": 11244, "mita": 11245, "ajaja": 11246, "ĠinformÃ¡tica": 11247, "Ġordenadores": 11248, "ĠCasi": 11249, "Ġnacionalidad": 11250, "Ġaterr": 11251, "TIV": 11252, "Ġlaboratorio": 11253, "Ġoficio": 11254, "ĠAlto": 11255, "Ġgravedad": 11256, "Ġinterv": 11257, "Ġimpresionante": 11258, "ĠCÃ©sar": 11259, "Ġextreme": 11260, "itorios": 11261, "%).": 11262, "Ġsucedido": 11263, "ĠMuere": 11264, "ÃŃsimas": 11265, "Ġofrecido": 11266, "Ġcelebran": 11267, "ĠCentros": 11268, "Ã³tica": 11269, "Ġjunta": 11270, "Ġapoyos": 11271, "ĠespectÃ¡culos": 11272, "Ġ41": 11273, "Ġvisitado": 11274, "ĠBBVA": 11275, "ĠseÃ±alar": 11276, "Ġtir": 11277, "Ġpilotos": 11278, "Ġadvertido": 11279, "ĠbaÃ±os": 11280, "Ġresultar": 11281, "Ġcomunica": 11282, "avier": 11283, "ĠTaller": 11284, "Ġlisto": 11285, "ĠBÃ©lgica": 11286, "ĠLam": 11287, "izkaia": 11288, "ĠAquel": 11289, "Ġsatisfa": 11290, "ĠIntroduce": 11291, "Ġsirv": 11292, "Gra": 11293, "ĠBA": 11294, "ĠescÃ¡ndal": 11295, "Ġexclusivo": 11296, "Ġdias": 11297, "alista": 11298, "Ġconveniente": 11299, "ĠUni": 11300, "Ġcolaboradores": 11301, "ĠCompaÃ±": 11302, "ĠapareciÃ³": 11303, "Ġsuponen": 11304, "Ġsobr": 11305, "Ġ85": 11306, "Ġeng": 11307, "ĠLucas": 11308, "ĠCualquier": 11309, "ĠÃ³rdenes": 11310, "Ġinstrucciones": 11311, "ĠproyecciÃ³n": 11312, "ĠEstella": 11313, "ĠartÃŃstica": 11314, "hop": 11315, "ĠRubÃ©n": 11316, "ĠRecord": 11317, "Ġultr": 11318, "ĠSex": 11319, "Ġpaquete": 11320, "ĠconstituciÃ³n": 11321, "Ġaves": 11322, "ĠLatina": 11323, "ĠlÃ³gica": 11324, "Ġfals": 11325, "Ġlook": 11326, "Ġchocolate": 11327, "Pre": 11328, "Ġinvas": 11329, "ĠdiscriminaciÃ³n": 11330, "Ġsentimiento": 11331, "ĠIndepend": 11332, "trina": 11333, "ĠSeguro": 11334, "ĠDoctor": 11335, "Ġempezado": 11336, "wslet": 11337, "ku": 11338, "ĠJard": 11339, "madrid": 11340, "kis": 11341, "ĠZa": 11342, "cual": 11343, "inadas": 11344, "Ġbasta": 11345, "Ġdesaparecido": 11346, "ĠAcon": 11347, "eraciones": 11348, "Ġinstituto": 11349, "Ġbomba": 11350, "Ġmasco": 11351, "ĠCOL": 11352, "ĠSig": 11353, "anÃ©s": 11354, "Ġpreciso": 11355, "ĠWilliam": 11356, "Ġvalorado": 11357, "guay": 11358, "Ġautora": 11359, "ĠCooperaciÃ³n": 11360, "Ġdosis": 11361, "Ġencend": 11362, "ĠcayÃ³": 11363, "Ġpesca": 11364, "ĠCreative": 11365, "grÃ¡ficas": 11366, "iete": 11367, "ÃģN": 11368, "ĠSigu": 11369, "ĠVar": 11370, "ĠProgram": 11371, "Ġobr": 11372, "ĠtrÃ¡mites": 11373, "bÃ³l": 11374, "Ġabuso": 11375, "dulo": 11376, "tand": 11377, "ĠTend": 11378, "Ġdedicar": 11379, "Ġantiguas": 11380, "ISTA": 11381, "Ġaccesorios": 11382, "Ġregresar": 11383, "bate": 11384, "Ġsospech": 11385, "ASA": 11386, "ĠdueÃ±o": 11387, "Ġguarda": 11388, "sung": 11389, "Ġexistir": 11390, "ĠCha": 11391, "Ġfuturos": 11392, "Ġdesarrollando": 11393, "tariado": 11394, "Ġnegativo": 11395, "Ġdemues": 11396, "Ġrebo": 11397, "imentar": 11398, "ĠPublicado": 11399, "ĠhectÃ¡": 11400, "ĠElla": 11401, "Ã¡ndolo": 11402, "PF": 11403, "Ġcuch": 11404, "ĠRobert": 11405, "ĠmÃŃnimos": 11406, "ĠexplicaciÃ³n": 11407, "Ġdispuestos": 11408, "Ġhielo": 11409, "Ġvivimos": 11410, "ihad": 11411, "Ġaumentado": 11412, "Ġdenominado": 11413, "Ġaprobada": 11414, "Ġdefine": 11415, "Ġfrenar": 11416, "Ġvib": 11417, "Ġextraordinaria": 11418, "ĠofrecerÃ¡": 11419, ".:": 11420, "ĠPropiedad": 11421, "logos": 11422, "otas": 11423, "ĠGri": 11424, "way": 11425, "2010": 11426, "Ġedades": 11427, "ĠmatemÃ¡ticas": 11428, "cÃ©u": 11429, "ĠCarn": 11430, "esp": 11431, "Ġpromociones": 11432, "ĠDisfru": 11433, "Ġprofesora": 11434, "ĠiluminaciÃ³n": 11435, "Â®": 11436, "Ġpatio": 11437, "ĠencontrarÃ¡s": 11438, "culares": 11439, "42": 11440, "Ġdiscul": 11441, "Ġoptar": 11442, "ĠIrÃ¡n": 11443, "Ġpelota": 11444, "Ġllevamos": 11445, "anti": 11446, "Ġunido": 11447, "ĠAvenida": 11448, "Ġinvestigador": 11449, "Ġhice": 11450, "vancia": 11451, "Ġincapa": 11452, "Ġgimnas": 11453, "Ġganadores": 11454, "Ġtuve": 11455, "ĠÃļl": 11456, "ani": 11457, "ĠConsistorio": 11458, "ĠEntrevista": 11459, "ĠcaÃŃdo": 11460, "Ġprevisiones": 11461, "estiona": 11462, "ĠtÃ¡c": 11463, "ĠRena": 11464, "ÃŃculas": 11465, "ĠBod": 11466, "ĠPU": 11467, "Sevilla": 11468, "eres": 11469, "Ġacaban": 11470, "Ġmantuvo": 11471, "ĠemociÃ³n": 11472, "ĠnÃºcleo": 11473, "guera": 11474, "asa": 11475, "ĠAcces": 11476, "orden": 11477, "300": 11478, "jÃ³": 11479, "pald": 11480, "ĠCola": 11481, "Ġensal": 11482, "Ã¡u": 11483, "Ġabandono": 11484, "Ġsupuestamente": 11485, "ĠEnferm": 11486, "ĠdinÃ¡mica": 11487, "cua": 11488, "mÃ³n": 11489, "idable": 11490, "Ġsigo": 11491, "blogspot": 11492, "Ġpop": 11493, "cilla": 11494, "Ġcultivo": 11495, "ĠColec": 11496, "Ġbolsas": 11497, "ĠManten": 11498, "Ġcumbre": 11499, "ĠCinco": 11500, "ĠobstÃ¡": 11501, "ĠmontÃ³n": 11502, "idane": 11503, "UEL": 11504, "Ġintentado": 11505, "ĠWi": 11506, "Ġacordado": 11507, "Ġsacerdo": 11508, "Ġvueltas": 11509, "Ġencuentras": 11510, "ĠLec": 11511, "Ġsalarial": 11512, "ĠvergÃ¼enza": 11513, "Ġcamin": 11514, "Ġdada": 11515, "Ġcartera": 11516, "ĠPÃ¡g": 11517, "ĠcÃ©": 11518, "Ġfort": 11519, "enciado": 11520, "ania": 11521, "Ġnormalidad": 11522, "Ġparedes": 11523, "ĠJunio": 11524, "Ġpreguntado": 11525, "NI": 11526, "Ġregener": 11527, "Ġcarro": 11528, "Ġapuntan": 11529, "Ġmalas": 11530, "Ġcomprob": 11531, "Ġtranquilo": 11532, "tua": 11533, "remo": 11534, "Ġrespetar": 11535, "ĠextinciÃ³n": 11536, "Ġtrag": 11537, "Ġdiarios": 11538, "ĠFamilia": 11539, "ĠcalefacciÃ³n": 11540, "cuenta": 11541, "ĠacusaciÃ³n": 11542, "Ġcapitales": 11543, "Ġsuponer": 11544, "Ġayudan": 11545, "Ġunir": 11546, "ĠUl": 11547, "Ġmandar": 11548, "ĠmÃ©dica": 11549, "ĠAmazon": 11550, "Ġsensaciones": 11551, "Ġdirectivos": 11552, "Fi": 11553, "TAL": 11554, "Ġdisfruta": 11555, "Ġartificial": 11556, "cher": 11557, "ĠEdad": 11558, "ĠGam": 11559, "ĠCompe": 11560, "ĠBÃ¡r": 11561, "op": 11562, "Ġfamosos": 11563, "68": 11564, "ĠApl": 11565, "ĠTS": 11566, "Ġtengas": 11567, "ÃŃsimos": 11568, "Ġindependientes": 11569, "ĠTelefÃ³nica": 11570, "iega": 11571, "Ġadoptar": 11572, "pula": 11573, "Ġtraspas": 11574, "copa": 11575, "Ġbuscas": 11576, "gencia": 11577, "ĠintentÃ³": 11578, "Ġecos": 11579, "Ġhuevos": 11580, "ĠcÃ³modo": 11581, "ĠsÃŃmbolo": 11582, "gro": 11583, "df": 11584, "ĠOp": 11585, "Ġautobuses": 11586, "Ġlongitud": 11587, "Lu": 11588, "Ac": 11589, "andia": 11590, "ĠpetrÃ³leo": 11591, "itz": 11592, "Ġindicar": 11593, "idro": 11594, "Ġparques": 11595, "ĠGuÃŃa": 11596, "Ġrumbo": 11597, "ĠcapitÃ¡n": 11598, "ĠJornada": 11599, "Ġaportaciones": 11600, "Ġmotos": 11601, "ĠGrado": 11602, "TAM": 11603, "ĠPerÃº": 11604, "ĠprecisiÃ³n": 11605, "ĠXII": 11606, "seÃ±": 11607, "ĠJudicial": 11608, "Ġdeseos": 11609, "olencia": 11610, "guas": 11611, "ĠenergÃŃas": 11612, "Pue": 11613, "ĠCateg": 11614, "recciÃ³n": 11615, "Ġatraves": 11616, "ifuentes": 11617, "cÃ¡n": 11618, "cionista": 11619, "Ġandaluces": 11620, "ĠNadie": 11621, "Ġsuena": 11622, "Ġempleos": 11623, "ĠEntidad": 11624, "Ġreunido": 11625, "ĠpasarÃ¡": 11626, "ĠAnun": 11627, "ANO": 11628, "ĠÃ©xitos": 11629, "iante": 11630, "elaciÃ³n": 11631, "ĠvÃŃn": 11632, "Ġcomodidad": 11633, "ĠNob": 11634, "Ġfachada": 11635, "ĠPalencia": 11636, "Ġconductores": 11637, "Ġsar": 11638, "tituciÃ³n": 11639, "ĠCampos": 11640, "osex": 11641, "NE": 11642, "ĠpÃ¡rrafo": 11643, "Ġlegalidad": 11644, "mus": 11645, "ben": 11646, "Ġimplicados": 11647, "Ġreconoc": 11648, "Ġcontando": 11649, "Ġmanteniendo": 11650, "ĠCatedral": 11651, "Ġconvencido": 11652, "onostia": 11653, "hesiÃ³n": 11654, "Ġcable": 11655, "ĠEstatuto": 11656, "ĠAten": 11657, "Ġinformamos": 11658, "ĠCONS": 11659, "ĠanimaciÃ³n": 11660, "Ġregionales": 11661, "ENER": 11662, "Ġbrutal": 11663, "Ġexpresado": 11664, "ĠinstantÃ¡neamente": 11665, "Ġmulta": 11666, "!,": 11667, "terales": 11668, "ĠMO": 11669, "ĠSIN": 11670, "ĠgrabaciÃ³n": 11671, "ĠCommons": 11672, "Ġcomparte": 11673, "Ã¡zar": 11674, "Ġprofesorado": 11675, "Ġhomosex": 11676, "Ġclaras": 11677, "Ġadicionales": 11678, "Ġlluvias": 11679, "Ġpecho": 11680, "Ġderivados": 11681, "rÃ¡fico": 11682, "Ġenemigo": 11683, "Ġasamblea": 11684, "Ġconcil": 11685, "Ġmonte": 11686, "Ġfases": 11687, "ĠAÃ±ade": 11688, "Ġprevistos": 11689, "Ã³tico": 11690, "ĠFuen": 11691, "Ġdestina": 11692, "Ġfundamentalmente": 11693, "tÃ¡ndo": 11694, "idi": 11695, "ony": 11696, "ĠartÃŃstico": 11697, "Ġtest": 11698, "ĠPoder": 11699, "Ġgole": 11700, "ĠStre": 11701, "ĠQuiero": 11702, "for": 11703, "tosa": 11704, "landia": 11705, "set": 11706, "Ġetapas": 11707, "Ġobligatorios": 11708, "ERS": 11709, "icis": 11710, "Ġrecopil": 11711, "Ġcontroles": 11712, "\",\"": 11713, "Ġcadenas": 11714, "edras": 11715, "sabilidad": 11716, "BO": 11717, "Ġsujeto": 11718, "kel": 11719, "Ġoeste": 11720, "Ġasturiano": 11721, "TRE": 11722, "Ġadaptar": 11723, "ivia": 11724, "ĠexclusiÃ³n": 11725, "ĠLeague": 11726, "Ġdependiendo": 11727, "Ġlitros": 11728, "Ġmeteor": 11729, "Ã³micas": 11730, "Ġtomando": 11731, "onado": 11732, "Ġrepu": 11733, "Ġagencias": 11734, "Ġestilos": 11735, "77": 11736, "Ġpasaron": 11737, "ĠDescar": 11738, "tza": 11739, "ĠfalleciÃ³": 11740, "CES": 11741, "Ġcomedor": 11742, "ĠrecordÃ³": 11743, "cistas": 11744, "Ġcastillo": 11745, "Ġeter": 11746, "landa": 11747, "lywood": 11748, "ĠPDF": 11749, "Ġfutura": 11750, "ĠMari": 11751, "Ġescenas": 11752, "ĠMontero": 11753, "Ġajuste": 11754, "Ġubicada": 11755, "Ġcompara": 11756, "ĠconducciÃ³n": 11757, "ĠautÃ©ntica": 11758, "ĠvivÃŃa": 11759, "Ġsustituir": 11760, "Ġsimpa": 11761, "Ġhierro": 11762, "ĠconocÃŃa": 11763, "Ġahorrar": 11764, "Ġ49": 11765, "Ġ112": 11766, "ĠVOLUMENES": 11767, "Ġbienvenida": 11768, "ĠMend": 11769, "tiza": 11770, "Ġascens": 11771, "ĠSha": 11772, "Ġpuls": 11773, "Ġmediter": 11774, "ĠsanciÃ³n": 11775, "ĠmÃºsico": 11776, "Ġterap": 11777, "Ġadministrativo": 11778, "Ġhubieran": 11779, "ester": 11780, "Ġmedias": 11781, "Ġagricul": 11782, "ĠextraÃ±o": 11783, "ĠRem": 11784, "ĠEncuentra": 11785, "ĠtecnolÃ³gico": 11786, "ĠCompos": 11787, "ĠfÃŃsicas": 11788, "ezcan": 11789, "Ġparticiparon": 11790, "Ġbosque": 11791, "ĠAires": 11792, "ĠPLA": 11793, "garon": 11794, "Ġentrado": 11795, "ĠdomÃ©s": 11796, "ĠPAÃįS": 11797, "Ġcombate": 11798, "ÃŃsica": 11799, "ĠpermitiÃ³": 11800, "Ġdanza": 11801, "\")": 11802, "ĠAlcald": 11803, "torÃŃa": 11804, "ĠJuego": 11805, "ILL": 11806, "ward": 11807, "Ġcusto": 11808, "hacer": 11809, "cast": 11810, "Ã©rrez": 11811, "Ġindividuo": 11812, "Ġalrededores": 11813, "Ġdesarrolladores": 11814, "Ġruptura": 11815, "Ġpasta": 11816, "ĠmÃ¡ster": 11817, "sea": 11818, "ĠFiesta": 11819, "ode": 11820, "Ġtera": 11821, "Ġintroduce": 11822, "ĠCifuentes": 11823, "Ġarries": 11824, "fredo": 11825, "ĠFiestas": 11826, "ĠGetafe": 11827, "Ġimpide": 11828, "ĠDebe": 11829, "Ġsolicita": 11830, "ĠAlquiler": 11831, "ĠOriente": 11832, "ĠAsia": 11833, "eller": 11834, "tavoces": 11835, "Ġvera": 11836, "Ġpeores": 11837, "ĠConten": 11838, "ĠclÃ¡sica": 11839, "ĠPO": 11840, "Ġfrases": 11841, "ult": 11842, "Ġdibujo": 11843, "oooo": 11844, "hh": 11845, "Ġ95": 11846, "Ġparad": 11847, "Ġdilig": 11848, "Ġcentra": 11849, "ĠMichel": 11850, "ĠOnline": 11851, "Ġfar": 11852, "Ã¡ndonos": 11853, "ĠGÃ¼": 11854, "Ġejemplar": 11855, "ĠMaster": 11856, "queros": 11857, "Ġtransferencia": 11858, "Ġenve": 11859, "ĠIndustrial": 11860, "uevas": 11861, "afas": 11862, "ĠRol": 11863, "Ġproductores": 11864, "Ġmanio": 11865, "illones": 11866, "ĠhÃ©ro": 11867, "ĠOlÃŃmp": 11868, "eses": 11869, "iquen": 11870, "menos": 11871, "ĠespecÃŃficas": 11872, "entamiento": 11873, "Ġmortal": 11874, "ĠdescripciÃ³n": 11875, "Ġsupermer": 11876, "Ġinmueble": 11877, "Ġsuya": 11878, "ĠenergÃ©tico": 11879, "ĠboletÃŃn": 11880, "Ġconducta": 11881, "iblan": 11882, "ĠseÃ±ora": 11883, "obiliario": 11884, "ĠSerrano": 11885, "mann": 11886, "abo": 11887, "Ġprevistas": 11888, "Ġacusaciones": 11889, "ĠMADRID": 11890, "ĠABC": 11891, "Ġarmon": 11892, "Ġber": 11893, "ĠCoci": 11894, "ĠXVII": 11895, "Ġestuvieron": 11896, "Ġremar": 11897, "ĠPrado": 11898, "adera": 11899, "Ġtalla": 11900, "Ġpreserv": 11901, "Ġparlamentarios": 11902, "Ġservido": 11903, "ĠPadre": 11904, "ĠcreÃ³": 11905, "Ġponemos": 11906, "Ġdesbloque": 11907, "ĠMemoria": 11908, "Ġusado": 11909, "Ġherido": 11910, "Ġpersonalmente": 11911, "ĠAlcalde": 11912, "tificado": 11913, "Ġestal": 11914, "crita": 11915, "Ġgigantes": 11916, "ĠPoco": 11917, "ĠImpues": 11918, "ĠÃ©stas": 11919, "ĠNÃº": 11920, "yl": 11921, "Ġreparacion": 11922, "ĠÃĵscar": 11923, "ĠConcejal": 11924, "Ġblancos": 11925, "ĠcÃ¡nta": 11926, "ĠdiscusiÃ³n": 11927, "ĠIgualmente": 11928, "...\"": 11929, "Ġrechazado": 11930, "Ġpescado": 11931, "Ġfilial": 11932, "ĠRecursos": 11933, "Ġfinanciar": 11934, "gio": 11935, "Ġconvencer": 11936, "ĠRet": 11937, "Ġfracas": 11938, "ĠTÃŃtulo": 11939, "Ġcompetitividad": 11940, "Ġdisminu": 11941, "Ġindividuos": 11942, "ĠMarÃŃn": 11943, "Ġrelevancia": 11944, "ĠHon": 11945, "ĠVivienda": 11946, "Ġfuncionar": 11947, "Ġparados": 11948, "ĠrecibirÃ¡": 11949, "Ġbajada": 11950, "?\"": 11951, "Ġsalidas": 11952, "Ġfijo": 11953, "ĠObras": 11954, "rom": 11955, "tables": 11956, "Estamos": 11957, "Ġindefin": 11958, "ĠBi": 11959, "ĠUU": 11960, "Ġdesayuno": 11961, "Ġfuga": 11962, "Ġnavarra": 11963, "Ġquedaron": 11964, "Ġfinca": 11965, "Ġanunciar": 11966, "ĠacogerÃ¡": 11967, "ĠGutiÃ©rrez": 11968, "Ja": 11969, "pany": 11970, "ĠMÃ¡rquez": 11971, "Ġconcursos": 11972, "Ġdisciplina": 11973, "ĠestadÃŃsticas": 11974, "ĠComprom": 11975, "ĠdelegaciÃ³n": 11976, "incesa": 11977, "iense": 11978, "Ġmaquinaria": 11979, "Ġcompromete": 11980, "Ġproxim": 11981, "ĠimaginaciÃ³n": 11982, "ĠhectÃ¡reas": 11983, "ĠGoya": 11984, "Ġemitir": 11985, "ĠpÃºblicamente": 11986, "ĠVida": 11987, "entas": 11988, "illerato": 11989, "Ġcated": 11990, "ĠGRAN": 11991, "ĠCalvo": 11992, "ENTA": 11993, "ĠhabÃ©is": 11994, "tÃ©rpre": 11995, "traciÃ³n": 11996, "olla": 11997, "heim": 11998, "uyen": 11999, "Ġfunda": 12000, "Tu": 12001, "Ġfichero": 12002, "ĠMAS": 12003, "400": 12004, "Ġtirar": 12005, "Ġregla": 12006, "ille": 12007, "ĠLleida": 12008, "edos": 12009, "sol": 12010, "espe": 12011, "Ġindependentismo": 12012, "ĠTem": 12013, "ĠIslÃ¡mico": 12014, "geci": 12015, "Ġpir": 12016, "ĠhÃŃ": 12017, "Ġmales": 12018, "ecemos": 12019, "ĠdevoluciÃ³n": 12020, "ĠclÃŃnica": 12021, "ĠAG": 12022, "Ġexcepto": 12023, "Ġalberg": 12024, "ĠAprend": 12025, "Ġfavorable": 12026, "Ġconviene": 12027, "Ġsemin": 12028, "Ġprimaria": 12029, "ĠCanadÃ¡": 12030, "Ġpeculiar": 12031, "ĠdidÃ¡c": 12032, "Ġconcluido": 12033, "Ġgustos": 12034, "ĠSamsung": 12035, "Ġrecurrir": 12036, "Ġaccesibilidad": 12037, "incl": 12038, "cionan": 12039, "viar": 12040, "ĠparÃ¡": 12041, "Ġsustan": 12042, "edio": 12043, "Ġretraso": 12044, "ĠDirectiva": 12045, "ĠVera": 12046, "jeras": 12047, "ĠEstudi": 12048, "Ġescritos": 12049, "Ġsuceso": 12050, "Ġoccidental": 12051, "ĠBri": 12052, "Ġjer": 12053, "ĠAses": 12054, "ĠdiseÃ±os": 12055, "Ġmigra": 12056, "ĠIES": 12057, "Ġfrecuentes": 12058, "Ġnuevamente": 12059, "ĠTVE": 12060, "ANTE": 12061, "Ġmuro": 12062, "Ġincons": 12063, "Ġpretenden": 12064, "valu": 12065, "Ġextender": 12066, "Ġfranquismo": 12067, "Ġele": 12068, "ĠquedarÃ¡": 12069, "person": 12070, "ĠRich": 12071, "Ġrecomendable": 12072, "Ġrespald": 12073, "Ġrid": 12074, "aaaa": 12075, "ĠFuerzas": 12076, "Ġbordo": 12077, "Or": 12078, "ĠAndre": 12079, "Ġarroz": 12080, "Ġtraer": 12081, "Ġasimismo": 12082, "2016": 12083, "box": 12084, "Ġsometer": 12085, "Ġreduc": 12086, "Ġpude": 12087, "ĠMira": 12088, "janos": 12089, "ija": 12090, "Ġmecanismo": 12091, "ases": 12092, "Ġrica": 12093, "Ġapostar": 12094, "Ġdecimos": 12095, "Ġempiezan": 12096, "Ġbau": 12097, "licos": 12098, "Ġoscuro": 12099, "Ġtestigos": 12100, "Ġmueve": 12101, "Ġrepos": 12102, "Ġbarato": 12103, "Ġintensa": 12104, "cribirse": 12105, "ĠAgua": 12106, "bara": 12107, "ĠLorca": 12108, "ĠcumpleaÃ±os": 12109, "Ġsentirse": 12110, "Ġminim": 12111, "Ġgerente": 12112, "cuador": 12113, "Ġintu": 12114, "Ġhig": 12115, "Ġdirectores": 12116, "ĠcalificaciÃ³n": 12117, "ĠEstudio": 12118, "Ġincluidas": 12119, "Ġapete": 12120, "ĠInicia": 12121, "gras": 12122, "Ġexclu": 12123, "Ġmontar": 12124, "Ġluna": 12125, "Ġvea": 12126, "vistar": 12127, "itable": 12128, "emora": 12129, "Ġagro": 12130, "Ġdirecciones": 12131, "Ġreclamar": 12132, "ĠPens": 12133, "CIOS": 12134, "Ġsemifinales": 12135, "Ġaudiovisual": 12136, "Ġbanquillo": 12137, "ĠsuscripciÃ³n": 12138, "DD": 12139, "Ġsuyos": 12140, "Ġga": 12141, "Ġjardines": 12142, "serv": 12143, "ĠFrank": 12144, "Ġproceder": 12145, "43": 12146, "Ġmedioambiental": 12147, "Ġconocidas": 12148, "Ġceremonia": 12149, "Ġescritura": 12150, "Ġalmacenamiento": 12151, "Ġpredic": 12152, "Ġempleado": 12153, "ĠEsperanza": 12154, "':": 12155, "ĠSuiza": 12156, "Ġsaca": 12157, "Ġprecioso": 12158, "Ġlimitar": 12159, "Ġpolvo": 12160, "ifornia": 12161, "ĠDVD": 12162, "Ġabsur": 12163, "Ġespl": 12164, "Ġnacionalismo": 12165, "Ġbuscador": 12166, "cianos": 12167, "ĠSERVI": 12168, "ĠUsuarios": 12169, "Ġmodos": 12170, "Ġcalific": 12171, "Ġcompetente": 12172, "Ġguitarra": 12173, "ĠSuscrÃŃbete": 12174, "Ġdejaron": 12175, "ĠViejo": 12176, "Ġaulas": 12177, "Ġescog": 12178, "Ġdefici": 12179, "Ġconmemor": 12180, "Ġtrataba": 12181, "Ġyihad": 12182, "ĠacompaÃ±ada": 12183, "Ġcarteles": 12184, "tecar": 12185, "ĠMotor": 12186, "Ġnoved": 12187, "Ġalcaldes": 12188, "ĠVoz": 12189, "Ġrecupera": 12190, "Ġexcusa": 12191, "Ġtransfer": 12192, "ĠWh": 12193, "pea": 12194, "Ġvictorias": 12195, "Mon": 12196, "Ġafectar": 12197, "sex": 12198, "Ġplane": 12199, "ividad": 12200, "Ġusan": 12201, "Ġobtenidos": 12202, "ĠMaÃ±ana": 12203, "67": 12204, "Ġimpone": 12205, "Ġoptimizar": 12206, "mate": 12207, "Ġhueco": 12208, "Ġmuseos": 12209, "Ġsalsa": 12210, "Ġsorprendente": 12211, "dipu": 12212, "Ġdesactivados": 12213, "ĠSecund": 12214, "uega": 12215, "Ġtoro": 12216, "Ġaventuras": 12217, "2007": 12218, "ĠdestrucciÃ³n": 12219, "Ġhola": 12220, "ĠtomÃ³": 12221, "mod": 12222, "Ġdientes": 12223, "Ġhistori": 12224, "tÃ¡ndose": 12225, "Ġcuarenta": 12226, "ago": 12227, "Ġguapa": 12228, "ticiÃ³n": 12229, "tÃ©s": 12230, "Ġdifundir": 12231, "ĠGuer": 12232, "ĠLU": 12233, "ocimiento": 12234, "ĠimplicaciÃ³n": 12235, "Ġobserva": 12236, "ĠMorales": 12237, "Ġdepos": 12238, "Ġpiensan": 12239, "ĠPrecis": 12240, "arde": 12241, "ĠmÃ¡r": 12242, "leto": 12243, "ilitado": 12244, "Ġllevaron": 12245, "Ġoral": 12246, "Cre": 12247, "Ġentero": 12248, "ĠsubvenciÃ³n": 12249, "Ġavanzada": 12250, "ĠTU": 12251, "Ġconectar": 12252, "unos": 12253, "ĠVel": 12254, "ĠBrexit": 12255, "Ġvieja": 12256, "pur": 12257, "umer": 12258, "jados": 12259, "drÃŃa": 12260, "CuÃ¡l": 12261, "ĠSegura": 12262, "animidad": 12263, "ĠAbog": 12264, "Ġverlo": 12265, "Ġce": 12266, "CS": 12267, "ĠSEG": 12268, "ĠlingÃ¼": 12269, "ĠhablÃ³": 12270, "toso": 12271, "Ġconcejala": 12272, "cionadas": 12273, "Ġterminal": 12274, "Ġcapi": 12275, "ĠllamÃ³": 12276, "Ġsustancias": 12277, "ĠGin": 12278, "ĠdesafÃŃo": 12279, "Ġcantar": 12280, "Ġinmuebles": 12281, "Ġvertic": 12282, "Ġutilizada": 12283, "ĠfusiÃ³n": 12284, "ĠpolÃ©m": 12285, "ĠviviÃ³": 12286, "Ġcandidaturas": 12287, "idia": 12288, "ĠAce": 12289, "ĠJean": 12290, "bon": 12291, "Ġfomento": 12292, "pedal": 12293, "drome": 12294, "ĠportuguÃ©s": 12295, "Ġcuotas": 12296, "Ġcerveza": 12297, "entino": 12298, "ĠConfederaciÃ³n": 12299,
[...]
